#version: 0.2 - Trained by `huggingface/tokenizers`
Ġ (
Ġ )
Ġ .
e r
o n
r e
i n
Ġ t
Ġ ,
a t
Ġ $
Ġ s
Ġ =
Ġ ;
e n
Ġ c
Ġ i
e t
Ġ a
o r
e s
Ġ Ġ
Ġ re
Ġ f
i on
Ġt h
a l
Ġ {
Ġ }
Ġ n
i s
e l
Ġ p
Ġ :
u r
Ġ '
a r
l e
c t
Ġ -
a m
Ġ d
r o
a n
i t
Ġ [
s e
Ġ ]
Ġi f
in g
c e
Ġ m
t r
Ġ g
Ġ "
Ġ in
Ġ- >
u n
en t
Ġ o
ur n
u t
d e
Ġ b
Ġre t
Ġth e
Ġret urn
Ġ l
e d
i l
Ġ v
u l
Ġth is
s t
i c
Ġg et
p t
e x
am e
at e
Ġ w
Ġ /
c h
u e
a s
a g
p e
Ġ S
ct ion
i d
e m
o t
Ġi s
r a
o l
Ġc on
Ġs el
Ġt o
e w
i g
a d
o m
c k
Ġf or
Ġsel f
Ġ h
at ion
Ġ/ /
o d
er r
tr ing
q u
u b
Ġ 0
pt ion
is t
ĠĠ ĠĠ
a b
u m
Ġ *
i m
I n
l o
Ġs t
Ġ C
e ct
t er
y pe
Ġ _
o de
al ue
Ġa n
Ġ err
Ġn ew
es t
at a
Ġ +
i le
Ġ T
Ġre s
Ġ !
e y
es s
Ġ 1
Ġ >
ul t
u s
ex t
en d
ag e
Ġ <
p l
- -
er s
Ġ el
u p
Ġ k
un ction
Ġa r
ul l
at h
Ġ= =
Ġ N
E x
Ġ e
R e
i v
as s
ab le
i f
Ġ ex
Ġ A
Ġt r
Ġo f
ra y
Ġ r
Ġl o
a p
ar am
ub l
b j
C on
Ġd e
Ġs et
Ġf unction
Ġn ull
ubl ic
a se
d d
Ġp ro
t h
i z
Ġ P
al l
re s
qu est
p er
p ut
l ass
Ġv alue
N ame
Ġc h
Ġ D
an d
o un
Ġcon t
Ġ I
Ġ #
Ġel se
f ig
Ġan d
ce ption
Ġ &
in t
m ent
on e
o ur
Ġ F
o re
Ġ! =
i r
p ublic
it h
a ck
ar t
Ġn ot
Ġa s
el d
bj ect
Ġ M
i eld
ro w
Ġ: :
im e
i b
n t
a ch
Ġk ey
or t
p on
Ġd ata
v er
Ex ception
o c
at ch
Ġb e
f a
Ġn ame
Ġin t
S t
Ġ L
Ġ E
Ġa p
ĠS tring
Ġn il
Ġ= >
or d
Ġi t
Ġ: =
ro m
Ġ \
v i
r r
Ġa l
Ġ j
Ġar ray
Ġa dd
a y
n ame
a in
Ġ O
Ġc om
Ġs tring
Ġ R
or m
de f
v e
o s
an g
ĠĠĠĠ ĠĠĠĠ
st an
s et
o w
al se
il d
et h
re nt
I d
l i
s er
un c
our ce
-- --
iz e
Ġerr or
o p
e c
in e
T ype
it y
de x
Ġl en
Ġres ult
g s
ĠĠ Ġ
r i
al id
rr or
Ġv ar
Ġ en
Ġ |
eth od
ption s
Ġf in
pon se
Ġ 2
i re
Ġ or
Ġp aram
h e
a k
Ġ u
r it
Ġ us
Ġf ile
f er
Ġ U
g et
Ġp ath
Ġre quest
c on
oun t
stan ce
u re
Ġap p
Ġo ut
Ġ& &
Ġw ith
ĠN one
Ġw h
o k
re ate
Ġ on
Ġth row
Ġ B
i es
R es
it ion
Ġs tr
Ġst at
Ġ G
Ġi d
Ġlo g
c ess
ess age
v ent
f o
Ġt ype
Ġ x
V alue
a ct
Ġ at
a ce
ut e
i p
P ro
er y
Ġf rom
Ġf alse
or y
= =
Ġ @
vi ce
an s
Ġb y
* *
u g
Ġtr ue
at or
Ġ un
u st
Ġcon fig
fa ult
f unc
Ġc ol
Ġfor m
h t
Ġc ase
i al
um ent
a x
Ġf ield
K ey
E R
p ort
ro up
Ġ In
g th
o ut
Con t
Ġf il
Ġc ur
res s
E n
tr ib
Ġl ist
Ġc lass
E rror
o st
Ġ H
a il
per t
O N
s h
Ġp re
li ent
Ġ y
Ġ W
Ġ end
u ild
Ġm od
L ist
p r
e ad
p ro
A r
f orm
iv e
a st
at ed
Re quest
Ġ ?
g er
S et
Ġs e
u f
i x
tr y
Ġs h
al u
s tr
Ġo ptions
Ġs er
if i
pe c
I N
Ġm ethod
en er
Ġi m
c ode
Ġh as
d ate
0 0
Ġapp end
l y
Ġth at
o g
ur l
Ġ qu
Ġs ub
Ġ ro
ers ion
t ype
ig n
u le
ang e
Ġfin al
in d
Ġus er
se d
Ġ up
Ġw e
Ġo bject
I D
ĠC on
t e
il l
Ġ %
lo ck
Ġform at
Ġd o
es c
P ath
b er
Ġc all
alu es
Ġ| |
t t
l er
ig ht
D ata
Ġc reate
am es
in k
um n
Ġn ode
Ġ== =
D e
/ /
Ġstat ic
Ġit em
e ck
o int
c es
d er
Ġres ponse
Ġ ra
f ile
Ġlen gth
Ġin dex
c al
oun d
en s
T o
Ġtr y
Ġ V
Ġal l
or k
Ġp ar
S tring
m l
C h
Ġcur rent
is e
de d
P aram
Ġst art
---- ----
A T
o le
Ġin stance
o f
re am
e ction
ut h
rit e
C lass
ter n
C om
Ġb o
Ġ em
en ce
p ath
Ġ J
Ġde fault
le ment
ach e
el et
Con fig
Ġin put
g ument
F ile
Ġt ime
ar y
at es
s on
a rent
Ġn um
Ġcont ext
em ent
lo w
er e
b ack
pert y
pt y
ar get
S er
ect ed
ic ation
c l
i de
c om
Ġar gs
a re
as k
a ve
iv en
. .
o id
ĠT r
o ve
a v
Ġqu ery
p h
Ġm atch
Ġp r
et er
Ġc an
Ġre m
c cess
et urn
Ġm ap
u ct
Ġa re
Ġre ad
k ey
Ġs pec
B y
Ġparam s
tt p
A t
R E
M ap
Ġg iven
fa ce
Ġch eck
ire ct
Ġ Re
t o
re ak
Ġe vent
ur ation
ab el
t em
Ġ' '
Ġout put
v alid
y n
y p
Ġ url
e p
S T
Ġm essage
Ġ le
o in
Ġp l
trib ute
Ġs c
m and
Ġ 3
p aram
d ata
ess ion
== ==
Ġf ore
re ad
ter face
Ġb reak
ing s
L E
c ord
n ot
Ġw ill
f ix
w ar
Ġtr ans
N ode
g e
p ace
Ġh ead
ak e
Ġcont ain
Ġcont ent
C ol
f unction
O R
p os
Ġv oid
Ġst ate
ir st
O bject
ro l
Ġv alid
Ġv alues
b ug
f in
Ġc l
Q u
elet e
Ġel ement
am p
on g
i ct
ĠS t
ĠT h
Ġfore ach
j ect
Ġmod el
ifi ed
an ag
v el
le ction
Ġm ax
n ection
lo ad
Ġto k
o b
Ġh and
Ġp os
T ime
O f
c c
uild er
iv ate
t ext
ce pt
t ime
M E
m s
Ġre g
as h
uf fer
Ġs ize
pl ace
Ġ+ +
In fo
G et
ĠG et
ok en
an t
ĠI f
_ _
od y
F ield
o ck
ar sh
Ġt ext
t x
A n
Ġl ine
Ġc ode
Ġp arent
i ew
U n
A R
A dd
ĠL ist
f set
yp es
R eturn
ar ch
re e
ut es
pl ate
ow n
at us
Ġd oc
Ġ z
Ġu se
ĠS et
Ġ_ _
Ġra ise
o ul
Ġc lient
Ġex ist
oul d
** **
Ġem pty
od el
m t
Ġ+ =
ation s
A L
Ġt able
Ġd is
In dex
s c
Ġt arget
ord er
Ġis set
ĠT he
Ġt em
ag es
Ġn ext
t il
Ġb ase
Ġ row
p ress
pon ent
ole an
al s
et ers
ĠO bject
Ġfil ter
er m
ch em
ser t
im it
qu ire
l es
Ġg roup
Cont ext
Ġ q
Ġc atch
Ġw rite
E lement
Ġt ag
Ġr ange
s s
t ected
er t
esc ri
ĠTr ue
is s
s g
Ġc ount
Ġcol umn
Ġres ource
Ġ 4
ar d
Ġo p
Ġh ttp
anag er
Res ponse
p ar
et a
A l
ĠE rror
en ame
T r
Ġp ublic
an n
Ġn e
un d
b o
Ar ray
a c
t es
M essage
s tring
Ġo bj
ĉ ĉ
ĠF alse
Ġs ource
C ode
Ġr un
Ġp art
il ter
Ġup date
S E
rit er
pt s
. '
y st
w ord
ent ity
ver t
l ist
U R
u d
op y
P I
Ġc tx
Ġfin d
6 4
c lass
v err
yst em
Ġpar se
Ġ ext
Ġre q
war gs
id th
G roup
ion s
able d
pro tected
re d
St ate
Ġ!= =
p s
Ġf irst
Ġin fo
ĠR es
v al
ar ray
pl it
a ction
he ck
Ġn p
Ġm in
v alue
E vent
fer ence
Ġreturn s
th er
it e
Qu ery
Ġ X
Ġo s
trib utes
Ġl ast
ad er
H and
od es
I ON
Ġtok en
pert ies
Ġch ar
Ġd at
Ġch ild
pr ivate
p oint
m in
i a
Ġser vice
E N
Ġn o
lo at
Ġby te
Ġcom p
O r
Ġj son
if y
el l
ĠN ew
et ad
ot e
Ġs up
I m
ĠĠĠĠĠĠĠĠ ĠĠĠĠĠĠĠĠ
Ġpr int
Ġ' /
tern al
etad ata
r y
Ġv ersion
arsh all
Ser vice
I tem
pe ct
O ut
Ġf l
o ok
Ġ Exception
ĠP ro
re n
pr int
# #
W ith
Ġlo cal
ust om
per ation
Ġlog ger
Ġ* /
Ġex ec
verr ide
Ġde bug
. "
ic k
ĠA r
u se
Ġb lock
F orm
Ġk wargs
Ġrem ove
Ġpro cess
Ġin it
yn c
In put
U p
O D
con t
d ir
Ġg ener
Ġthrow s
q l
us h
Ġc lo
ĠTh is
Ġm ake
f t
Ġa b
n er
S ize
um ber
C lient
St ream
ect or
all y
at ure
l ink
Ġj oin
Ġm sg
iz ed
l d
Ġar gument
ann el
Ġ\ "
Ġh ave
Ġen try
ic es
chem a
Ġv al
Ġ one
v id
Ġc ache
N ot
ist er
Ġbo olean
ifi er
w ork
Res ult
pl ication
ub le
t ings
Ġn ames
A N
le d
S S
Ġa d
Ġlo ad
B uilder
m d
F rom
ra p
Ġstat us
C T
Ġspec ified
ack age
-------- --------
Ġpro perty
a pe
e ight
ĠS er
Ġinstance of
in ue
Ġre f
Ġre l
it le
Ġan y
it s
pl y
Ġt ra
I T
ĠC om
ate g
en gth
ad d
F or
m p
irect ory
c ol
A p
lo b
Ġcom mand
Ġm ust
Ġe qu
U ser
Ġnum ber
Ġa ction
p end
ar n
U til
M ethod
o pe
// //
Ġo ther
fin ition
r c
Ġkey s
Ġ Ex
ar k
ug in
T h
Ġim age
u de
M anager
Ġd b
O ptions
r l
Ġget S
Ġwh ile
Ġcont inue
Ġf mt
Ġf unc
Ġel if
Ġa ct
Ġex p
lo g
en c
e g
L oc
Ġerror s
Ġex cept
in stance
press ion
Ġon ly
Ġs ession
e e
ag s
Ġp ass
L og
at tern
T oken
ment s
Ġwh en
Ġcall back
re t
Cont ent
ĠU n
Ġs w
Ġ order
ic h
us er
Return s
Ġa uth
In terface
an ce
IN G
Ġb uild
y le
Ġp age
s um
Ġro ot
Ġs end
ut il
Ġint o
l ine
Param s
o ol
Ġ. ..
act ory
ĠE n
Ġ `
in fo
ĠĠĠĠ Ġ
Ġp ut
Ar gument
C ount
Ġ 5
p ing
or s
Ġof fset
i e
P re
ĠF ile
T able
escri ption
Ġfil es
t oc
Ġf ound
Ġs y
Ġvar i
o u
Pro perty
c ur
O n
Ġu sed
Ġi ter
v ar
quire d
f f
' t
f ore
toc ol
Ġst ream
Ġ" "
Ġre cord
Ġsh ould
ile d
ĠT ype
S ON
H ead
ol ic
Ġs plit
Ġb ody
our ces
t ml
Res ource
ut ion
cc ount
P E
f ter
con fig
Ġbo ol
Ġs o
Ġs ec
Tr ans
Ġd elete
Ġf loat
==== ====
Ġl abel
on d
( )
ĠA dd
it ch
Ġser ver
ĠO verride
Ġw ork
C E
In stance
Ġc al
V ersion
Ġ Value
Ġhead er
Out put
T E
il es
Ġus ing
ens ion
stan t
Ġre place
ab ase
ue ue
Ġo ption
R O
m ap
Ġcon nection
d ition
print f
u al
A s
Ġd el
in es
Ġfield s
s ize
is h
pl et
T T
form ation
Ġparam eters
Ġb ack
r ame
Ġ K
Ġv iew
C all
Ġcontain er
Ġh ost
if ication
o us
St atus
ra ph
p re
ri pt
ist s
Ġcon n
M odel
U rl
in al
ĠA PI
Ġwh ich
Ġ- -
Col umn
M L
Ġb ut
vid er
ol der
At tribute
Ġo pts
Ġar g
L O
Hand ler
L o
ĠD e
U L
if ic
Ġth en
Ġd ate
ĠAr ray
amp le
r ic
ul es
E m
Ġlo c
Ġitem s
Ġe ach
f ield
Ġc re
Ġex ception
ain er
Ġ entity
ib le
Ġs ort
Ġl ong
En abled
o v
T ext
Ġo k
om ain
or age
} "
r ib
Ġp er
at ive
Ġap i
V ar
ab les
rol ler
a it
S c
Ġtem plate
Ġcom m
Ġfil ename
Ġ> =
= "
Ġin d
Ġ" \
Ġis instance
Ġen v
Ġas s
Ġdo es
P ar
Ġin ter
S h
V alid
N ames
ĠC ol
c od
Ġin terface
a z
Ġt ask
ang u
C heck
Ġres ol
Ġat tribute
Ġ Request
ot al
Ġparam eter
Ġd est
cl ude
et work
Ġs ign
re g
tr act
d ict
Ġd ir
3 2
a use
on t
res ent
le ct
er ge
E T
S tr
F ilter
Ġ. =
iz ation
v ersion
olic y
et ric
Ġo ld
et ch
i o
Al l
ent ifier
Ġs u
a int
ĠI D
g n
pl ay
el per
Ġp ost
Ġat tr
Ġmod ule
Ġequ als
Ġhead ers
Ġne ed
T ra
Ġc opy
0 1
o bject
Ġb uffer
h er
in dex
P os
Re g
ĠU R
Ġc le
Ġsw itch
D ir
En try
Ġse arch
Ġ Y
Ġwh ere
D ate
m b
nt ity
av a
Form at
p o
o ot
Ġpre fix
Ġp oint
ĠM ap
err or
b y
En d
D E
Ġhand le
et ail
A ME
o ver
**** ****
Ġdo uble
Ġim p
Ġor ig
Ġ< =
C ache
ur i
Ġhas h
Ġde f
F I
Ġre n
g roup
Ġf e
a pt
Ġt im
ĠC lass
ĠW e
Ġn on
Param eter
Ġm em
Ġconfig uration
ĠI O
Ġ 6
iv er
Ġdoc ument
D is
L ine
Ġ> >
read y
ol d
Ġo peration
Ġ ed
S ub
Ġat tributes
Ġset s
Ġc ustom
ĠC h
Ġb uf
L e
un k
C reate
St art
Ġresult s
orm al
ck et
Ġget P
Ġa w
r id
Ġl ink
U T
Ġs p
\ \
Ġop en
str uct
x y
Ġal low
ind ow
angu age
In t
Ġw as
Ġexist s
Ġs rc
ic al
Ġst ore
a iled
Ġ util
ial ize
m od
Ġa v
} '
ing le
Ġt c
ĠA p
s ub
Ġres p
Ġj ob
Ġr ule
Ġa c
ust er
Ġget Name
pos it
Ġ 8
it em
a f
Ġ1 0
Ġh tml
A uth
Ġby tes
gn ore
F actory
re f
in ation
Ġ\ \
Ġa g
Y PE
M od
Ġa x
O L
om e
Ġren der
Ġreg ister
cont ent
Ġclo se
at tr
Ġ/ *
P l
Config uration
ail able
s p
ess ages
Ġpos ition
Ġre d
Ġp ort
< /
Ġadd ress
D oc
Ġto p
S e
Ġto String
Ch ild
ro p
Ġcon vert
i k
V iew
B lock
) ;
ĠN ame
Ġpro tocol
ĠCon text
ay er
TT P
Ġargument s
at ing
AT E
Ġm ult
Ġin formation
pl ic
A G
L ength
Ġ/ **
N T
UR L
s el
t ing
ĠC reate
pect ed
Ġpro perties
Ġm e
C H
c re
Ġcom ponent
i as
ĠJ SON
Ġc md
port ed
D ec
Ġl imit
Ġle vel
p le
A ction
Ġin st
T ag
ĠL O
' s
ex ists
u cket
l et
it or
i ce
te ger
w e
Ġas sert
ĠCon t
Ġp ush
Ġal ready
not ation
lob al
U E
est amp
u res
iz er
Ġc o
a ir
ĠL og
d uct
lo c
S ource
Ġra w
Ġ( )
Ġm arshall
k ip
Ġw idth
Ġexec ute
T em
Ġhand ler
Ġa fter
erm iss
Com ponent
Ġt est
Ġp op
Ġp h
p ed
Ġy ou
Ġs ql
p are
Ġcol lection
ĠĠĠĠĠĠĠĠ Ġ
M arshall
De finition
Ġt mp
N umber
posit ory
P T
q ue
Ġc or
ay load
ĠIO Exception
ock et
A ccess
G ener
Head er
Ġbe fore
Ġcon st
Ġd irectory
De fault
cal e
> '
A d
O M
id d
Ġpro vi
Ġ ĉĉ
An d
S el
Argument Exception
Ġo ver
A D
ateg ory
oc i
c ount
f or
Ġmatch es
de fault
Add ress
w ay
il ity
qu ence
Up date
B uffer
ch eck
Ġw arn
O ption
m ax
l en
Ġm ore
ra w
y s
Ġd if
rib e
ĠCon fig
Ġch annel
Ex ec
Ġtem p
p en
N ew
Ġpl ugin
ĠD ata
u id
g in
ir on
Ġcontain s
Ġth ere
m atch
t on
w ith
B e
in ed
Em pty
ĠA n
Ġs ave
Ġv er
l abel
ĠE rr
Ġget C
und le
Ġ Key
Ġim port
Ġre quired
ri x
R em
c ul
le g
Ġp attern
st art
m it
ĠR un
r am
In valid
at rix
E ntity
a uth
vi ew
Ġro ute
Ġset tings
ĠU p
r on
Ġre c
is ion
Con nection
Ġt ypes
Ġvalid ate
res h
ĠSer vice
Re f
Ġstr uct
Ġcon s
Ġg o
it ies
ĠIn valid
Ġs chema
P age
Ġm ode
d b
Ġs ame
ar gs
b ase
## ##
R el
V alues
n ames
O T
ĠError f
ĠUR L
j son
he ad
i ent
ed ia
Ġnames pace
Ġm etadata
Ġf ull
Ġpro ject
N AME
T he
etail s
P art
Util s
S pec
c all
el p
Ġb ind
Re ad
Ġ' %
C re
R un
g ing
R ow
ĠR eturn
ent ial
Ġle ft
Ġ uri
ach ed
Ġs printf
Ġa ccess
tr ies
li ce
C l
param s
n ull
ay out
leg al
cod ing
ry pt
T ypes
Ġen code
ĠLO G
st ate
Ġs l
Ġtime out
ht t
Ġ'/ '
Q L
Ġx ml
Ġm ay
Ġsel ect
Ġcl s
ĠN ode
ĠD E
ig h
str aint
tr a
lo de
l legal
Ġcol or
Ġn ow
b s
m ethod
Im age
N ull
Loc al
F ound
Ġst d
at er
F A
I f
s o
ch ed
P r
w er
im ple
L I
ang es
s ure
E D
Ġin valid
Marshall er
Ġa ut
M atch
lo se
Ġexist ing
Ġdat abase
Ġstring s
Ġd ict
um e
Ġid x
ĠValue Error
s l
Ġ' _
Ġre p
Ġh eight
ĠC heck
p y
enc y
Ġw ord
Ġt itle
Ġt otal
re place
f rom
Ser ver
Ġpar ser
F unction
vi ous
ow er
escri pt
stant s
res ult
Ġb uilder
A B
e ar
i ed
n ing
v ices
n own
oun ter
Ġit s
L ink
Ġelse if
r iver
in ary
ic s
Ġgener ate
en u
//// ////
Ġreturn ed
n um
Ġget M
Ġde c
Ġst ack
and om
Ġprovi ded
Ġe v
Ġre ference
Re cord
o ptions
Ġloc ation
Ġbe en
Ġ' "
ĠI N
t able
- >
S ER
U N
Ġa m
at ic
ug h
is try
mb ol
Ġ1 00
c le
Ġst op
Ġext end
N ext
n o
if t
f g
1 2
form at
Ġpart s
ĠI llegal
Ġs um
c s
ĠIn teger
Ġr ight
Ġsc ope
bo x
P oint
ĠC ms
m essage
Ġt ree
on th
Ġo pt
Ġst yle
v ed
Ch ar
S ession
Ġf etch
n ode
By tes
i que
Ġtrans l
1 0
ĠS ee
it er
Ġup d
ĠD ate
Ġcolumn s
iss ing
Cont ainer
B ase
Ġinit ial
P er
T ask
R ule
Ġlo ck
ĠU ser
def ined
Ġsh ape
d f
Ġp ackage
Ġthe m
c el
Ġobject s
as sed
Ġelement s
' ,
f ilter
Com mand
Ġvari able
Ġm eta
A M
Ġw rap
S ec
Ġcon f
b e
ĠT ra
Ġin v
Ġn odes
ĠCol lection
Ġpass word
Ġs ingle
A P
V ER
Ġsec ond
Ġ" /
: //
id get
Ġtr im
b ers
th is
Ġn ormal
Ġ" %
i able
esc ribe
Ġsu ccess
Ġde fin
= '
a w
Ġde fer
ĠI m
EN T
List ener
L abel
) "
A C
Pro cess
i ction
Ġt x
Ġap ply
Ġl et
id s
st ore
ass word
Ġst ep
Ġa ccount
arsh al
Ġ Q
ĠH TTP
Ġsup er
ut ure
f l
Ġin sert
Pre fix
Ġresol ve
F F
E L
C ON
Pro vider
B ody
d is
Ġj ava
t en
Ġu int
Ġo per
ĠD o
St ore
are d
R I
ro und
P ackage
ĠA l
escript or
iron ment
Ġ' ,
b ser
Ġm ark
up le
Ġcon dition
Ġpro p
qu ery
p atch
an y
UL T
Ġp assed
H elper
M etadata
J ob
N o
ĠP ar
Ġv is
Ġorig inal
Tem plate
m odel
Ġ Z
ĠF ield
Ġaw s
ĠN ot
W riter
D B
Ġse g
Ġ' {
re quest
E X
Ġf n
Ġ< <
Pro perties
Ġp ack
Ġpre g
Ex pression
ĠP r
Ġcom plet
ert ific
an k
Ġi gnore
ĠRes ponse
a ces
Ġal ias
M ode
H ash
OD O
S C
1 6
Field s
ĠUp date
t oken
ol ume
ig ger
Ġav ailable
S I
Ġf ail
n ap
at s
Ġlo ok
Ġchild ren
T arget
st atus
ent er
g ress
ang ed
red ential
ĠS ystem
Ġhttp s
ens ions
Of fset
ur ity
Ġ' \
tr ans
Ġt w
F l
Ġin clude
Ġtag s
Ġget D
t ed
end er
Ġde vice
ĠS T
Ġimp lement
h and
ĠM essage
t a
t ypes
Ġth an
f iles
Le vel
IN D
el y
Ġor g
Ġi p
I ter
ĠM ath
Ġl ines
Ġg ot
ĠV alid
Ġp k
Ġget Value
Ġchar act
Ġ' <
en ces
l n
Ġ 7
v alues
Ġsub str
et ime
R oot
Ġbe gin
d s
d own
Ġde finition
ĠA t
Ġget Message
Ġprotocol Marshaller
ĠD B
W idth
Ġp ayload
i od
n s
g ine
Ġq ueue
al t
im ary
ol low
Ġs b
ubl ish
Ġp y
Key s
pt h
ĠĠĠĠĠĠĠĠ ĠĠĠĠ
T YPE
Ġ' -
or ies
Param eters
Ġat t
Re ference
Ġsh ow
Ġrep resent
ĠArray List
C ur
o x
in ce
Ġd ist
\ "
et s
d a
sh ot
Ġpre vious
Ġab s
Ġ' .
P O
s es
W ork
im um
g ed
Ġcle ar
ap i
f low
Ġex it
Call back
======== ========
Ġtok ens
c y
ri or
p age
d oc
a ded
p c
eth er
ĠR E
er o
ast er
Ġch unk
Ġse ction
---------------- ----------------
ip le
ĠC lient
Ġen c
Ġde pend
Or der
C ase
r an
at abase
key s
i er
Ġar r
T H
l ing
ĠF or
r ag
A ct
w ise
Ġd omain
ers ist
ret urn
Ġd im
In ter
lo y
s or
Ġ 9
l ength
s ing
T ree
con text
/ '
ĠH ash
am pl
ver se
Ġd escription
Ġro le
ĠS end
oin ter
Ġt erm
Ex t
Ġn etwork
Ġc ell
head ers
a de
apt er
Ġs kip
Ġb ound
ul ar
Ġ" '
Ġtrans action
c ache
Ġend point
Ġde code
v ers
: '
At tributes
1 1
H P
A X
Ġst orage
Th is
ĠD elete
htt p
) '
put e
le ase
ĠRun time
Ġtrans form
Ġbase d
Ġb ot
af e
Re ader
yn ch
Ġl at
n ect
Ġw rit
Doc ument
I s
Ġap plication
Ġcre ated
Ġo w
E rr
ĠB y
ĠRe g
Ġi o
par ator
Ġw ait
riter ia
L ock
Col lection
Ġrel ation
L A
Ġf ailed
am b
Ġj ust
ook ie
5 5
m a
ĠH ttp
Ġstart s
ertific ate
d u
Ġw ant
Ġal so
ik e
Ġd ay
Ġch ange
il ename
nap shot
Ġg lobal
Ġdefin ed
az on
Pos ition
f s
A PI
em ber
et ry
T ER
Ġl ib
Ġdis play
Lo ad
h ost
D I
Ġcal led
pro cess
C an
Ġstr ip
In it
o ute
Ġfe ature
Ġlocal e
c at
e vent
Ġass oci
A g
N um
I P
Ġb as
Ġb atch
P olicy
Ġre quire
o se
ĠI s
m on
ĠE vent
Ġd own
Ġsy s
Ġmethod s
ĠRes ource
ĠS ub
Ġ1 2
H ost
Ġrow s
Ġcont roller
ĠI t
ĠW rite
ch o
ynch ron
o olean
E Y
o bj
ĠTr ans
Ġre port
Ġtra ce
re ct
Ġex tract
uf fix
A ss
Ġ' .'
Ġlo wer
D elete
sc ri
Ar gs
u x
P ort
Ġ{ }
Ġs ystem
ht ml
Ġse e
F unc
Ġf rame
St ack
c lient
w rite
I L
Set tings
b lock
in put
ĠN o
Ġrem ote
Ġw riter
Ġget Id
ermiss ion
FA ULT
Ġre ce
ĠS h
stan ces
c reate
Ġevent s
ro ugh
1 8
ut ton
ran ch
Ġun set
ĠT ime
u ch
t itle
Ġth read
W S
Ġex pression
Ġl anguage
Ġax is
R ange
l ess
Ġd irect
Ġclass Name
ic ate
ĠT ODO
e ep
Ġf s
ĠR em
S H
Ġex pected
ĠP ath
Ġg raph
( '
V AL
par se
E d
ĠU se
Id s
Ġh ere
O bj
m ary
ĠTra ce
Par ser
in s
p art
r un
etric s
Ġass ign
ph p
ĠSt atus
H eight
Ġch ain
Ġen coding
AT ION
Ġs ome
Ġm erge
t ag
rol l
Time out
Ġact ive
n umber
F iles
ĠO ption
Ġem ail
c ause
Ġb et
m erge
Ġres ources
n ew
UL L
f ul
Ġpar sed
B IND
Ġis Empty
Ġext ension
B ack
OD E
Ġin ternal
ir t
Ġres et
Ġtype of
we en
Ġuser name
Ġadd ition
ĠRe ad
Ġcle an
l ast
Con vert
Ġbe cause
up date
w are
Ġd on
Ġsc ript
Cre ates
im age
Ġd one
struct or
9 9
Ġser ial
Loc ation
s ible
amb da
in it
BIND ING
res ponse
ĠIn put
Ġw indow
Ġm essages
Ġr andom
Ġco ord
{ $
M ax
ĠF orm
ex p
c er
******** ********
g ra
as on
ĠIllegal ArgumentException
ĠO n
Ġid entifier
ig r
n et
as et
lo ud
in ter
ph a
Ġin s
re m
er ce
S ign
p ost
Not Found
ire ction
Ġ Query
As ync
li as
: "
Ġm ain
Ġiter ator
Ġc fg
.. .
P AR
i an
Ġcan not
M eta
AB LE
Ġb ucket
R OR
Set s
ĠD escribe
00 00
Ġs lice
cur s
at ures
Ġac cept
Ġen um
s pec
idd en
Ġtw o
im estamp
Ġrem ov
Ġlo op
U M
Ġp an
um p
Un it
cc ur
Ġp e
Ġf ollow
o ice
Ġpre v
am ed
Ġh elp
g reg
Ġb l
Ġget F
Ġ< >
i res
le vel
h ash
p loy
iv ity
w idth
v ision
field s
c ing
Ġin cl
Ġy ield
u ccess
Ġ* *
col umn
Im pl
De bug
e ded
Ġb it
Ġd es
AG E
Ġs ite
i i
Ġun it
D el
T ML
ĠS printf
im al
ĠH and
re en
end ar
out put
Ġp ool
end ing
ched ule
b r
R A
ĠS c
ĠL oc
g es
D irectory
f ull
Ġcl uster
Ġwh ether
In ner
Ġtim estamp
s up
ĠReturn s
at form
ure d
Ġre al
P ool
Ġsup port
: :
add ress
ĠĠĠĠĠĠĠĠ ĠĠĠĠĠ
Ġauth or
Ġex tra
I C
Ġ1 6
Ġc s
Ġmap ping
Ġc b
str act
ist ory
re l
Ġcom ment
e om
d ay
Ġget B
d k
ĠPar se
St yle
Lo ader
Ġwith out
W h
Ġpro xy
sel f
L en
d iv
Ġpro vider
c o
il er
d o
Ġgot o
Ġthe y
ĠP HP
Ġget Class
Ġn et
x ml
Res ol
Ġ esc
chem e
l l
Ġlog ging
N D
Ch annel
ap p
Ġpre pare
sum er
war d
irt ual
g round
{ }
Ġf ix
Con stants
com p
p ack
ire d
Ġc ore
Ġspec ific
j s
F ailed
redential s
ith er
ĠL A
Ġdest ination
M in
Ġr ules
( "
Cont roller
) .
Ġallow ed
A lias
m ed
p arent
Ġcontent s
H ttp
l ib
y m
Ġfl ags
Ġfor ce
Com p
Ġ' #
2 5
ult i
Ġread er
iv ed
C opy
Ġp ol
Ġpath s
F e
ay ment
el ement
Col or
and ard
rior ity
al k
An y
ĠP re
he et
W rap
ĠO r
Ex p
ab ility
og le
et ri
ĠA s
ĠI P
cur rent
Ġab out
ĠT o
Ġcomm on
ĠO ut
s ign
mod ule
Se arch
fer ences
s pace
Ġfl ag
Ġcons ole
> "
ĠM ethod
J SON
Ġs ocket
O peration
ĠDe fault
Ġutil s
Ġlist ener
b ed
elet ed
k nown
ampl es
R ole
it es
c ent
ĠWe b
B U
ch ar
Get s
ut o
Id entifier
C al
U ri
Ġl ike
ĠP l
Ġf older
ĠE lement
ot her
Ġpro m
Ġd f
ĠP aram
en code
ĠI ter
Ġpro duct
Ġl ayer
Ġsub string
Ġreg ion
Ġstate ment
g or
Ġd et
L ast
Ġsh ort
Ġcal cul
el ine
0 4
Ġs m
f e
ent ication
A ccount
A S
e ger
ĠD is
er ic
Ġref lect
ĠPr int
L imit
ren cy
th on
Ġpro file
Ch ange
Ġd esc
L S
Ġd st
I G
if f
ĠC all
ut able
tr ie
way s
V al
P arent
ĠG ener
ok e
ri ce
Ġg u
Ġth rough
U ID
In ternal
ator s
ĠS QL
Ap i
Ġex pr
Ġm ask
W rite
Ġg rid
d r
l v
Ġs ure
se arch
Ġper form
en v
A tt
com mand
Ġconn ect
S chema
U P
Ġtr igger
m ine
Ġp air
b l
n el
ro ot
Ġbet ween
Ġg ra
S up
Ġun ique
gor ith
Ġadd r
Var iable
ach ine
ĠIn t
Ġfin ally
Ġad ded
Ġd ig
UR I
Ġrun time
scri ption
G ER
Ġse quence
0 2
Ġ" ,
m iss
CT ION
w w
m arshal
Ġun defined
pl ied
pon d
Ġb inary
" ,
I ME
Ġsort ed
B uild
our se
S P
Ġwe ight
Mod ule
Head ers
Ġdif f
ĠA uth
ĠI d
F ind
Item s
Ġre st
iz es
Ġoption al
Ġget Type
ateg y
idd le
Ġindex Of
Ġo ur
l ers
Ġred irect
Ġpro b
Ġm onth
en ers
Ġmem ber
O K
Ġs im
Ġpoint s
Ġz ip
at al
res ource
bser v
Ġm atrix
est ed
Ġc ategory
i pe
Ġvari ables
Ġn s
eter mine
ĠT oken
N S
Ġg en
ut f
Ġs cale
W arn
Ġm an
Ġimp lode
S ystem
ĠM odel
c over
Ġpl ace
ĠX ML
s ource
li p
Ġsel ected
ermiss ions
Ġexp lode
Ġv ert
ĠS E
ar g
ĠL o
Ġstat s
Add r
Ġat om
Ġun til
Ġget T
Ġd type
Q ueue
s ession
J son
ĠIn ternal
D escriptor
m ode
Ġd etails
op en
D O
iction ary
Ġt uple
P ER
Ġl ambda
Ġ ĉ
g r
Iter ator
v let
ate way
Par se
tem plate
Ġstr len
Ġan notation
N odes
ĠN ULL
Ġpl ot
Ap plication
enc ies
Exec ution
d i
ME NT
g le
Ġact ual
b ar
By te
IN T
W e
F rame
il y
Ġsub ject
Ġen tries
ak es
ĠSer ver
ĠString Builder
ĠInvalid ArgumentException
Ġre trie
#### ####
Ġmult iple
straint s
Ġextend s
ĠS ec
Map ping
P attern
ĠRuntime Exception
Ġcl one
Ġro ut
Ġpr ivate
pre fix
g o
Ġs ince
ver y
ver ter
D o
St orage
Ġt ab
2 4
Ġs ynchron
Ġlabel s
ro k
l s
Ġgroup s
Ġt f
ol ute
R oute
st ream
An notation
Ġid s
Hand le
Ġsup ported
sh ip
De f
ce d
G ET
ĠS e
col or
Ġseg ment
gorith m
le m
Ġdoc s
Ġs ent
Ġf actory
Ġsy mbol
Ġcol lect
AT H
pos ition
not ations
ser vice
ĠA WS
ain ing
Ġ ent
V is
Ġc p
y mbol
Ġrequest s
Ġy ear
ĠSt ate
Rem ove
S eg
Ġ< -
D escription
[ '
End point
Ġcomm it
g ram
Ġs ample
K EY
Ġtra ck
t arget
Ġre try
Ġm anager
Ġdoes n
Ġl ang
as es
Re pository
Ġatt ach
t ot
Ġun less
Ġmult i
Ġas set
Ġwe b
Ġaddition al
F O
Ġdat etime
Ġm issing
Ġ', '
ee k
Ġclass es
item s
Ġc ert
se c
in ate
Ġpos sible
v es
Ġcont rol
oun try
c ard
Log ger
Ġp olicy
Ġenv ironment
ĠDE FAULT
M sg
etri e
Ġo ccur
On e
b stract
is tr
n ow
and id
ĠIn dex
or g
Trans action
yn am
Ġe ither
r ary
bo se
Ġcur sor
of fset
P ost
w h
Ġcharact er
Ġre pository
c r
Ġpr imary
m ark
ĠC ode
B ind
row ser
Ġex port
ĠB ase
5 0
act or
Ġcur l
Ġa st
Ġ' $
re cord
Cont rol
n g
qu al
Un able
Ap p
Ġsign ature
P RO
he ader
E M
Ġe cho
Ġc ould
U S
Ġvalid ation
Column s
Be an
Ġag ain
ifi ers
d escription
Ġis s
On ly
Ġen sure
AN G
S p
Ġid ent
Sel ect
es e
Ġ et
call back
h a
cod er
Ġof f
D K
Ġm y
Ġcomp are
T op
Names pace
Tra cing
d at
B undle
State ment
ĠL ong
ut or
y cle
Ġow ner
ĠB oolean
V E
t ree
Ġcre ates
Ġfilter s
ĠD ec
N O
Con dition
Ġd river
R ender
ĠIm age
Ġattr s
ĠW ith
ĠJ son
ĠS up
ĠS dk
ch ange
t s
st all
Ġp resent
ĠM od
b ody
Ġy our
Ġcor rect
Ġdis patch
Ġwarn ing
1 3
ĠRes ult
add ing
Ġb undle
g ener
E ach
Ġin ner
resh old
I M
ar gument
Result s
Tra ce
c ip
al y
Ġsel ector
u ally
T ags
Ġex ample
Ġk eep
Dec l
U B
Ġpro ps
f ilename
ĠP age
1 4
2 0
ĠT YPE
se ction
id x
OR M
Ġdefault s
Tracing Enabled
com ment
Ġwith in
Element s
Ġc ached
cal ar
Ġc a
Ġpk g
Ġs pace
U s
Ġch anges
Ġpre d
Ġst mt
Ġm d
o ption
pl ates
Ġis Any
o res
z one
ic ode
ĠL ock
v m
t ol
En v
ĠC ON
fa ct
O w
S um
Ġde cl
ĠW h
ĠCom mand
B ound
Q U
m e
ĠO pen
ill is
Ġind ent
ac y
ĠBy te
C K
ĠisAny TracingEnabled
d im
b uild
Ġl ayout
Ġf ont
P C
B ox
ign ment
v is
//////// ////////
fer ent
ĠL e
rag ment
ĠD oc
am l
Ġc ap
Up d
ĠB uffer
Ġupd ated
ĠC lose
ol s
ial og
c opy
Ġ$ {
Ġ" <
Ġex c
Ġ' --
act ive
Ġ"" "
M S
Ġre po
Ġm edia
it ude
Ġother wise
O per
Con n
plet e
M em
' ]
Ġat tem
l ines
Ġrun ning
Ġch anged
Ġh igh
Ġ" .
Ġs ig
ĠValid ate
ĠT able
ix el
Ġenum er
en se
Ġstr pos
Ġinst ead
plic it
loc ation
Ġf uture
ĠU til
ers on
ĠLoc al
ser ver
Ġbut ton
Ġfl at
Ġget Pro
Ġint eger
En um
ok ens
Ġt t
AT OR
ms g
Ġne eded
er nel
Ġget Key
ĠType Error
ĠRem ove
Ġc riteria
ĠErr Code
S O
id er
eom etry
C A
ĠN umber
ER ROR
Ġpart ition
Ġed ge
um b
c ase
Auth or
l imit
ĠC al
Ġr s
Ġde pth
t om
1 5
ĠAt tribute
Ġ ^
ĠSt art
Ġw idget
In v
iv es
Ġmatch ing
Ġfile path
ĠN ote
u es
Wrap per
con nect
Ġun der
Ġe very
ĠTrace Component
B utton
Ġup load
bo ok
as ure
ch ive
Group s
Ġdel ta
w d
ch ild
Ext ension
Ġem it
Ġassoci ated
ib ility
Cl uster
Ag ent
) ,
Ġrel ative
ĠOut put
Ġz ero
Ġm ove
Ġfil l
Ġset ting
az z
ĠĠĠĠ ĠĠĠ
Ġd rop
At om
# {
Ġro und
c ore
f irst
al ys
Ġon ce
u pt
AC K
Ġpop ul
Sc ript
em ail
b ound
De vice
Add s
Ġaut o
1 9
re q
Ġel em
" "
Ġh ow
c ustom
Ġfl ush
p assword
O P
ad min
ĠH ead
u sed
t op
P RE
Ġcom pute
8 0
Ġinter val
of f
Ġthe ir
r ange
Ġus ers
O pen
Ġmodel s
( ?
Ġd t
b it
ac ity
m ar
ap plication
S ION
u ded
Ġar t
Ġlook up
ĠD I
as c
ces sed
H TTP
Ġget Instance
Ġstruct ure
Ġen abled
ĠCont ent
ĠDo uble
ĠUR I
on ly
Ġ" -
cre ment
ĠCh ar
Ġs ol
Re quired
AT A
3 3
L ong
Ġdat aset
j ection
ic le
Ġal ways
Ġp od
a ult
R ed
ĠDate Time
iter al
Ġ' \\
) )
it ive
her it
Ġme an
Ġremov ed
Ġd raw
PT ION
Ġoper ator
U se
Ġ{ }"
lo cal
\ '
P h
j ust
d elete
Ġd uration
Ġ# {
ff ect
] +
S l
Ġd iv
IN E
ĠN O
Ġt s
ĠTh row
L ayout
bserv able
Ġrel ated
Ġc ss
D omain
Ġencode d
Ġam azon
Ġfollow ing
bo ard
word s
F ail
Ġcan cel
ĠG roup
Ġvis it
Ġs uffix
F irst
Ġpro to
ur rent
l ap
Ġinvalid Params
Ġrequest ed
Ġev alu
ur al
tr ue
Ġo b
A v
Ġal t
d el
st ack
Pl ugin
Ġim g
Ġdif ferent
FI LE
I gnore
Ġmem ory
L anguage
Ġd s
Client Exception
cont ainer
Event s
00 0
Ġprint ln
Ġ2 01
2 2
low ed
f rame
D etails
nt ax
Ġs ync
o use
Z E
Ġfor Each
Ġb est
r t
PO ST
Ġinst all
ro y
curs ive
C ustom
Ġb ranch
s ort
Res ources
Ġv ector
ĠIn fo
Ġp ublish
uf f
as ync
if est
Ġf r
t est
ĠUn marshal
Ġt yp
( [
O p
ann er
S pace
e am
Ġg r
Ġu uid
Str uct
Ġm enu
ex pected
S end
Ġh ex
Ġj s
W indow
Th read
p or
Ġbe ing
Ġse q
Class Name
Ġcon cat
tot ype
ĠT ask
o pt
e k
i ate
ĠEn try
ip eline
At tr
Ġam ount
st atic
Ġk ind
Ġ3 2
R etrie
Ġo verride
c or
Ġnot ification
Ġsynchron ized
Ġrecord s
Ġup per
c ell
est ination
ĠF l
ĠN on
Ġhas attr
a ccess
Ġch an
Ġqu ote
Ġph p
] '
C O
In d
ĠT ext
u plic
Ġget attr
row s
OR T
y les
Trans l
Ġed it
Ġset up
Sc ope
ĠS ession
Ġc ookie
Ġper iod
Ġd ictionary
ĠS DK
M ark
Ġnormal ize
Ġin stances
Ġcon structor
Pro xy
ĠE ntity
Ġdist ance
ĠEx ec
by tes
H ER
ith ub
Ch ain
Ġcom b
Ġc ounter
Act ive
Ġh ref
Ġp ersist
F older
H E
m eta
ST R
Ġex ternal
Ġh e
ĠC l
N etwork
ay ers
Gener ator
Ġstd out
Le ft
Ġget Property
Ġcomplet e
P assword
ĠB lock
p ol
Local e
m em
LE CT
Ġbo x
ynam ic
Ġ' :'
de code
con f
er ies
Ġlog in
ial izer
re c
Ġd ot
Ġver ify
Ġend s
Ġbe an
O F
Ġpan ic
en ded
Cur rent
Ġreg ex
Ġbot h
tol ower
ĠP AR
Ġv olume
ĠRe f
RO M
Group Name
W ord
V er
act er
Ġ- =
D S
Ġcharact ers
ic on
miss ion
Ġb el
Ġh ook
am ily
ĠT em
ĠJ ob
ec ess
Ġtop ic
Ġequ al
ix ed
ĠSt ream
ha vi
Rel ation
OR Y
u ce
ol og
ĠUn lock
Ġfile Name
sp an
Ġv ia
Ġre ason
Ġnum py
Ġcor res
Ġsecond s
ens or
Con f
param eters
ĠS tr
LA SS
content s
Ġad min
ĠH TML
X T
ro ss
ir m
ĠA m
if act
Ġver bose
N on
NotFound Exception
E S
Ġre lease
N ON
gra de
v en
Reg ister
S QL
ĠB uild
Ġm etric
q ueue
Ġsec ret
Ex ists
Ġcl azz
} /
O ST
Inter val
Ġpro gress
ĠF ilter
en e
Ġif c
ĠF I
sh ift
an ization
Ġ'- '
ĠDe bug
Ġ"/ "
ur ing
h ing
ĠD ep
C ell
Se quence
Ġis Debug
Ġreg istry
Ġt ick
sel ect
Ġorig in
trib ution
Ġser vices
Pro file
ateg ories
Ġw ay
pl ot
1 7
ĠT ag
* '
pre c
ĠCon vert
ĠSdk ClientException
ĠCont ainer
Ġag ent
Ġstore d
Ġan other
SE T
Ġ2 00
Ġm er
Ġinit ialize
S ync
ĠL ink
ĠV ersion
ĠCon nection
VAL UE
ĠA d
Ġwrap per
iddle ware
ĠOption al
Ġdis able
c p
Ġlog ic
Trans form
st yle
Ġget Attribute
u ction
o per
ex ception
T erm
P A
Q UE
Ġd irection
P an
L ower
con nection
Ġpl atform
Ġen gine
Ġcomp ile
Ġp res
Ġfin ish
ĠForm at
Ġa cc
We b
Ġ>> >
Check s
C lo
r ight
Ġus age
Ġcomponent s
Ġm s
Ġs av
Ġlo ader
on itor
Entry Enabled
sc rib
Ġd om
var i
pl ugin
full y
ond s
Ġcall s
t y
en try
Ġis EntryEnabled
tr ack
Ġw ould
B ucket
Ġregister ed
Ġcon version
b uffer
IT Y
rom ise
Pro ject
hand le
Ġincl ud
ĠN ull
w rap
Ġesc ape
ĠA bstract
ĠA ND
Ar g
F uture
st ep
ploy ment
Ġwh at
alys is
Ġsu ch
Ġtim es
Ġb its
Ġi con
sup ported
ecess ary
Ġm u
LO W
Seg ment
Ġp ermission
Pro duct
Em ail
Ġsc an
V I
G raph
qu ires
point s
Ġcall able
Ġn amed
EX T
Ġs imple
Ġ" {
ĠLOG GER
t ask
ĠW ork
de bug
le x
po se
sum e
Ġan s
Ġvar s
P air
c ast
t ags
Ġz one
Ġb in
Ġf all
St ep
auth or
al th
ĠF ind
D own
m etadata
Ġser ies
ain s
Ġro t
c an
Ġget R
Ġm aster
c md
quest ion
in ates
con dition
hand ler
ex ec
Ġg p
D ER
Ġstr tolower
m anager
Ġse parator
Ġs afe
anag ed
ĠS pec
Ġfunction s
ut down
T x
ĠO peration
Ġal pha
Ġcontain ing
Ġ" _
fer red
ĠH E
St ats
Ġm igr
at io
og n
Ġd etermine
Ġ2 0
X ML
ĠĠĠĠ ĠĠ
Ġlo aded
Ġtransl ate
Var i
ĠThrow able
Ġmax imum
C OM
Ġaction s
he ight
P ATH
Child ren
Ġvalid ator
ĠJ oin
Ġid entity
Ad apter
D esc
istr ation
Ġre verse
ĠG o
Ġback end
Ġh elper
Id x
Ġdown load
Ġc andid
Z one
v c
ĠisDebug Enabled
Error s
lo aded
Ġp id
ĠE R
Ġm ath
Ġdis k
ĠT R
Dis play
Ġen able
ĠM ax
E CT
in ator
Ġenumer ate
ĠLog ger
Reg istry
Ġstarts with
D ay
str ap
T itle
Ġ2 4
C o
Ġp s
Ġne g
o om
Ġf p
D atabase
PAR ATOR
s ite
ĠAp plication
C P
Ġth ese
Ġneed s
Ġpe er
Ġp ag
sc ript
Ġn b
le ep
ĠW rap
Ġw atch
Ġv m
ĠN OT
Valid ate
Ġcheck s
set tings
Ġaw ait
th ing
ĠR el
ĠPro perty
Ġsign al
' :
] "
En c
Ġl on
Ġd eleted
Ġdir name
ĠF unction
n ext
Ġs alt
ist ics
par ser
Ġfield Name
Ġ' :
Ġf ig
ched ul
f n
I O
Ġind ices
T O
ĠB ack
HER E
s ystem
Row s
Resol ver
ar ation
Ġget Data
ĠHead er
Part s
Ġcur r
AN D
d omain
Ġm etrics
ĠO bservable
LE TE
Warn ings
5 6
Ġd i
c d
al an
ĠHash Map
Ġm ut
ĠDoc ument
Sel ector
ĠS ib
Ġwork er
Ġvalue Of
err ors
Ġcorres pond
Ġas ync
ch annel
Ġget Request
Ġ// $
p lement
D b
Ġre ply
k wargs
Id entity
Ġrepresent ation
Ġ100 0
ip her
y g
Ġget Path
imit er
ang le
ĠI tem
Ġs k
ĠM ake
er os
ry ption
ĠOr der
Input Stream
T R
at tributes
Ġconfig ured
ĠS el
H tml
Valid ation
Ġs cheme
Ġinv oke
Ġ' </
Ġmod ified
; '
ĠP h
e o
Ġc ourse
port s
Ġcommand s
a j
2 3
Ġget Config
Sec urity
id es
SER VER
Ġp ermissions
( $
Ġsec urity
Ġgener ated
Ġclo sed
b ind
Ġag greg
ĠIn it
ĠC ache
igh b
Ġmod ules
ĠA ction
ĠS ign
un ch
b uf
Not ification
Ġ est
ant s
ĠPro cess
our s
AR N
atal og
ĠH as
Ġp riority
Ġattem pt
ĠC loud
ol t
Ġblock s
ĠP ut
N OT
of t
Tra ck
ĠEn d
ĠSib Tr
Ġĉĉ ĉĉ
pro ject
Ġp ointer
m ail
Ġpro totype
En gine
Ar t
c lose
d ist
Ġpack et
EN D
S ort
im er
Ġext ensions
M ember
P ack
Ġsel ection
Ġc r
v as
set s
Ġcomm erce
Ġdef ine
Ġ'_ '
================ ================
A SE
p x
oc ation
X ml
Ġex clude
Ġto Array
Init ial
A fter
ĠI S
> <
Ġs napshot
Ġcall ing
ĠV iew
! "
eter min
ĠLo ad
C ould
Ad min
Ġm ag
Ġc redentials
6 3
z ip
Ġ{ $
Ġf ire
Ġformat ter
ĠB ig
m ask
Ġgener ator
C ategory
ĠAp i
Ġchar At
Ġref resh
Ġde v
Ġsc ore
Ġrem aining
F T
t d
Path s
Ġfe atures
pro perty
Com ment
ĠService Response
Ġimplement ation
Ġser ialize
op s
c cept
SS ION
h ook
ĠS imple
R ules
rem ove
ĠC an
path s
le ft
err upt
ud io
im es
Ġm ost
h s
F C
Ġex pect
g b
k e
iv ely
ff ic
ĠN ow
ĠAm azon
n ess
B atch
ĠIter ator
ent ic
sh ow
Ġl i
al led
L L
ide o
h older
Ġget A
g en
Ġcol l
. *
S uccess
Ġword s
RE CT
Ġch r
Ġstd err
Can not
Ġad apter
Ġl if
ĠE T
Ġr c
Ġle ast
g t
In teger
re qu
v als
Str ategy
il t
m ag
htt ps
Ġst andard
is on
v alu
check ed
Ġupd ates
S ocket
iv ery
as ic
DI R
time out
ad oc
Ġinput s
Ġind ic
Ġexp and
Ġav oid
Ġqu al
V olume
Ġmatch er
ĠPro tocol
Ġsp an
str uction
SE PARATOR
Ġcurrent ly
ĠM AX
Ġle g
ĠY ou
Ġu id
Ġs n
ĠLe vel
at t
S L
oc us
Ġ2 55
ĠV ar
FI X
Ġhas Next
' re
M P
rypt ed
S napshot
Ġd um
If c
ĠF ROM
J oin
Ġn ecessary
SI ZE
Mod ified
L ayer
D F
ec ycle
Rem ov
Ġsup plied
a im
Ġspec ial
R out
De pend
Ġ" ."
ĠC ore
Ġlo w
Ġexec ution
at tribute
Ġin ject
Ġw ere
Ġtask s
Ġdefault Value
D ATE
Fe ature
C S
Map per
ĠSup press
M enu
In sert
fa ces
Ġim ages
ĠA ct
Ġcalcul ate
C lose
Ġt ables
es h
Ġde ep
W idget
ar m
ĠS chema
Ġfile Path
in cip
Ġretrie ve
ro le
ic ro
Ġc enter
O S
ed it
Ġc ause
ĠR ed
Ġ' @
_ '
Ġdel ay
Gener ate
s afe
Ġp ad
Argument s
ĠP RO
0 3
a ccount
Output Stream
Ġrout er
Ġp ending
M atrix
Ġcondition s
b ro
res sed
ĠM atch
Ġresol ved
Ġp erm
Ġ ord
cord ing
n e
Ġresource GroupName
con n
aly z
Ġ1 1
Be fore
group s
Ġn orm
com ponent
Ġb ar
Ġsh ift
ĠPAR AM
Ġcorrespond ing
Ġd ump
Pro p
ĠConfig uration
g raph
s end
Ġ" $
ĠHand ler
C ap
old ers
Ed it
M e
D river
s ql
C ore
Ġy et
) :
ĠO ther
Ġi v
p ings
olog y
ĠAp p
Fl ag
Ġlist eners
AL SE
Ġday s
Ġcl ick
res ources
T IME
AL L
ĠP oint
Ġex cl
j ob
Ġp ages
n odes
Ġtra in
Ġus es
Ġf low
Ġsl ot
> </
Ġme ans
Ġĉĉ ĉ
em e
var s
7 7
class es
Ġpart ial
ĠD OM
A re
En coding
ĠC UR
ĠP y
on om
T est
Object s
Ġ1 5
Method s
( \
U SER
Ġg lob
Ġlink s
result s
re quired
C ertificate
f ind
Ġnot e
AN CE
F loat
Ġem bed
ĠA ss
R ight
R ate
m an
Ġp atch
Ġset Attribute
yg on
ĠU T
Sum mary
par ison
Ġget User
Ġtrans port
Ġs om
pro perties
Ġl in
QUE ST
Or ig
Ex pr
c ategory
Ġs q
Ser vlet
Ġfe ed
C ms
Ġb rowser
w s
Ġpro tected
od ing
Ġ6 0
ĠCol umn
Ġ'" '
S ave
C le
b in
em on
h elper
a unch
Att ach
P UT
3 5
Ġn ested
Ġcon sumer
ĠĠĠĠĠĠĠĠĠĠĠĠĠĠĠĠ ĠĠĠĠĠĠĠĠĠĠĠĠĠĠĠĠ
Ġal loc
s uccess
Ġt ile
on ical
File Name
With Context
o od
Ġget E
Ġtable Name
all el
Up load
m ount
Re ce
pe at
ĠSuppress Warnings
P ublic
Ġ Qu
eg ate
m erce
Ex ist
lect or
Ġs chedule
C ounter
Ġp i
Ġm ail
Ġimplement s
add r
Ġtransl ation
Ġb lob
Ġcomp at
Ġf ast
Ġexception s
Ġplugin s
Ġspec ify
l at
B l
SE LECT
ĠN ext
av adoc
ath er
a res
s m
R aw
Ġpro du
m y
Ġc ast
cover y
M illis
di us
s rc
ut ed
Class es
b ot
Re port
s chema
ĠD uration
ĠB e
cre ated
Ġm ight
ĠAl l
BU G
V ert
Ġget Default
U RE
Ġadd s
Ġins ide
Ġmem bers
Ġm at
Ġbo ot
ud it
s ole
ĠM essages
Ġdec or
f r
M issing
LO G
Ġf ree
Cal cul
Ġf it
Ġk nown
Ġmatch ed
6 0
pon ses
havi or
O ver
ĠW HERE
u ilt
Ġd er
Ġh y
Ġchar set
c li
Ġed itor
Ġst ill
Ġwe ek
reg ister
Ġt ake
Ġp d
Ġs ing
w eight
ĠIf c
sh ape
; "
ĠO R
H TML
Ġ ~
Ġcon struct
un it
Un known
we b
cal ing
ent s
Con straints
Ġsub mit
n d
u i
Ġbas ename
D ATA
ĠTh read
Ġto o
Ġal gorithm
sc ope
Ġac cording
Ġs ide
ax is
Ġlat est
Ġm ime
ĠH ost
Ġcall er
ub e
con v
Sh ort
/ "
? '
Ġro les
log ger
ĠT ree
Ġm b
Ġdepend ency
action s
Ġm any
D ig
Ġis Valid
ook up
Ass ign
av ig
Ġro utes
W rit
Ġqu ot
Ġsub scription
Ġsum mary
Ġre ct
Ġmethod Name
Ġhand lers
er ved
T imestamp
Ġz eros
l anguage
de c
Ġre ject
P ointer
Ġh istory
AR T
Ġprocess ing
al ias
F S
Ġkey word
ĠY ii
ĠF ALSE
C OL
l ang
names pace
/ {
s plit
Ġ' __
om atic
Ġc li
e er
Ġc ertificate
Ġw s
Ġc c
St op
ĠG P
or ig
Ġd escriptor
p attern
o pts
Ġow n
Ġcon straint
Ġformat ted
S ite
Ġp ixel
E l
Ġsl ug
N G
chedul er
r v
t otal
ch or
A uto
o ugh
Ġabs olute
Ġdim ension
Ġstarts With
' "
Ġun its
Ġbound s
il ing
pos ite
or ter
Ex tract
Ġd uplic
ĠG ET
Ġcre ating
Ġch art
Ġs calar
Ġd uring
F ORM
R ol
Ġsuccess fully
D et
Ġc os
im ate
sc ribe
Per form
Ġre quires
Ġp adding
Ġr ate
ĠSt ore
Ġpl an
p aces
Ġget String
ĠS ource
ĠKey Error
St at
Ġ es
M ulti
Ġc m
ĠHand le
F etch
Ġthem e
CH E
ĠB uilder
Ġse ed
Im port
Ġch o
press ions
B ag
D ict
ra ft
ĠA ccess
C L
V ector
ĠU N
sh op
**************** ****************
eg in
Ġstart ing
Ġv irtual
imit ive
3 4
Per iod
Ġm k
ition s
Ġdepend encies
Ġget Field
if ies
Ch anged
25 6
ĠTem plate
are a
ĠInput Stream
az y
Ġresol ver
pro file
P ermission
Al lowed
Ġel e
er ms
Ġ1 4
Ar n
Pro ps
In s
M ult
Ġs ix
Ġclo ud
Ġar chive
user name
ent ion
Ġk now
Ġs ur
Ġhand ling
M essages
ĠRe cord
State Exception
Ġd id
H T
VAL ID
Ġcontent Type
c ade
Ġnot ify
ĠAr gument
Ġconfig ure
O UT
Ġget Resource
Ġg it
Con verter
Ġ question
Format ter
f os
il ities
i um
incip al
Ġrece ived
F ull
Ġd r
3 0
Ġnot hing
st d
Ġbind ing
p olicy
ĠO ptions
t n
ĠgetP arent
ĠEx ample
Ġare a
elet es
C R
Fl ags
= %
Date Time
S ep
ĠOn ly
l ight
Ġm et
S ql
Ġse par
ID s
Ġfor ward
Ġfilter ed
N LS
Ġauth entication
Pr int
Ġprom ise
ĠJ ava
t c
column s
ab s
Ġback up
im ation
Ġsh ared
olic ies
Ġg l
CE SS
p op
Upd ates
Ġdirect ly
Ġrepresent ing
! '
Ass oci
Valid ator
I S
ĠN etwork
tr ace
ĠD atabase
ĠSt op
By Id
D ist
AT US
LO PT
prec ated
Ġl ater
apt ure
D at
Ġent ities
r ate
ic ense
ĠV AL
Ġtemp or
Ġapp rop
m utable
P rice
ier arch
d irectory
c ut
TE XT
Ġj av
) \
Ġget Content
Ġseg ments
c ision
T okens
Ġ" [
UT F
G lobal
o o
iv al
method s
Process or
Reg ion
Ġfail ure
ĠSe arch
Ġpart ic
Rem ote
tr l
li ct
Ġapprop ri
at ely
Ġg re
ĠgetC urrent
d n
Ġis n
Ġ 64
ĠR oute
ĠIn stance
ĠC P
let on
Ġ' &
Ġp ayment
n etwork
Ġb r
" '
R est
= \"
B ar
alan cer
EL D
8 4
Ġf d
ĠJ avadoc
Ġ3 0
G ateway
Ġsav ed
Ġhost name
Ġgo ogle
h elp
Ġs s
ĠWh en
Ġpro cessed
a fter
de v
Sec ret
eth ing
Ġpro vid
Ġgener ic
ites pace
c ss
Ġopt im
Ġ' ='
Con nect
Ġs amples
Ġre store
Ġ ut
ĠNO TE
RECT ORY
Ġret val
g rid
st it
Ġmin imum
D im
Ġto ol
end or
Ġm achine
bro cade
Ġchar s
Ġed ges
Ġrelation ship
S A
W atch
ĠSt orage
FI G
C LASS
Ġ" --
op es
UN D
an it
Ġl ess
ar gin
Ġversion s
ĠCon stants
num eric
Fail ure
Ġd a
F low
Bind ing
Ġc ountry
Ġun icode
Ġvert ex
m ain
A Y
H e
ul k
/ %
pl ies
Ġcons ider
Ġarg v
Wh ere
P tr
Ġsm all
Do uble
ĠEn v
ĠAdd ress
Av ailable
T otal
Ġc ard
Ġ' [
ĠOther wise
I p
Ġcomp iler
Ġle x
ĠN ames
ME TH
Ġorder By
x x
DE FAULT
S ingle
Ġ'\\ '
um ul
A A
S ection
u c
ĠL abel
ce ed
Exec ute
tr im
Ġan gle
8 6
se con
ĠIn ter
Ġoper ations
st ats
x ff
ĠCUR LOPT
Ġf name
=" '
Ġuse ful
Ġe val
b atch
J ECT
Ġcom put
Ġ' *'
ĠCh annel
ys ql
Ġpre vent
h ip
ĠK EY
re es
Ġlib rary
Ġagain st
B O
Ġg eometry
Ġ? ?
Ġm ac
: %
Ġt ax
U NT
on es
Ġk w
2 7
Dis patch
D uration
METH OD
s w
Ġs leep
ac ing
or iz
h as
> \
Ġins pect
S ymbol
label s
Ġbas ic
Ġpro per
av ing
2 1
Ġflat ten
Ġ1 9
Ġserial ized
Ġm ount
r ule
Ġn d
Ġcol s
Ġth ose
al e
od er
Ġre ferences
Ġarray s
c a
I VE
ĠA S
Ġh ist
Us age
Log in
F ilename
Ġallow s
In stances
Ġl v
w rit
Ġe Z
Pl an
Ġ$ $
Ġs in
D irect
In formation
U I
ĠEx pression
F n
Ġmark er
Sign ature
ĠĠĠĠĠĠĠĠĠĠĠĠĠĠĠĠ Ġ
Ġweight s
ĠL ine
Ġ[ ]
trans l
ĠL E
Ġcon stant
Ġsy m
ĠTR UE
Ġmer ged
ĠS plit
Ġdat as
in valid
Ġcont act
ook ies
ol ve
b utton
y ntax
ĠRe ader
H ook
Ġparse Int
M etric
ĠĠĠĠĠĠĠĠĠĠĠĠĠĠĠĠ ĠĠĠĠ
IT E
ar r
En tries
Co ord
Ġpro gram
Ġdig est
rid ge
Ġp ur
amp a
N E
al es
ong o
Ġf act
ĠĠĠĠĠĠĠĠ ĠĠĠ
Ġback ground
d iff
m enu
ampa ign
Ġm ock
dis play
Ġpro c
M edia
ĠPro ject
m ult
Filter s
ĠC OM
r ong
in stall
Ġe ffect
ĠCom p
Ġadd All
al pha
ĠH tml
Ġsend ing
ter s
ĠReg ister
ĠS w
ĠCom ponent
se q
Ġvari ant
ĠReg istry
Ġis Array
e ase
Ġtim er
Ġw alk
angu ages
ĠM in
M onth
Ġb ig
ir ation
ick er
el ist
ĠF loat
Ġpl t
ĠAs sert
r s
ĠIn v
Ġignore d
Ġev en
doc ument
C RE
Ġred uce
Ow n
C ert
Ġcur rency
Ġref lection
S uch
p k
p ass
ĠD O
ĠSc ope
Ġbot tom
Ġproperty Name
util s
ĠPrint ln
Ġenv iron
Ġaws err
ĠER ROR
O pts
ĠIllegal StateException
Ġse p
ĠSub Element
W ait
Ġf ragment
8 8
AD ER
Are a
ĠP OST
rypt o
U int
rel ation
d es
Ġstr ict
Pro gress
Ġw ell
Ġstat es
Env ironment
ĠA g
} .
ĠW riter
ĠParam eter
Ġfix ed
Ġcandid ate
I F
ĠAn y
B uf
Ġin crement
Ġappropri ate
N ormal
B oolean
t imestamp
En code
Tr ue
I ST
tt y
Ġcoord inates
Ġget All
Ġex plicit
######## ########
Service Response
Ġsc reen
RE QUEST
3 9
S plit
com ing
Ġfore ign
Ġset Value
Ġmap ped
rok er
Ġet c
D C
Ġe p
Ġt akes
em pty
Ġsc roll
up d
ĠAp ply
M A
Ġk ernel
Pan el
T Y
Ġtem plates
2 9
Ow ner
ĠCal endar
red icate
l ay
Ġd en
Ġdest roy
ro ute
col lection
* /
Ġs ources
Ġper cent
ul a
og ram
I con
Var s
Ignore Case
id ual
2 6
Com parator
ro id
Ġget Re
U UID
ĠCol or
s ide
Ġex act
c ourse
us s
Set ting
d esc
Ġb ad
Ġget s
C ODE
Ġth reshold
Ġpair s
Ġget Parameter
Run time
us ers
Ġf actor
Ch unk
Com mit
: \
H as
List eners
ĠCl uster
ep Copy
< !
S cale
Ġre v
ĠV ector
Ġc over
ww w
Oper ator
Y ear
M any
U LE
Ġindex es
ĠC OL
File Path
Ġwarn ings
Ġnum bers
ĠG raph
With ServiceResponse
WithServiceResponse Async
Ġl ar
Ġr and
d ig
pos er
7 4
f older
p ackage
il ar
Ġmod ify
W OR
' ll
Ġprovi de
ĠP ost
Ġan notations
l t
X X
Ġdes er
() ;
Ġh ap
H istory
com e
li ke
Ġ| =
ram mar
Qu al
ag ent
Lower Case
ĠC opy
vel ope
Ġr v
Ġp ub
ĠHE AP
Point s
anag ement
Ġget Table
ch ain
Ġnormal ized
Ġpred icate
st at
Ġman ifest
id entifier
t mp
ar ies
ĠArray s
ra se
def in
Re c
Ġget Option
ĠB ody
M etrics
Ġdel imiter
An notations
pro xy
Ġw in
ĠCom mon
f loat
med i
T ab
valid ate
requ ency
L ib
W N
im port
m atrix
w indow
M an
im ent
l int
Ġiss ue
Ġdis abled
x is
ĠE X
Ser vices
K ind
Ġcom ments
sign ed
se g
st op
ver age
D estination
ĠValid ation
ĠRef lection
Ġcal endar
Ġst yles
s ave
Ġal ign
Ġrender er
Ġc t
Convert s
c enter
Bound s
Ġread y
ug g
st orage
D D
av ailable
Ġsq rt
j oin
com m
ST ANCE
O B
ĠS I
Sh ow
ĠDI RECTORY
and s
se ct
c est
F ont
Ġbel ow
Ġo verr
ĠX ml
A rr
P ages
] )
3 6
Ġ< !
E Class
Ġab ove
ĠP er
cont roller
Ġcontains Key
Ġra dius
Im plement
UR CE
Ġact ivity
Re place
Ġm ov
Ġsh utdown
co ord
p b
for ce
ct r
Ap pend
ĠCollection s
ra ction
ĠP DO
Ġcol ors
G o
pl ier
f alse
em pt
en abled
Ġstart ed
se mb
l ong
Dec imal
Ġchannel s
s v
Pro tocol
Ġ", "
f etch
ag ing
ab ilities
VER SION
b eta
s alt
Ġstr conv
d l
ip art
L ines
en o
Ġad just
Ġb us
Retrie ve
in v
Ġdim ensions
Ġinv ok
be fore
] *
Ġv als
Ġtarget s
B it
f ont
Ġ' )'
ĠString Utils
} ,
Ġint eg
Ġcontext s
ĠF e
ĠF irst
S imple
Ġreturn ing
Loc ator
th e
St atic
ill ing
Ġpy thon
S uffix
tr ict
Ġsend er
I FI
Ġb order
M ask
up per
Ġt ail
ĠC re
P od
us ive
-------------------------------- --------------------------------
Ġans wer
STR ING
Ġwrap ped
Con straint
lo or
To String
r f
ild card
Ġpar sing
E qual
Ġred is
tem p
Ġmap per
ce eded
de pend
Ġp t
log in
Ġsh ard
m ac
Ġdo ck
ĠNo Such
Ġro ll
( ...
Ġcom parison
Ġm iddleware
ient s
m edia
tx t
in terface
Ġs sl
Ġappend Child
\ .
ĠP romise
n on
w ig
ĠW ait
end s
Ġconn ected
x f
E OL
Ġde g
UT H
bs olute
ist ic
un checked
ĠVAL UE
Ġincl uded
P ol
ĠK ind
J ava
Ġf ac
a ut
Ġad apt
A V
P S
AT CH
Ġaut omatic
an ded
Ġc am
Ġ"' "
Ġrec ip
s cale
Ġhap pen
ĠU UID
Ġc ipher
pe ed
Con sumer
Ġget Status
Ġle ad
et ype
Ġp ipeline
Ġm t
sec ret
Ġinst alled
7 5
ĠS p
RE D
ar ator
Ġse en
v ance
ater ial
ĠM arshal
Ġat trib
Ġc ir
G B
Label s
ol ution
ĠM em
scrib er
ĠWeb API
Ġs v
ant ity
A b
pro duct
U uid
Ġc e
= {
ct x
Ġorder ed
ren der
Ġne ver
Ġre cursive
B inary
child ren
Ġpack ages
0 9
c ap
Ġrec over
By Name
Trans fer
ar s
Ġto LowerCase
Ġu i
ĠT arget
Ġun known
is ed
lo sure
ĠInfo f
Ġconnection s
Ġfall back
IN FO
ĠMod ule
S k
Ġc ar
Ġt eam
ĠS ort
t le
th read
C md
ĠO S
A ccept
Ġin stant
f ill
Ġo bser
RE G
D iff
Ġequals IgnoreCase
Version s
Ġwrit ten
Ġs at
Ġsom ething
s ers
Ġon es
se e
ĠTrans action
B E
Ġh idden
Ġcheck ed
Ġcomplet ed
In to
Ġcan vas
errupt ed
Ġne ighb
Ġevalu ate
u ed
Ġ1 3
S lice
Ġwork ing
Red irect
Not Null
Ġlo gs
de vice
al low
Ġdet ect
T L
ar ing
[ ^
Ġconvert ed
Ġrece iver
Ġsh ell
Ġget Node
Ġp ot
ro ad
Ġd ynamic
t ain
un defined
de pth
M O
Ġact iv
ĠB atch
Ġcell s
Ġnew Instance
ĠBy tes
pro p
ĠBuffer ed
Up per
event s
m ember
ĠM ulti
ish ed
Ġde p
ap ed
50 9
U ST
L INE
ON E
enc oding
ierarch y
Or g
Ġp ick
Ġwork space
Ġwrit el
ĠNames pace
re port
Ġtrans ition
ĠP ort
Ġst age
Ġp ipe
p ool
ra d
Ġact ually
Pr ivate
Ġpr iv
Ġt z
p air
in herit
part s
ĠA tt
Ġvis ible
Ġ{ }'
Ġch oice
P ublish
n ail
Ġgener ates
Ġcon verter
6 6
Pl ace
2 8
Mem ory
P ayment
a o
Ġget File
Ġlist s
ĠSec urity
onom y
LO B
Ġpre cision
ĠW arn
Ġget Query
Ġattach ment
AR Y
s ib
ist ers
w t
Ġk v
ĠN AME
Ġdes ired
S w
wh ere
ĠA R
or ing
com mon
Ġchunk s
Ġsh a
ĠEn um
Ġgra d
j ected
Ġreplace ment
S chedule
-- -
Author ization
H older
LI C
ĠO p
CON T
M IT
N UM
er a
J vm
Ġi i
b re
Ġcoord s
Ġstep s
ĠW indow
ĠDe vice
Ag greg
a uto
Ġc f
im g
ĠC ustom
G iven
e ver
Ġt ol
SS AGE
Ġiter able
Ġc ases
pl es
ĠAn notation
ĠUtil s
Ġneg ative
Ġauthor ization
Decl aration
Ġwork flow
entic ated
Ġy aml
Ed ge
G u
Action s
Ġcs v
n one
Ġ enter
Ġinclud es
var iable
Id ent
ĠB ad
Ġm c
D etail
P ayload
Ġs em
al ance
Re q
x b
l an
Ġ. .
us es
Ġt m
Cre ated
R ect
Ġs pl
ĠS H
ĠC F
ĠGo ogle
Ġp c
Ġh our
po ch
ĠM edia
Ġnew Value
n ormal
ĠNew Err
it ter
Ġg ithub
' )
Ġget Time
Ġwritel n
ĠI NT
Ġaddress es
Ġbuf f
yp ed
is es
Ġ( %
Ġc y
Ex port
ass ign
Ġsupport s
ore ign
De pth
ĠTh ere
re at
C ookie
M T
Ġ" :"
return s
ĠS o
Ġover write
oriz ont
Vari ables
ak ing
ĠV er
ĠTr y
5 9
C redentials
ĠIm port
ĠF unc
Ġc ms
Ġun pack
ĠD at
ik i
ut ions
Ġr ank
t l
(... )"
Ġit self
Ġp erson
Ġd ialog
L iteral
se quence
O pt
re ference
ĠAp pend
qu are
ĠPro perties
ĠProtocol Marshaller
ign ore
al f
F in
M D
o ad
ĠNewErr Param
Ġv ideo
tr iction
Act ivity
Ġs yn
Ġv s
umb nail
Ġc red
Ġc odes
Ġprob lem
cle an
all et
Ġs heet
ock er
ĠR ole
Ġp rice
p ush
Vis ible
res et
ĠDec ode
Warn ing
u er
x id
i et
ctr ine
g ers
.. /
C or
Ġqu eries
ash board
Remov es
est roy
Ġc atalog
d ap
Ġfind By
Y ou
com plete
Ġc n
is m
ĠO N
C loud
d atabase
Ġu c
Sel ection
ul ation
curs ively
M IN
Ġcon straints
al og
OK EN
ĠEn code
T ODO
i ol
ul ate
OL LOW
or ld
ĠI M
Dis k
Back up
Ġuser Id
Ġ10 24
T ri
Ġstr ategy
P L
i ence
Ch an
Ġco e
ĠC le
ĠPl ugin
Ġr h
0 5
i ally
Pro to
Ġab ort
T ick
.. ..
O IN
Ġdock er
ĠRe ference
Ġtempor ary
un ique
B ER
Ġget Method
Data Type
element s
A mount
ĠSt d
Ġload s
ra cket
Ġsy ntax
} \
ĠRe pository
v ing
con vert
aj or
Ġan alysis
Match er
Ġas sum
ser ialize
Sup port
j ava
ly ing
Ġcon v
Con structor
vel oper
C odes
Ġentry Set
Com plet
Ġparent s
w riter
Ġfil led
Ġ unc
ot o
Un ique
ĠRem ote
D es
Ser ializer
PRE FIX
ad ow
' '
Ġcreate Element
o j
A CE
G rid
Ġde ployment
. _
Ġto g
Ġstate ments
ens ity
c u
ĠR est
ĠS ize
Com plete
Content s
Ġev t
Exec utor
ust ers
up load
Ġd etermin
ch anges
Ġwork s
D R
Stack Trace
Ġmigr ation
4 4
Ġind iv
in ess
Ġtt l
ĠF rom
lo cale
Ġserial izer
ĠPrint f
Ser ial
ARN ING
ATE D
h idden
Ġf loor
g lobal
filter s
c as
Ġre vision
P resent
Ġget Entity
D ialog
P ORT
sc ore
x FF
Ġw p
s ample
orizont al
qu als
at ype
] [
l ayer
To ol
I AL
ot es
UN CTION
S kip
ĠDE BUG
Ġin line
Ġtime zone
eta iled
Ġget Service
Ġlog ical
ĠNull able
M ain
Ġdefinition s
z z
IT H
ĠUT F
condition s
Ġh ome
Ġdecode d
Ġassoci ation
fin al
Ġp b
in sert
ak er
Ġnum eric
Ġout er
Ġc ut
id ent
ĠP art
ĠAttribute Error
d etails
Ġsing leton
war ds
Ġ" :
ang o
mod ules
Ġd escribe
Ġdirect ories
g p
TE D
Ġver b
str ip
asc ript
ter m
per iment
In stall
um es
E sc
Ġ* =
Ġc trl
C ard
Ġal tern
avig ation
3 7
ĠEx t
fl ag
Request s
ĠV ER
n b
ĠT x
ĠC A
P ut
s d
Ġcase Ifc
cl s
bo ol
ĠE OF
Ġp rior
P ass
B ad
on ym
sl ug
Ġ5 0
Ġm onitor
ĠCom merce
track ing
" >
C tx
De fin
B alancer
Ġ er
p ng
ext ension
Ġn ative
Ġformat s
Block s
ly ph
Lo op
Ġread ing
Ġinitial ized
Ġget Object
- %
ition al
ĠLocal e
v oid
DE LETE
//////////////// ////////////////
Ġart ifact
Ġtx t
M ake
V ENT
V irtual
ĠG u
Ġn an
ĠC H
t ick
ĠF iles
Ġre name
Ġg rammar
Ġget Context
Vert ex
Ġget Response
Ġc ategories
ic ally
J S
a ug
Ġm icro
j ax
ĠSQL Exception
ĠU I
Ser ies
B Y
] ,
ĠP od
Ġt e
Ġpopul ate
a N
Auth entication
D raw
bo olean
B its
Ġfiles ystem
Util ity
lo op
Record s
ud es
Ġ'# '
PER TY
(? :
ail ability
ival ent
ud o
ĠD escription
Ġinclud ing
vers ation
p red
x c
ĠF F
ri pts
Ġlist en
Ġax es
el e
Com mon
Tr igger
TER N
Ġsee k
P ermissions
B ot
Ġ& #
ersist ence
ĠR O
A CT
er ve
re quire
Ġc op
ex port
ĠF OLLOW
Ġiter ation
Ġb c
Ġadd ing
Ġmk dir
ens itive
SO URCE
Ġget X
ĠB it
m ake
Ġd ue
Option al
p ublish
W eight
Ġan not
ĠLink ed
trans form
Ġt erms
Ġ1 8
Ġjob s
ch unk
L AG
F ER
x e
Ġn one
ĠR ow
Ġe c
A xis
ent icate
h ape
o urn
ĠC urrent
Cl ick
5 4
ĠM eta
T RI
Cont act
Trans port
cul ate
qu ences
Ġp tr
ersist ent
Ġc at
igr ation
A IL
ĠR aw
ĠChar acter
Ġd elet
Ġl l
Ġ3 6
Sep arator
n a
Ġget Code
P P
dat etime
N e
w idget
Us ers
LO CK
ĠA ccount
Ġcl ause
m er
Ġstatus Code
Ġpan el
ĠgetPro c
Ġlif ecycle
Ġq ue
on y
Ġpl ay
ĠPy thon
Ġexec utor
en ant
ĠD el
Ġ5 00
Ġd ns
av es
L at
road cast
L ookup
p id
ĠS kip
Ġgroup Id
il ation
Ġ'/ ^
Dec ode
SP ACE
Ġapp ro
O verride
Ġ" #
sh ort
R ad
ĠM ark
Ġl ayers
inter val
1 00
Ġv ol
- '
Reg ex
ĠCont roller
W eek
ĠgetProc Addr
t f
Ġd x
ĠAr gs
Ġautomatic ally
Ġw ire
Ġar ch
Sub ject
S U
ification s
Ġfr ont
to ols
Ġdi ag
E valu
F ac
ĠG it
ĠĠĠĠĠĠĠĠ ĠĠ
ĠD omain
Ġme asure
Ġb uilt
ĠE d
Ġsub process
Gener ates
ĠGener ate
Ġt d
Par ses
Top ic
ing er
Ġprocess or
ĠC ertificate
Ġassign ment
g ithub
Sub scription
e z
s lice
Ġcustom er
Pack et
U sed
7 6
Ġwe bs
Work er
As set
pl ib
ĠString Buffer
8 9
set opt
ĠNon null
nt ities
ap s
Ġcurrent Time
Dispatch er
ĠIn terface
ĠCon n
Ġfail s
Task s
Ġclean up
LE D
Cur sor
Ġcallback s
Ġset Parameter
Can cel
Ġr m
ĠE N
M AX
Ġplace holder
H elp
Ġcheck sum
ĠL en
Ġ' |
\ /
Ġget Text
in clude
ch anged
SC RI
E s
p resent
Ġre le
Ġfinish ed
Ġuser id
Ġcre ation
Ġdum ps
ĠAuth or
} :
load er
cs v
Ġget Column
Transl ation
Ġthrow n
Ġra d
M OD
Own Property
RA Y
p tr
Ġr pc
ĠIter able
Ġsign ed
Ġop s
Ġcheck ing
Ġoutput s
ĠP ol
r b
ĠC R
De ployment
2 01
Ġm ed
Ġreg ular
Ġpopul ated
to ol
Ġcomp act
Ġa round
l ayout
Ġget Connection
C C
Ġd c
SS L
cor rect
Render er
Ġx path
Ġm p
Ġas sume
Ġduplic ate
Ġrot ation
ĠM ust
Ġap plied
Ġf amily
ĠJ S
cept or
Ġorg anization
M ail
iv ers
ĠC S
Sec onds
Del ay
Ġs anit
ĠC SS
ĠSel ect
Ex it
vi de
init ial
map ping
ip ping
Ġy ang
Ġservice Name
al er
param eter
FI ELD
T imer
pro vider
ar b
oc ab
ĠR ule
n p
ĠPar ser
Ġconfig s
med iate
M erge
Ġ' ?'
Ġset Name
b its
Ġp a
ĠM ET
} )
Pr imary
d ers
y y
Ġb eta
+ '
Ġrece ive
A F
Ġh it
Al gorithm
Ġgre ater
Attach ment
en ar
ĠN um
Sc roll
Ġc lip
Ġunder lying
en ames
Ġcon stants
Ġin herit
fact or
P eer
Con version
Ġdig its
ĠU rl
ag er
ĠP os
RO UP
ĠT erm
ad o
rok e
Ġ" </
Ġmin utes
ĠL ast
Ġpartic ular
Ġas k
Ġc ross
VI CE
ĠP attern
Ġre pl
DE X
m essages
t p
Ġcon tract
ind ices
F actor
Ġread s
Ġh params
0 8
Ex ternal
col s
Ġm ix
Table Map
g it
Ġres pond
ĠHash Set
fact ory
Ġde precated
aw s
c ms
Bag Constraints
Ġh ide
if orm
Ġph ase
AN T
cell ation
reg ion
K E
in u
Ex pected
ĉĉ ĉĉ
Ġjav ax
Ġd etailed
Ġposition s
Ġprom pt
I Z
est ion
Match es
fa il
Ġt ls
an ces
Ġsuccess ful
y ear
Ġf f
ĠV alues
" :
Ġg ateway
Ġends with
Ġcount s
Ġal ert
Ġtr i
cre te
Ġpattern s
Ġbe havior
ib ling
Ġh old
Ġback tracking
qu ote
r ant
g u
Ġp ull
alyz er
iz ing
Ġpos itive
Ġin i
Ġe ar
Rol es
m etric
Ġalias es
Ġenc rypted
Con stant
Ġurl s
v s
T ables
ab ly
defin ition
per iod
ir d
ĠRe place
object s
ĠM etadata
ir y
n able
PT Y
Ġother lv
Ġr gb
Mem bers
Hand lers
Ġto uch
Ġm on
Ġlocal es
ap pend
Ġo auth
um an
Se q
Ġget Next
Ġvert ices
L if
Ġexp ire
un ct
Ġconf irm
w o
iz able
Ġin coming
ĠB ind
ĠIN STANCE
3 1
esc ape
Ġt pl
Ġcon d
ĠOn e
- \
Ġmay be
ĠErr Invalid
Ed itor
M s
last ic
RE AD
W E
p et
Sp an
ĠB Y
I I
Re al
Ġtr unc
Ġd d
Ġassign ed
Ġsol ution
Retrie ves
ĠEnd point
Ġerr s
Ġse ver
A IN
Ġo x
Ġfeature ID
Ġany thing
ot s
Ġ2 5
Ġdec imal
AS K
Ġas c
ro s
ĠC ount
+ )
2 00
Ġ" {$
Ġbo ok
qu ent
Ġcollection s
M achine
p ad
Ġc types
Ġan chor
Ġres hape
Ġm esh
ĠR ender
ĠV oid
ĠM IN
LOB AL
Ġc ost
Ġ' `
Ġget Local
ag raph
x a
plic a
G R
Meta Data
Struct ure
c odes
Ap ply
H int
Part ition
ĠS IG
Ġt urn
Ġdis tribution
upd ated
on s
Al low
Ġ Ċ
LE NG
ĠParam eters
Res et
Gener ic
f ound
Ġm anaged
pe ction
Com pute
Default s
m m
Ġext ended
IT ION
Ġ"\ "
ĠP I
config uration
ĠA f
m ulti
ro ut
Ġcal c
X base
RE S
t ab
Ġin cre
r ation
Ġc art
N one
H ex
M ODE
attr s
ĠgetS ub
Ġres ize
SE SSION
g l
Cl ause
Ġdefer red
ys ical
Ġaggreg ate
w ait
P op
ĠLoc ation
Run ning
Ġbl ank
it al
ĠNot Found
R et
Ġs sh
PO S
ĠDe epCopy
Ġ" #{
Ġget ter
view s
Ġv ec
us ion
ask et
Ġboot strap
c fg
er ation
ĠS Y
Char acter
.. ."
ĠP RE
i ation
] {
ĠS ave
Ġw x
L Y
Ġstring ify
Mark er
me an
u uid
Ġb s
riter ion
F ault
Ġser vers
LI ST
B us
Un lock
pl an
iz ations
ĠRequest s
l im
Ġp in
Ġkey words
record s
cur rency
LENG TH
c ached
cont rol
argument s
Link s
medi ately
am ma
Ġa ff
Ġhas OwnProperty
ĠTr im
ob ile
ĠP ointer
B ranch
Down load
ĠVar iable
Ġcons ist
v ation
G E
Ġdif ference
ĠID s
ourn al
ol ang
h ex
b le
Ġexec uted
ynchron ous
Ġc ach
Ġab ility
z ero
Ġl a
ed ge
Ġun safe
ĠST R
Ġb b
Definition s
A UTH
4 0
fl ags
Col lector
link s
ĠST ATUS
bo ot
Ġr b
fe atures
8 5
ĠE M
f c
str ument
Ġlon ger
ĠG rid
ip s
Table Name
Address es
ĠAt om
A ut
ĠRes et
Ġdel egate
Ġload ing
Ġpol ygon
Ġf ocus
Ġget Logger
Ġremov es
Ġl iteral
P HP
Ġo bs
Ġob tain
Ġget G
gener ate
Ġ\ '
Ġm ade
Ġde vices
F r
Ġst ub
Ġr atio
Z ero
Component s
Back end
Ch anges
Associ ation
s ymbol
Ġasset s
Ex cel
Ġsection s
ple x
Ġl s
W R
Ġz oom
ĠgetS ession
Ġp g
Tem p
Ġun lock
M onitor
it tle
Sh op
ĠField s
Ġass oc
B R
I t
Ġw rong
Ġreg exp
Ġtag Name
Me asure
__ __
cat alog
Dist ance
d c
ĠT op
CON FIG
En coder
d irect
Ġhost s
ĠData Frame
form er
oot strap
Of f
Ġl n
Ġp ower
Ġclo sure
ĠL imit
AP P
f it
Ġdeep copy
Ġcomplet es
Ġm ysql
Ġres ponses
ĠUn supported
rem ote
Sup ported
ĠP ublic
? "
Ġap pe
Ġover lap
E C
by te
Ġpar allel
C riteria
Ġrem ain
Ġcomp lex
Ġparent Node
7 9
in ternal
Ġc ookies
fe ature
Ġc wd
CO UNT
Ġleg end
b ucket
Ġprevious ly
D iv
E W
Ġcho ices
ĠO P
cest or
Con struct
__ '
ĠC ur
ĠIm mutable
oot er
FORM AT
ĠC losure
h r
ĠT uple
ĠHttp Servlet
p i
on gs
Ġen coder
Ġwrit es
F IN
Ġe as
ĠRuntime Error
C I
p ages
Ġc lock
ĠV irtual
ĠO Auth
ĠR out
Ġcan cellation
ĠE ND
Ġgu ess
L ang
Job s
c loud
Ġent ire
ĠM etric
o auth
Ġsim ilar
k a
ĠSt ack
ĠAf plib
d rop
Ġde ploy
Field Name
ĠgetM ax
ĠAfplib Package
Ġin c
Ġpl ayer
Ġsp aces
call able
ap er
Sc ore
TE S
Ġm akes
ĠM atrix
Ġsig ma
miss ions
7 0
Ġs rv
S M
Ġen ough
CH AR
O W
fa iled
N et
ou ch
Ġ" )"
Ġq b
form ed
Ġs ock
Ġf i
ap es
C CESS
ĠRel ation
Ġcompat ible
s amples
ĠU int
Ġ' ('
Ġr anges
Ġdocument ation
Ġgra de
art y
Ġinter pol
Ġindiv idual
ust ed
a ff
lo ok
att ach
P atch
Ġm argin
Ġj ar
Cal endar
Ġwait ing
m issing
Ġth eta
Ġwh ole
s ig
Ġtra iling
mod ified
Ġgu ide
Ġm o
xid Es
xidEs ales
Ġenc rypt
Ġs id
Ġinter faces
ĠInt errupted
Ġpl ain
Ġk lass
Ġph one
ĠQ t
p an
ro tt
valid ator
c b
C ss
ĠA fter
Ġview s
ĠStr uct
Word s
Ġg eom
Set up
ĠSer ial
Ġdecor ator
Ġexp ires
im ages
od o
com mit
Ġhand les
m at
bind ing
Event Listener
ĠU P
ĠE m
Ġcan onical
bre vi
Ġh int
Upd ated
en ch
ĠC LASS
Ġadd Child
er ator
AR L
D one
* "
Ġcon sum
ON G
Rel ease
i h
Ġdispatch er
Ġbind ings
Clo sed
is f
V M
ex ist
Ġconsider ed
ĠByte Buffer
Ġiter ate
Ġrule Jvm
Ġthread s
ĠV olume
ml ink
ĠDep loy
d river
ĠB ucket
Ġ4 00
Ġwrit ing
l ab
Ġtrans fer
Vis itor
3 8
se cur
Sel ected
M ore
Ġfull y
ĠS SL
M ut
Ġ" {}
re po
po sed
em s
O PTION
Ġget Element
Ġg olang
Ġnew Request
Ġdocument s
Ġp m
ĠJ AX
List s
Ġsh are
Ġtest s
Ġopt Params
ĠP olicy
Cap acity
[ \
ir r
ĠPro to
i os
ĠST ATE
ĠU SER
( .*
v ant
pl ain
Ġa udio
Ġnon ce
p n
ĠR oot
ĠCh ild
r pc
s id
Ġget Model
ĠN e
F ragment
s kip
in ated
d ing
ĠS O
Ġsub stit
secur ity
ur able
B ool
Ar chive
at om
Ġrel ations
ĠZ end
A bstract
Ġgener al
Ġread able
ch an
F OR
S Y
cl ick
c ounter
Ġc apture
sh ake
Ġclass name
RE NT
Ġ' >'
r ules
Read s
roll ers
Ġ'{ }'
Ġset Property
Conn ector
Ġembed ded
ener ated
Ġspec ification
Ġtim ed
M I
Ġ ul
Ġgo od
Ġatt ached
m onth
ĠO xidEsales
E lem
ĠM e
b ranch
Ġm id
Ġrout ing
Function s
Ġc id
F ixed
ra ps
Ġh ours
ĠP ackage
C UR
d t
l in
iv ot
Ext ensions
Ġ"- "
Ġsent ence
Ġcl aim
Ġpre tty
ĠEnv ironment
Ġcap acity
Init ialize
ĠgetF irst
ri end
it elist
Ġm is
m aster
s ingle
ĠFI LE
vari ables
Ġgen e
ĠQ ueue
Ġattem pts
Ġfin der
Ġs i
Type Reference
EN CE
Ġlast Index
Un its
Ġs vc
R etry
f il
Ġ# #
Ġcontain ed
Pre pare
D rop
Ġlog ged
Ġconf lict
h ref
ver sed
char s
c lo
D eletes
Ġbound ing
Ġnode Name
Ġ' ;'
Ġe q
un e
HE ADER
ĠInterrupted Exception
Ġart icle
Ġweek day
ĠPro vider
scri ptions
Ġal ong
ĠW alk
Ġmap s
Ġ( "
ĠT ABLE
I ss
s ent
ST ART
Orig in
secon ds
Ġpol y
Ġuser Agent
Ġlevel s
ĠCh ange
ĠCF G
Ġcolumn Name
Ġquery Builder
Ġnext Page
Art ifact
Ġex tr
End ian
reg ex
w atch
Ġlin eno
Ġget Body
q a
en able
red irect
ĠFF DC
Ġin struction
c ert
ag ger
Ġget Last
ra in
Ġrun s
a a
Ġc nt
Ġf w
Ġpy lint
Ġp ow
Ġan g
N amed
Cle an
default s
M ove
Ġaut og
Ġd ial
ĠE shop
Ġb g
Ġis Null
res se
Th reshold
ĠD on
4 9
O ld
LE MENT
Ġinter section
-------- ----
P ush
Ġrule X
Cur rency
o peration
Ġf h
ess ment
struct ure
Ġget H
St ates
ĠCms Resource
ĠSec ond
Ġe poch
Ġends With
B reak
Ġget Client
Ġim mediately
et te
av en
ampl ing
mem bers
c uss
G en
P romise
Ġm ouse
ĠJ OIN
art be
Ġclo sing
p ayload
ĠW S
~ ~
ĠB asic
not e
ore d
es ter
In fos
Ġget Root
or ph
ĠT ypes
ĠPro xy
DE D
ĠJAX B
ĠT H
und les
Ġd etail
model s
Ġre peat
F ld
Ġx y
x d
c m
Ġc are
Ġpol l
Ġdeser ialize
Ġiter items
() .
Ġlead ing
0 6
Qu ot
Ġbound ary
Ġequ ivalent
Ġhand led
ĠĠĠĠĠĠĠĠĠĠĠĠĠĠĠĠ ĠĠĠĠĠĠĠĠ
Ġsc anner
Ġf req
Ġkey Set
Ġexp iration
sum mary
re al
Ġm iddle
ash es
Ġstat istics
ĠO per
ĠEn sure
in ct
ĠC o
ertific ates
C LI
P RI
p df
IG HT
Ġm v
G IN
Com put
ĠBe an
un its
Ġph i
Ġ( '
Ġexp ired
Ġ4 04
illis ec
Ġr hs
Ġclient s
Ġnot Null
g mt
u ples
V AR
Ġdir s
Ġ utf
S ur
Ġsw ap
Ġbl ack
s i
Ġh dr
ĠP ag
Ġro om
aint en
ĠContext s
Ġnames paces
Ass ignment
ĠPre pare
T ax
Ġd y
ĠM E
ĠĠĠĠĠĠĠĠĠĠĠĠ ĠĠĠ
Log ging
U sing
v ector
Ġun i
ĠSc ript
S rc
Ġn l
Map pings
Ġcomp iled
Att empt
int eger
Build s
Ġ' (
pro b
Ġre load
Ġreturn Value
Ġ" (
Ġab le
chem as
enar io
p m
Ġevery thing
Ġth ing
ĠS ER
Ġconvert s
Ġupd ater
Ġn n
Un expected
ex tra
Ġo id
Ġ< /
ĠT est
ĠP ATH
to upper
Ġtest ing
ainten ance
s k
am ing
ĠE C
rol es
T ABLE
ĠRe c
Lo gs
ĠM ult
ĠG LOBAL
ĠS te
s est
Mod ules
LO AD
ĠEx p
Ġe ps
M aster
Depend ency
F UNCTION
P k
Ind ent
ĠO K
vent ory
Ġfr ames
Ġset ter
sc all
Bl ank
g y
Process ing
Ġcoord inate
Ex tra
ĠP lease
He alth
Char s
ĠTime out
Class Loader
com plet
ĠAd min
ĠId entity
ĠSet Context
Ġpre dict
Ġd ates
Ġun ion
down load
s ocket
ar row
F oreign
Re ply
res ol
sh a
Ġassert ions
.. .'
ĠF actory
Gener ated
ĠCh ain
or th
Ġm ixed
Ġtx n
S ent
Ġex change
Ġ" &
Ġl b
p od
Tr y
aly t
ĠAn d
ass oci
Ġfig ure
Ġloc ations
Ġle af
Ġautog enerated
Ġoccur red
Ġel s
Reg istration
Ġbet ter
ĠO PTION
ĠResponse Writer
command s
fe ed
Ġlook ing
fin ity
Ġ) ?
ĠAl low
ĠIP v
Ġget In
ĠS ET
Ġg eo
sub ject
mem ory
Dec or
t okens
Ġresol ution
all en
Ġtransl ations
Ġs a
Ġcon sume
. %
ĠM ock
LA Y
ĠNon Null
Ġre start
Ġphp cs
in ner
lo ss
Ġdesc rib
ĠSec ret
Ġlar ge
Ġh ard
Ġq Path
ĠWrite String
Art icle
ĠFe ature
av el
Ġset Text
r and
ren ce
Ġdecl ared
Sh ared
Ġm ajor
ĠgetS ource
ood le
Ġor ient
are n
ĠDebug f
Enc ryption
Ġa cl
ĠB inary
ĠS ince
inger print
Ġres pon
V EL
l ar
Ġendpoint s
ĠExec ute
k s
Ġk log
Ġl ik
ĠA TT
cl uded
ogn ition
ĠC O
Ġget Header
Ġdel ivery
C AL
Ġreg istration
th es
Ġch at
Ġm eth
" >'
al ity
Ġg ame
Ġc rit
Ġnumber Of
" )
en um
ĠSh ort
Ġget Error
T AG
ĠGener ic
Ġset Data
ĠP ack
Ġsub set
ĠgetS h
Ġevent Name
Ġb ug
Ġrender ed
Ġgr ant
I R
Ġm x
Re vision
ak en
]+ )
ĠApply Options
et ic
f p
Ġf ace
Seg ments
Type Name
mit ted
ĠCon dition
4 5
F inal
WOR D
ol id
OR DER
Ġj cas
Sc reen
String s
trans action
n orm
Ġatom ic
Assign able
Ġl azy
Ġsymbol s
ĠByte Array
Ġcandid ates
Ġv t
cl uster
Load s
M B
om ent
ĠSer vlet
Sc an
Ġprint StackTrace
an te
Dec oder
Ġc d
D eleted
Ġpl ural
vid ers
ĠDep rec
ĠA L
A ML
Ġwh itespace
Ch art
Ġr w
all back
Ġc rop
por ter
al ign
Ġmap pings
99 99
st ates
S im
fl ux
H O
block s
th eme
ST ATE
Ġh aving
Ġvis itor
U SE
ĠS uch
end point
ex tract
ĠM y
Ġroll back
c ue
count s
] .
r us
Col s
Ġe z
Ġform ula
ĠJSON Object
Ġ\ $
pos al
Rel ated
C ost
w all
ĠCON T
onym ous
r ing
Ġm form
Ġbl ue
P R
F ill
Ġrecip ient
Ġar c
E Object
Ġ'| '
ĠO f
Ġp eek
ee ded
S ARL
Ġdig it
Ġf c
Ġl aunch
Ġ12 8
Ġm ass
ĠIn sert
Ġex pressions
Ġreference d
Ġ1 7
Ġmin ute
ĠReturn ed
Content Type
T S
Ġis In
ĠI gnore
ĠNot ification
Sup er
t uple
Depend encies
Ġno qa
UM N
ĠState ment
plugin s
ĠF rame
Ġest im
ig gers
ĠA LL
Config s
Ġ4 0
ĠA uto
ĠF etch
t ax
N ote
Ġo m
ĠB l
S yntax
Ġt p
ĠR andom
With out
ĠEx pr
co e
fa st
ĠV is
cu it
Ġl dap
ĠAl so
' ve
w in
ĠD et
C over
AR D
ĠR ange
R PC
Ġget Index
Ġreplace d
F E
ĠE Object
As String
Ġnew Line
ĠPro duct
Ġexport s
Ġint val
Ver ify
ĠT LS
Ġcom press
Ġser vlet
eg ative
ĠcurrentTime Millis
py thon
Ġaccept s
M arshal
Ġpro jection
B order
E ntities
sel ected
Rout es
k ernel
Ġre cur
Org anization
artbe at
Re quire
Defin ed
s ym
s heet
component s
ĠgetS imple
Ġprovid es
Ġexplicit ly
Ġch rom
Ġsc opes
il ent
ĠM ode
pl i
ĠRes ources
Ġs cheduler
li de
Ġda emon
O ps
ph ab
s n
Track er
Ġscalar Node
Ġconvert To
i pt
ĠString s
ten ded
Fe ed
C ountry
Ġget Item
Ġappend s
Ġget Int
Ġmag ic
Ġstr toupper
6 9
B egin
ĠBig Decimal
al lowed
ĠEx tract
ced ure
Ġget Child
ĠCom pute
Ġresult ing
ss l
av ed
ĠT imestamp
ast ic
at ible
go ing
at able
Ġa verage
AME TER
ĠE mail
low er
D OM
Ġp df
Ġc rypto
Ġt ensor
unk nown
Ġtype Name
Ġinter p
ĠA N
Orig inal
Ġsec ure
([ ^
Ġstruct s
Relation ship
Ġlimit s
H ub
P riority
on ed
Cal led
Ġservice Callback
Ġinvok ed
I V
h istory
st er
Ġl anguages
ool s
ĠTrans l
Ġn c
sign ature
EN ER
Ġis N
C fg
Back ground
Ġput s
Pl atform
ĠWindow s
iv ile
5 8
Ġstream s
M M
Fl ush
Ġprepare d
Ġuc first
ĠO UT
Sec ond
D irection
As sert
Ġproper ly
Ġa udit
Ġin tern
UP DATE
Tem plates
en tries
Ġout side
Re ferences
print ln
Ġres cue
Ġcomb ined
Ġpr imitive
Ġan n
ĠĠĠĠĠĠĠĠĠĠĠĠĠĠĠĠ ĠĠĠĠĠ
Ġp p
S heet
en tr
Ġ3 1
Ġt ar
ĠE Class
ain ers
Access or
ex ample
Ġaw t
d et
Ġpred iction
ot ion
Work space
ic ates
on ce
Ġg e
ĠHTTP Method
al formed
Ġ[ "
ĠgetP r
Ġimplement ed
vel op
ĠV M
B asic
Ġr t
Ġpre pend
Ġun link
out il
Ġframe work
pr imary
Rout er
Ġm ux
Ġget Repository
Attr s
ĠSt andard
ĠH e
n ost
Ġdecl aration
S ig
all ery
ĠSt at
le et
ay s
Ġwh ose
Ġenc ounter
er ance
Ġp o
ĠC LI
Ġtrain ing
Ġphpcs File
Ġapp s
Ġb ulk
Ġdes ign
Th row
LI MIT
' );
7 8
Ġin f
Client Execution
Ġi x
ĠCon nect
O ther
dir s
Ġs cal
t imes
Ġk ub
ĠR PC
Ġiss ues
Ġget Base
pro gress
irr or
y per
Ġc ent
i j
Ġ2 56
Ġnd array
aug e
z ure
Ġad j
Ġbefore ClientExecution
Re plication
ĠA SC
Ġconcat en
Ġad vance
f d
' \
ĠE ach
Ġdet ected
En able
G N
Transform er
Ġde coder
E ven
Ġin verse
Ref resh
Ġlo ss
SH A
Ġcp u
Ġact or
F ollow
L eg
Ġf raction
Ġgrammar Access
Ġt l
Ġtransl ator
read cr
Th eme
St andard
Ġbas es
` .
user id
ĠIO Error
Ġp ip
ro t
Ġget Version
ĠG eometry
Ġesc aped
P erson
ĠC odes
ĠE NT
Ġs d
ĠV AR
Pre vious
M AP
Ġdepend ing
Ġr r
AD D
ĠC riteria
ANG E
ĠT AG
ĠCom plet
Ġtransform er
ĠSc an
S UB
Ġde ad
Ġcomplet ion
p g
" `
Read y
Writ es
B ASE
ĠSe quence
ation al
ĠR FC
pro tocol
Ġtry ing
Ġ' ['
wrap per
a u
ĠHTTP Path
escript ors
ĠUn it
F alse
J s
ic les
i us
Re ason
oun ce
ser vices
PAR AM
s ync
Pro du
Ġcomm un
ĠRE ST
Ġi outil
dis able
"" "
z en
Ġw g
ĠCont ains
Ġrec ent
Ġup grade
set up
Ġerr no
. \
ER Y
rop y
Ġexp anded
ĠInternal SARL
ĠD b
SER T
Per cent
Ġast ype
T OKEN
Ġnull able
ie ce
ĠService Future
Ġce il
c ookie
Not Exist
Ġrun ner
Ġdec rypt
s ures
Ġ"\ \
A SS
ifi able
Ġget Bytes
iz ers
Ġb ond
Sh ard
Ġl ive
Model s
Ġf oo
ĠR Unlock
Ġrequire ments
author ized
Ġbegin ning
match es
Ġhe alth
Mult iple
Ġmin or
olt ip
Find er
Ġn m
own er
ĠCall back
ĠF IL
ĠD ir
Ġc redential
Esc ape
C enter
c i
Ġs ess
at ory
Ġs izes
le ms
g able
ĠVER SION
p riority
et ween
Ġlink ed
Resol ve
Get ter
Ġw on
Ġse quences
os s
Set ter
Ġt enant
An gle
G ROUP
ĠgetA bsolute
Ġcomput ed
S caling
Ġb box
ĠnextPage Link
Ġsc ores
Ġcontain ers
IN K
s uffix
M er
Ġa ck
Ġre pr
d ump
iv ation
em bed
Work flow
Pan e
ĠI FC
ĠObject s
Ġprocess es
z e
ut ing
te gr
Ġg ive
ĠT O
Ġaccept ed
CA CHE
P lease
ĠAn not
Ġthe EObject
Ġl hs
Sh ape
m ove
tem plates
ĠN et
S ample
ĠRed is
C ATION
cle ar
Ġf q
ĠP ermission
ĠG lobal
ĠJAXB Element
Ġlex er
Ġto ols
For ward
Ġsub mission
Column Name
D en
U MENT
D etermine
Tag Name
UR N
c f
Err s
ĠOrder ed
allen ge
[ ]
Ġindic ates
Ġas List
R andom
\" "
Ġw ildcard
doc s
ĠOr g
Ġrot ate
? )
Ġre cursively
conn ected
secon d
ĠB undle
Ġis Assignable
R atio
alyt ics
Ġcollect or
Un supported
Condition s
X Y
ĠP ush
! !
ĠB ox
dim s
war ning
AR RAY
ĠVer ify
Ġgo ing
Ġpot ential
Ġv endor
Ġget Width
ĠM anager
con s
N ULL
Ġcom poser
ud get
ĠFI X
un nel
ĠS ymbol
Ġ9 0
-------- -
ĠDE LETE
Stat istics
R ot
Ġget Target
Ġv ery
H igh
Rel ative
User name
Ġs quare
Ġget Cache
b inary
P ending
Ġget Host
Ġr x
ĠY ANG
Com pare
t im
F ix
Ġlock ed
ĠDeploy ment
W T
Ġc ycle
ĠgetSimple Name
in st
P AT
ex it
ĠEn c
oot h
ĠM ember
Data Source
K NO
ĠP air
d eleted
Ġget Result
Ad ded
ĠZ ip
% '
C redential
re ce
O RE
ST ATUS
D N
ec es
Dim ension
w p
vis ible
ĠC ell
Spec ification
Ġsim ply
Ġpro x
Ġ) *
at tem
Ġtrans formation
Ġstd Class
e val
Ġ) )
Ġ' )
Ġb roker
Ġcert ain
QU I
S ources
k t
Ġl icense
ip pet
Ġs peed
A SC
P redicate
Ġget Start
a emon
} {
ex pr
Index es
D P
Ġ' ]'
0 7
5 3
Implement ed
rom pt
ĠTh ese
Ad resse
H ist
N ested
S ame
Ġterm inal
ĠNewErrParam Required
r u
Ġre ally
Ġdirect ive
Ġprob ably
Ġstart Time
Hash Map
ĠAtt ach
ĠM an
Ġcomb ine
ĠA ccept
ĠM OD
look up
ĠAuth entication
f mt
Ġsu c
ĠGLOBAL S
ĠAg ent
Ġf requency
ĠM sg
Ġh uman
Ġk ill
N ow
Ġre ached
ap sed
ĠD one
ĠD S
ugg est
Ġels if
Ġo bserv
dat aset
m o
H ome
valid ation
Ġrepresent s
ĠExec ution
vari ant
T eam
ĠPHP Excel
k it
ex pression
ĠSte p
p rice
Calcul ate
Fe atures
Ġc as
con sole
th reshold
process or
Ġget type
Ġis o
Ġconn ector
run ning
ver ify
ĠRe port
ain ed
Qual ified
ĠSet tings
Ġal ignment
av ascript
h ome
AT TRI
ffic ient
Ġr p
Ġcomm a
R M
ĠR Lock
Ġq s
B ACK
ĠT IME
Group Id
ME SSAGE
Ġex periment
M ount
ĠPr ivate
Ġsy scall
Block ing
QU AL
ĠD ATA
Ġenc ryption
I E
Ġms gs
d one
Ġres erved
Key word
Ġpl us
Ġoffset s
Ġt b
Ġde ps
Ġhy dr
Ġget ting
Ġ0 1
N ODE
Ġset default
ed ges
Ġgrid BagConstraints
s calar
4 6
ĠT ags
Ġde veloper
In clude
ur ther
SC A
St age
Ġout file
LOG GER
ĠS ocket
b ad
d uration
at ar
Ġres pect
Al loc
Sl ot
Ġw ww
h igh
in i
posit ories
ĠN ormal
Ġab stract
Ġoption ally
Ġp w
it ation
p a
Ġn av
Ind ices
Server Error
9 5
Ġn v
cre en
sib ly
D escribe
Ġcorrect ly
P K
at ives
al ette
Ġ" @
Hand les
ĠA v
D AP
Re po
re st
Ġo l
Ġan imation
ĠS C
Ġr trim
O FF
P ipeline
ve c
Ġd n
Ġstd in
Ġ"_ "
ĠR etrie
L ike
I ES
an e
os ity
Ġindex ed
O k
ig u
Ġset Type
gener ator
tr uct
Ġis file
b order
Ġh alf
Ġarray copy
ser ial
ID TH
b reak
Ġsub net
Ġacc umul
Ġd rag
andid ate
P olicies
Byte Array
Ġis Not
ĠP ool
og raph
orig inal
ĠI Atom
D om
ĠErrInvalid Params
ĠL ookup
Lo aded
ra c
exec ute
ch a
Ġhigh light
de cl
Ġprimary Key
Ġpag ination
Ġp ay
ic ator
Ġexcl uded
Ġmonth s
Check er
item ap
per cent
Trans ition
Ġle ave
i ag
Dis abled
Ġp ast
ĠS ql
Ġsession s
ĠAct ive
ĠD NS
Ġg c
St amp
ĠParam s
Ġcom parator
" );
r m
er n
Ġleg acy
E quals
ess aging
sec ure
De v
Ġloc ator
Rece ived
Ġsc ripts
et ency
4 8
C B
J B
cuss ion
Ġ- ----------------------------------------------------------------
ĠgetS el
Ġsanit ize
Ġcur ve
Custom er
Ġre fer
BU TE
Ġget Elements
Ġcheck NotNull
ĠCont rol
op ed
iol ation
Ġdata Type
Ġhist ogram
Ġget View
Ġcalcul ated
S ide
Ġ ur
Ġpr incipal
6 2
k b
AM P
Ġ{ @
Ġim ag
Map s
Ġlat itude
ase d
a e
phab et
H OST
Del ivery
Ġd l
ĠF ail
it ro
ex er
D L
Upper Case
Ġcomp ilation
ĠisAssignable From
os en
ĠFIL TER
set ting
Non Null
or er
Ġp olicies
Con tract
Ġth ree
Ġcompat ibility
Ex pressions
Ġget Url
Ġauth enticate
ĠD irectory
:// '
Conn ected
Ġcopy ing
Ġt or
war n
Ġsepar ated
Ġb and
Ġtransaction s
P H
Ġpar ses
PO INT
4 3
s Request
en gine
are st
Im ages
Find s
Ġpixel s
am ount
Ġexact ly
Ġc v
St mt
ĠEm pty
par s
C F
D r
ĠgetP age
Ġ8 0
Ġb roadcast
| \
ĠL I
ĠOutput Stream
Ġb ins
ĠM erge
Ġc ampaign
Lock ed
el ta
Ġcomp ressed
dist ance
ime Type
Ġs oft
d type
A cc
Ġget I
Ġ% (
Format s
ĠBack ground
{ }'
ĠF ORM
ĠAss oci
a cc
Ġ6 55
out ine
ĠEM PTY
Ġlocal s
step s
e ch
Http Request
TR AN
Ġcam el
SE CON
d etail
cl udes
cont act
c ategories
el lo
Ġget State
FF FF
Even ement
h olders
pe g
f ol
Dis tribution
Ġsepar ate
d ro
Ġatom s
Ġas ynchronous
ĠorderBy Comparator
s y
ap ply
Ġlog rus
t odo
O bser
Ġget L
re et
Ġy y
ĠH ow
nt il
D elet
Ġmut ex
G rant
Ġamazon aws
Ġretrie ves
u gs
uplic ate
Ġsl ash
Ġget Param
Ġsw ing
ĠCal culate
Sk ill
u ck
f ony
Ġs f
Ġsur face
Ġ2 1
7 3
P ixel
T uple
Ġc i
ĠR a
ĠM on
ĠAr t
ĠEvent s
} _
Ġen velope
Request Exception
Ġref s
Ġport s
Ġs ink
Ġw iki
Com ments
Ġl ight
A ST
Con s
ĠAt tributes
do uble
ĠE qual
Ġadd Class
Ġw raps
7 2
pe ated
v ey
ĠS ite
Ġst ores
Ġsc ene
Ġfil enames
ĠAssert ion
s cheme
and box
Ġexec utable
re pository
Ġget Decl
Query Builder
n n
Ġr f
coord s
ĠUn known
+ "
ĠĠĠĠĠĠĠĠĠĠĠĠ ĠĠ
ven ience
D T
c ountry
re v
B ook
it able
C OD
Ġadapt or
Ġun signed
Ġ'% '
} }
se udo
Ġtyp ed
ict ure
Cle ar
p ag
t i
Ġcache Key
Ġreal path
U TE
Ġex ponent
Ġim ported
Return Type
Ġline ar
Ġbase Path
L F
ar ante
Ġb p
ĠF uture
Ġl c
str ong
ĠSE LECT
ol es
Ġd m
channel s
vide o
se quent
Ġw orld
c ript
Ġpre ferred
Ġaccess Token
Man ifest
E st
P erm
un icode
IN TER
ip y
Command s
ĠCON FIG
Ġsub scribe
Ġe g
Ġ2 8
B rowser
Ġs r
Ġth umbnail
Ġ- ----
Ġinter sect
db c
Ġ'< '
D etermin
Ġup loaded
Z ip
j ango
up al
ref resh
Ġo cc
ĠA PP
W ITH
P ay
m achine
ĠValid ator
por ary
Pro b
Ġhook s
Ġcom pression
Pr incipal
f ree
b as
t as
Re view
Ġr df
T mp
Ġget Token
Ġ'' '
ĠReg ion
Ġprovid ers
ĠB ool
us age
Not ify
Ġbucket s
Ġmet av
Ġsh ut
5 01
cl usive
sub scribe
Ġ'@ '
bot tom
ed itor
Ġr ather
Ġinv oice
Ġs ites
Ġdatas ource
Ġk b
ĠA ST
asc ii
RO OT
M ouse
ĠF INE
r andom
Ġget Log
ĠInit ialize
` ,
Ġlong itude
From String
F ree
Ġpersist ent
Ġcode c
m i
Ġth ings
IN DEX
com pute
Ġis Trace
act ers
F amily
ĠT EXT
Ġip v
ĠTime Unit
= >
Ġnotification s
Ġn dim
With Http
Count s
Be havior
Comp iler
Ġpro f
b idden
cur sor
Start ed
Ġover lay
Ġclo sest
N ative
Ġr ing
6 5
ĠIn d
k ind
ĠSer ies
Number Of
$ '
Ġi e
Ġv ault
Ġw allet
com ments
inal ity
F ocus
ĠP assword
ET CH
ĠArgument Error
ab l
ĠM S
Ġperform ance
at ial
Ġset attr
Del ta
rel ated
Ġn u
ut ation
Ġhelp ers
ĠF S
ĠPre conditions
ĠSign ature
E AR
ĠMem ory
sc reen
Ġ( $
RA CE
WithHttp Info
s ince
Access Token
riend ly
Ġ1 80
Ġtax onomy
p ayment
Ġcol lap
Ġget Height
Ġn x
Ġjcas Type
V G
Inv ocation
Ġcop ied
s oft
qu ot
Ġf urther
Ġget Container
seg ment
b us
( %
Ġt ell
Ġset Default
dis abled
ĠOutput Interface
Ġx s
Ġsat isf
L ayers
Ġident ified
ound s
Ġget J
ĠIN FO
Ġre ach
iv ing
per ature
Ġdata store
Format Exception
Ġcompare To
at ter
FO UND
d p
Ġdate Time
sub mit
Ġquot ed
Ġred u
Ġg ap
com b
ĠCol lect
FF ER
im en
ĠSdk Internal
oc ial
Ġint Value
KNO WN
f amily
ĠI ss
ĠDis play
Ġqual ity
Lib rary
Connection s
ĠR ect
ref s
Y Y
Ġres triction
m gmt
LO SE
S cheme
Ġtick et
Ġh ad
Ġerror Message
eg ment
ĠCon sumer
Ġtr ies
Ġr type
re ction
Ġsim pl
Ġcar ry
A RE
ĠCon st
() ,
Ġadd Element
ĠDeprec ated
T ile
{ }"
e of
re lease
un der
back ground
Oper ations
CRE ATE
H idden
ph ere
IN VALID
Ġqual ified
9 0
Ġmark ed
ĠI SO
ĠS um
m any
ĠC ounter
ind ent
Vari ant
Ġn itro
ĠSdkInternal List
t wig
Ġh ierarchy
Run s
and as
ĠSh ould
Ġdefin ing
ĠRec ognition
pre pare
ogn ized
Ġrele vant
Ġ" )
Ġauth enticated
spec ial
ĠError s
t ables
re peat
ex ternal
ĠU s
Ġgener ation
D est
l on
Ġim pl
pro c
A bs
E E
Day s
ĠG eo
other lv
Ġs parse
Ġa ge
Ġbit map
Ġm aterial
Ġover flow
Ġget Properties
pro to
DE BUG
Ġcomp any
ĠD river
Ġa ux
it les
Next Token
Com posite
5 2
ĠD ial
ĠClass Loader
ĠHas Prefix
B lob
ass et
etri es
ĠMap ping
Perform s
M iddleware
Ġc mp
N ECT
P y
ĠUp load
Load Balancer
task s
Ġd up
An alysis
Ġprefix es
Ġpres erve
ig her
OB JECT
Cur ve
Ġreturn Type
ĠS m
Ġclean ed
Ġremov ing
C OR
ph rase
Al ready
Wh itespace
Target s
Ġset Status
Wh en
Ġch ang
ac cept
Ġr d
Ġextract ed
Ġut c
Ġg lyph
Ġl st
Ġtop ology
ĠN UM
av or
Ġblock ing
d raw
Part ial
run time
0000 00
trict ed
Ph one
4 2
Ġre tries
ag ma
M gr
$ /'
ĠI mp
ĠF in
Pro gram
ff ff
Plugin s
4 7
W alk
w b
Ġchild Node
Ġgr pc
Ġsub scriber
par k
ĠSTR ING
6 8
Ġlet ter
Ġnew line
ĠF low
Ġqu ad
Ġtog ether
ĠHttp Response
ak ed
Ġvis ibility
Ġdis connect
ĠUn ix
Ġpod s
Ġi r
ĠT ab
Ġaccount s
P adding
AC L
Ġpublish ed
Ġabs path
ext ensions
ay be
v olume
Ġcreate From
ĠgetAbsolute Path
Ġc x
Ġinv ocation
cr im
oper ator
6 1
s ys
ĠEx it
Ġadd Error
Ġbutton s
TIME OUT
I LED
ter min
ĉĉ ĉ
Ġnode Type
alyz e
Ġ|| =
u zz
W ARNING
Ġhy per
Ġn t
ĠTrans port
Ġoverr ides
Th an
Match ing
ĠMod ify
u ite
ĠP arent
l as
y aml
in c
M argin
Ġfind One
vid ence
Ġwatch er
on al
Ġt ip
ABLE D
Ġ/ =
Ġall Errs
aw n
in ux
Sh are
go ogle
Dig its
Em bed
ĠRecognition Exception
ug ht
ole c
arn ing
Ġorder ing
ĠGener al
ĠF ast
Ġresource Name
ĠM ongo
_ "
Ġqu ick
ĠlastIndex Of
fin ite
S m
Ġre versed
sp aces
ĠgetM in
Complet ed
ĠC or
cl es
cul ar
M AN
pend ing
ĠDe v
Ġfl ash
Ġinsert ed
sup er
Ġcl usters
ip ant
Dig est
L aunch
Ġ um
Ġ' }'
back up
Ġsend s
b uilder
ol r
comp iler
Sub net
Ġwh ite
ĠReflection Class
Fr ont
P ub
Ġp lease
Ġn a
AR K
em pts
Del egate
ĠS im
Ġpass ing
ĠUn ion
R Y
Ġperform ed
Qu eries
Un marshal
Valid ates
Ġget Locale
Ġfield Type
m etrics
p adding
6 7
z A
Ġg amma
Ġsort ing
Ġdir ty
Ġadd To
v h
Ġmod ifier
Ġf open
a uses
Ġdum my
sw itch
C M
per missions
Ġel apsed
[ "
Ġget Application
ĠErrCode Invalid
Ġnext Token
iss ues
Ġprop ag
re try
ĠAct ivity
mult iple
Ġv ocab
Pre ference
c mp
Ġd em
Ġstop ped
Ġspl ice
P ull
Ġder iv
Ġ0 0
Public Key
ĠUn icode
-------------------------------- ----------------
Ġcom posite
Ch o
ĠDo es
Ġsubmit ted
Go ogle
el oc
arm acy
ar ations
Ġset Timeout
ĠF printf
ĠCle an
n ers
s imple
Ġas pect
ĠUn expected
ĠgetId entifier
F LAG
Char set
act ivity
" .
Ġobser ver
Ġc apt
ĠCon sole
Ġtc p
i or
Ġar ange
Con st
ĠDeepCopy Into
sel ector
Ġbuff ers
ad ded
ĠC RE
Alias es
Ġf lip
l back
Ġp at
Ġ" ="
ĠAs ync
S ince
ĠSh ow
ĠCon f
B B
ĠEn able
L ead
Pro vision
ĠAnnot ate
G P
M Q
d ates
Ġto UpperCase
Initial izes
ĠLE FT
M LE
Ġprob lems
CONT ENT
Al pha
Ġwrit able
A ge
pro ps
te ction
Ġproto buf
ĠD ict
ĠTh en
Configuration s
is o
Ġskip ped
ĠInternal Xbase
Ġupd ating
ĠRout er
S ee
ĠH elper
Ġqu it
y es
ĠS l
Run ner
ĠChar Sequence
Ġvisit ed
ER R
Ġget Uri
c riteria
Ġiss uer
U ntil
ĠPh p
Ġo th
RE E
ĠLo op
ĠS ync
ĠB E
F ire
col ors
St yles
escri ptions
weight s
ĠWarn ing
e qual
ĠO B
Ġan cestor
Res p
Ġun expected
Ġattribute Name
C ast
ĠW atch
ench mark
Value Exception
Cover age
Ġm m
form s
Ġhigh est
im ension
ĠW ARNING
Ġtrack er
it ness
; \
writ ten
U CT
Ġi gn
Ġif ace
Ġm r
Ġun ix
tr ain
Ġschedule d
Ġpersist ence
ĠMatch er
quest ions
ĠPRO PERTY
Ġ č
ĠP ublish
Cl aim
Exec utes
g z
ed s
F act
ĠSt yle
Ġvert ical
C atalog
Ġp v
ĠA b
list s
Access Exception
ĠgetP l
ĠE lastic
Ġcheck point
ĠSH A
> >
ĠD ocker
Ġmodule Name
ens us
Ġrender ing
Ġis dir
ĠB O
Ġĉ ĠĠĠĠ
Ġident ify
Ġt re
Ġappe ar
Ġaccess or
Ġ'{ '
D ynamic
Ġd eletes
D A
L ook
a h
ĠN amed
ĠRe ce
Ġwork ers
Ġ[ %
li er
Ref lection
Base d
4 1
Ġsv g
Ġpres ence
Ġpath name
B ond
ro zen
ĠM enu
day s
d ot
s im
Ġmark up
Ġmigr ations
c ar
Ġm uch
Ġm illisec
Ġbase Url
PAR AMETER
Ġorient ation
ĠCom ment
> %
G eometry
Ġ'& '
ĠgetStatus Code
NON E
per mission
Th ere
Mod ifier
Ġt aken
Ġf un
Ġget Event
T A
Ġi b
u y
Ġupdater es
Ref s
iter ator
C ached
Pr imitive
ĠME SSAGE
o ch
Ġb racket
Ġaff ected
re verse
Ġb a
r atio
Ġin vert
Ġget Options
Ġ" ]
Ġget Line
ĠFIX ME
al loc
brevi ated
d irection
ĠC ategory
verr ides
Le af
d om
Ġf ooter
p us
Ġde com
Ġident ifiers
A m
M ock
Dis count
ĠT wig
ee per
Ġhash es
Ġ" ]"
sc an
Dir s
Ġevalu ation
ĠOf fset
Ġg uid
Ġcho ose
com pare
del ta
Ġg t
Ġfl d
Ġdb c
Ġproject Id
IM P
Ġn r
order ed
Ġoper and
Ġget Annotation
Ġget Length
ĠL anguage
S afe
og gle
ĠS SH
reg istry
SI B
Exist ing
oin s
b b
pl atform
up on
PRO PERTY
B ig
Num eric
S D
+ +
T LS
Cre ation
Ġf olders
ĠD irect
ler t
ĠRes olve
ĠT CP
ĠSub ject
B in
Ġdim s
Des er
ĠOrdered Dict
================================ ================================
Watch er
Ġencounter ed
Ġquery Params
ĠFI ELD
Ġurl encode
de g
erm ark
am el
ĠW ord
not ification
Ġstack Ptr
Ġpackage Name
Ġso ap
NUM BER
R anges
ĠM ove
Ġ4 8
Ġlocal Var
Ġneed le
Comp ile
Ġoccur s
Ġp ivot
us ing
ant ic
ĠRed irect
Ġex ceed
Ġĉĉĉĉ ĉ
) ?
Ġsecond ary
G HT
Ġ- --
Ġb id
Ġget Size
ĠUT C
ov ed
l p
ĠR etry
Ġtransl ated
Ġget Document
Ġdo ing
Pre v
View s
ĠFl ag
D Array
Ġis String
ra ce
ĠE VENT
Ġwindow s
Sl ug
Ġset Error
Ġget End
Spec ific
oc om
ass ets
ord ers
ph i
gra d
9 2
ON TH
Lif ecycle
Ġd u
Ġget By
ĠW ill
F R
f time
ĠI AM
ĠHttpServlet Request
Ġcont inu
Ġd p
k w
A c
ĠP df
M ac
b undle
Pointer Exception
back end
Ġprop Name
ĠL ayout
ent ities
Ġt ot
Ġc ron
char set
ĠT ri
pre v
ĠOS Error
at ermark
Ġg reen
st andard
Ġclass path
oj o
in ing
Error Exception
Ġinput Stream
lo gs
orig in
con d
act ivate
De ploy
Ġpos sibly
Ġme as
and atory
) );
Ġcon current
ĠExt ension
Ġremain der
W IDTH
ĠM anaged
ĠS UB
Remov ed
Ġactiv ation
Ġget Parameters
input s
ĠS napshot
() "
un t
Ġget List
ĠU ID
te am
Ġman ually
el em
# '
Ġcon versation
ĠIn et
ann ed
ĠS ym
Ġres id
Al ign
semb le
Ġvector s
in line
Ġsing ular
ge om
s ur
ĠNot Implemented
g i
De vices
Ġb i
M anaged
Ġar bit
COM P
Ġ' +'
Input s
Ġpartition s
custom er
con struct
ĠF ont
th rough
Ġattach ments
LE FT
Ġof fer
Ġst ud
Ex ceeded
Re v
ĠIN VALID
Num bers
Ġa f
Ġto day
ex c
im etype
ĠD own
ĠMET H
ON T
Ġtra verse
Ġf atal
Ġpe ers
V ideo
Sel f
Ġreg ions
b egin
Ġp ing
job s
oj i
S R
Ġ' ~
ĠS ection
inherit doc
w ind
Ġimport s
Ġoptional Args
Ġf v
ĠA CL
um bs
est ing
Ġalloc ate
k eep
pl us
ĠFl ags
Ġb ridge
PE C
mar gin
ĠNull PointerException
IC AL
ĠQ U
Ġf rag
ter ms
Att empts
Determin es
g ate
Ġt reat
Ġget Or
Ġh i
Ġkey id
plic able
ĠCle ar
Ġis Log
Ġtoken izer
work er
Call s
Ġis Directory
com es
Ġdomain s
or ical
end ers
ix in
Ġthrow able
aint ext
Ġrequire NonNull
Vis ibility
M ust
Ġproject s
Ġform s
ĠPre fix
################ ################
s ources
Ġt bl
Ġpre view
in ations
st and
ĠS creen
Ġ655 35
uff le
entic ator
a cl
ĠF ire
ĠMETH OD
im ize
Do es
A ware
P ag
ex clude
IT S
ĠGener ator
C D
m ore
in stances
Ġaggreg ation
at ten
Ġu a
ĠV ert
Ġpi eces
ĠS AX
version s
Ġon to
dig est
ĠX Path
transl ation
p ub
is k
ĠL ook
Ġsub class
T im
Ġ{ {
ĠN aN
Ġroot Node
Ġal ter
Ġget Attributes
ĠD raw
_ %
Ġf g
Ġapp Id
ĠInit ial
Ġsub scrib
Ġpar agraph
Ġopen ed
Ġlook s
Th ing
Ġmulti ply
ĠIndex Error
Rad ius
Ġun used
Ġnode List
Ġdet ach
Sw itch
ĠC ookie
ĠP redicate
RE SS
ad apter
ĠOR DER
i ated
par able
ĠgetF ull
ĠJ s
ĠCre ates
fr ont
f req
Ġ2 3
Det ection
Con sole
ĠAdd r
Ġdist inct
st yles
string s
Ġtransform ed
Ġgu arante
ser ies
ĠE lem
M igration
S o
Ġ'' ,
vis or
Ġ[ '
ĠD etermine
ĠM issing
ID R
Ġun register
Ġdata Source
ĠAuthor ization
Ġact ivate
Ġapp Name
En ter
RE T
p ay
ĠItem s
e f
Ġdid n
ar ily
pe ak
he ets
ĠBig Integer
Ġf ar
con st
af ka
ĠB ASE
Ġqu ant
ĠG L
ĠLog ging
ĠRun nable
AB EL
l if
Qu ote
TE MP
mon itor
ĠStatus Code
8 3
P ur
Ġmult ipart
ĠP op
Oper and
Ġvalid ated
Ġtr ust
Ġget Children
ĠCom mit
fol io
ĠE valu
Ġprocess Exception
Inter faces
env ironment
Ġinstant iate
C SS
Reg isters
fr ames
Ġac ross
TE GER
Inter ceptor
w ers
std out
ĠIn stall
Ġreg isters
ĠU sed
ĠLog ic
If Not
Ġ'{ $
QUI RED
S ibling
Ġgrad ient
b um
Ġap plies
Ġretrie ved
Ġpro j
te in
er vation
Ġd ry
Ġh orizontal
Stream s
Ġle ader
Ġgroup ed
sh ell
c n
Ġobj Writer
ĠSE SSION
pack ages
ĠNewErrParam Min
Ġtrunc ate
ĠP ass
N an
Ġinitial ization
ĠSh ared
e us
Ġget Configuration
Un defined
Ġp x
ĠOpen Cms
ĠCo ord
5 7
Ġget Component
Ġb rok
ĠgetS ec
a uss
ĠS ingle
il on
id ence
m ost
Ġg or
Ġg zip
' .
ĠId entifier
Quot a
` `
ĠA B
ĠM onth
Ġsession Id
D AY
ub y
Ġs ip
ri er
Ser ialize
Ġreplace All
app ens
N C
ĠCan cel
To ols
ol umes
sort ed
ĠResult s
Ġ^ =
Ġin strument
Ġwh o
Ġaltern ative
Ġkey base
Endpoint s
host name
ĠER R
Ġrh o
Decor ator
ĠS k
Ġsign er
present ation
ĠP RI
ĠR ET
ĠNext Token
A bsolute
R ing
ot h
ĠA rr
Ġdis cover
Sh ipping
Ġlik ely
ĠF atal
Ġint ent
UN I
now led
Ġder ived
Ġin jection
ĠCS V
Ġm oment
ST RA
Ġt uples
ID E
N s
Ġd ie
Ġdis card
Ġinter vals
CH EM
P red
12 8
Bot tom
Ġn avigation
2 55
l ayers
Encode d
LE VEL
Window s
Ġop ens
By TagName
ĠĠĠĠĠĠĠĠĠĠĠĠĠĠĠĠ ĠĠ
ĠClass NotFoundException
Ġs ilent
Ġstr ftime
Ġproduct s
Ġformat ting
ORM AL
Pair s
Den ied
Ġtrans pose
D ot
Ġread File
ĠURL s
id ing
P LA
an ity
Ġsub tract
D yn
sign al
Ġag g
p ers
ĠW rit
m ass
Ġ" __
ĠE l
Av ailability
D if
Ġmod ifiers
red it
Ġpop up
Vis it
r upt
ĠT eam
Res erved
St d
p ointer
Ġh older
LE AN
Ġ'/ ../
cip ient
im plement
Ġst ar
option al
B ootstrap
Ġset Id
Ġch osen
Ġget Y
ĠFORM AT
Ġdebug ging
Access ible
IG N
Ġdisplay ed
E VENT
Ġas array
Ġmov ed
Ġqu antity
ail f
Ġconfiguration s
Ġdepend ent
S n
T OP
ampl er
ĠCall able
Ġel astic
Or Update
Inv oice
hook s
Class ifiers
LO AT
\\ '
lip se
li k
FI L
igr ations
top ic
M ath
Ġh igher
Ġnew Builder
Ġm aking
Ġdat ab
Ġview port
Re cursive
ĠPro p
ĠST ART
Ġtog gle
C ategories
d est
Ġv e
Ġde al
To uch
to String
ĠDB Constants
ĠAs set
ĠI o
ĠInput Interface
Bind ings
ĠK eep
ph an
Ġhe ap
Send s
User Id
S yn
Ġbuild ing
Cell s
ĠS lice
ĠEn gine
Ġdel im
Url s
Ġsh adow
AT URE
L ATE
Of fer
m pl
Load ing
O b
Ġf ake
url s
Ġre comm
L ow
ol ver
pos es
Ġ} }
Token izer
9 6
r ift
ĠW eek
plic as
Ġannot ated
read er
[ :
ĠDep end
Ġac quire
part ition
Ġn at
Ġan im
eth eus
Ch oice
ir s
ph one
E P
ir th
re cursive
Sh ift
olec ule
b ank
ĠgetR aw
ĠS ome
Type Enum
Ġcon j
ĠCon stant
Add itional
Ġneighb or
L INK
Ġh appens
Exp ired
Ġreport s
el s
ĠL et
ĠL ib
file path
Ġa z
Ġsy mlink
TYPE S
ol oad
WOR K
Ġget Image
CE PTION
p icker
ot ype
L ANG
Ġi de
Clo sure
Ġp mag
Ġpre ced
bound s
Fin ished
m et
re ason
9 7
g lob
Ġchild Nodes
Ġs ensor
Ġrepresent ed
Channel s
AR CH
Calcul ates
Ġstart Index
st mt
d estination
IFI ER
Ġim plicit
5 1
ĠAg greg
Ġpro vision
One of
ĠD es
ac er
Process es
nb sp
o verride
Operation Exception
eloc ity
( .
od b
re ement
Ġspec s
Al ive
ittle Endian
or a
Ġsign ing
Ġs caling
Ġc ov
ĠW P
Ġ{} ,
ĠParse Exception
Callback s
er net
Ġc rc
i ator
Ġto do
UB LE
igu ous
Ġe NS
in f
Ġin fos
Ġloc ate
D ump
re ply
Ġrun e
Ġsu itable
process ing
ĠBuffered Reader
Ġinterp ret
ach ines
Cre ator
R ST
Ġb tn
ĠDis able
aren thes
chan ism
B uff
Ġro l
raw ler
v endor
Ġget Template
ĠRe quired
Ġsmall er
j b
pt ime
Ġset Content
ĠList ener
Ġdesc end
Ġoth ers
Al t
Dat aset
pk g
a i
Ġ2 6
Schedule d
Ġtimed elta
ur ator
() );
Ġindic ator
Ġrec v
Rel ations
s wer
tr igger
ĠP eer
UB LIC
pli ance
Pro viders
Ġtol erance
ĠS chedule
In stant
s chedule
Ġh a
sub class
ĠReg Exp
Ġman age
Ġquot es
ĠE Package
C ause
Ġj j
ĠM UST
arch ive
CHE CK
ĠLinked List
9 8
plot lib
ĠD estination
our ses
ĠU ri
T imes
Ġpro be
ĠD T
Ed ges
Ġmicro time
Ġbases tring
Ġb log
Ġph oto
Ġcomb ination
To o
Ġtra vers
sel ection
sub str
Ġmime Type
ĠRetrie ve
Ġb illing
ĠT otal
map s
Ġwait For
Ġget Date
ĠS cheme
RE AM
Ġden om
rout er
able Future
Ġkeys pace
Ġtm pl
b lob
function s
Check sum
ĠHow ever
Ġre view
As sets
ĠO vh
Ġpost Body
Ġfield Value
ight s
Ġ' ^
Conf lict
Ġa jax
Ġwh itelist
m ut
Ġbuild s
Configuration Exception
Ġre write
dis patch
D estroy
w eek
is ation
Comput es
u ent
ill a
ĠRE AD
Ġs amp
Ġuni q
f sp
ĠF ound
ag greg
ĠO ver
QU ERY
n itude
ĠgetS up
() )
ĠIM AGE
ernet es
Ġadd Attribute
Ġ'/ \
pect r
Ġfeed back
Ġg s
ic o
ST EM
Ġsc enario
Conversion Func
Ġind icate
Ġst uff
ĠCon straint
RE F
me asure
In st
Ġres ume
Ġpost s
ED IT
Record er
ĠDat aset
Ġx hr
Ġre qu
id entity
Ġdeg ree
Ġis New
Up grade
Dir ty
ĠgetT itle
encode d
Ġcheck Argument
SP ON
del ay
Ġpro d
ĠĠĠĠĠĠĠĠĠĠĠĠĠĠĠĠ ĠĠĠ
A SH
Ġw ave
Iter ation
Dim ensions
Ġ( {
In crement
Ġauthor ized
A WS
Ġm ongo
Ġimport ant
ĠInter val
Ġaw ay
ĠgetE Package
. $
ĠS egment
Col lect
O C
Ġt we
Ġp f
ĠG ra
J ar
se p
Ġsub sequent
An imation
par sed
Ġappro x
ĠRel ease
Ġtrace back
RA W
g iven
Ġun iform
Private Key
Ġno ise
l r
ib m
res olve
ov es
FER ENCE
PAT TERN
A udit
Ġget Un
ip v
str len
Ġcam era
, "
m time
Ġexp iry
sup press
Ġs ibling
ĠResult Set
Ġm a
Ġo ct
ĠM etrics
Cont ains
Ġio e
ĠS alt
ĠDe finition
Ġterm inate
Ġset Max
ĠM D
Ġbas is
ro utes
ax es
ĠPro du
ON LY
ĠUs age
Ġset Header
Ġfollow ed
Ġtrigger ed
En velope
dis k
Ġdial ect
y ml
o val
Var int
Register ed
et imes
In line
Ġadd Column
v l
ĠApi Exception
Rest ore
M AC
S y
Ġal phabet
Ġpr agma
.... ....
ch at
Ġpush Follow
er ical
Ġinter cept
PA SS
SCRI PT
ĠImp lement
C ir
ĠA F
De aler
Ġopen ing
depend ent
Ġp db
Ġm arshal
Ġnew ly
ĠD rop
rom e
ĠI E
Ġhttp Client
Ġdelet ion
R enders
ĠSt atic
Ġqu iet
ann ing
Ġdeg rees
D ictionary
p ressed
Dig it
Ex ample
Ġn ick
lo sing
Ġr id
ĠZ one
Ġnot es
EN SION
Ġs nap
Ġl trim
Ġlength s
ĠNot ify
curs ion
Ġtab s
Ġb t
ĠDe f
fo ot
Clo ser
ĠgetE Classifiers
Ġserver Name
conf irm
Func s
Ġincre ase
Cl one
ĠFile System
Ġis Object
t pl
Ġ0 7
Ġdepend s
? \
ĠB U
ĠG en
ĠSet up
Ġf m
Ġglob als
Ġnew Node
comp atible
Ġn g
ut ures
ĠgetB undle
Ġr strip
r gb
Ġf k
ĠP ER
- "
Ad just
vis ions
Ġun serialize
config s
d m
Ġbel ong
Extract or
Ġget Format
ĠM utable
Sh utdown
Author ity
asc ade
DE SC
Ġwidget s
Ġsc ipy
Text ure
De epCopy
Inv oke
t ure
Ġ" *"
ĠF LAG
AR G
Ġlar ger
s sh
E LEMENT
ri ent
ĠG UI
Ġoptim ize
ĠPro gress
ĠProto buf
Ġs it
st ar
ĠT itle
Loc ations
V R
AR GET
ccur acy
COL OR
inherit Doc
Ġex amples
ob s
Ġmillisec onds
ĠF ETCH
Ġshort cut
can cel
For ce
M anagement
Ġexpect s
Ġoverr idden
crim inator
Ġfe at
Ġneighb ors
Ġm oodle
pro cessed
Ġca ption
Ġd h
Code c
COL UMN
ĠPos ition
ĠRO OT
Ġc od
Ġb alance
Ġun wrap
Ġ201 7
ĠWork er
Ġplan e
read able
Ġsplit s
ĠCon s
ĠgetS ite
Ġcontrol s
m x
Position s
ĠGener ated
Ġgu ard
E ST
ĠUP DATE
Ġs af
Ġdis covery
Ġget V
CON NECT
Sl ash
ĠgetElements ByTagName
8 7
ĠgetP ort
depend encies
Ġf t
an izations
Ġst roke
key word
r aries
Ġe ig
Ġrecover y
M aintenance
hand lers
Mod ify
Obser ver
ĠP ersistent
trib uted
ĠCom pare
dig it
Ġhead ing
ĠEx port
Ġcor ner
ĠgetD escription
d st
Ġf aces
Ġp n
Ġsh util
eg a
Ġget Output
Ġmem o
Ġ'{ }
ĠTra ck
R ound
S id
ic ient
Ġget N
Ġj wt
Ġconsist ent
Ġbe havi
match ed
L AN
W ide
Ġh its
Ġord ers
Ġarbit rary
Ġf ine
ĠgetPro ject
Ġbel ongs
Ġfac et
ĠI F
Ġstr ide
Ġinspect s
Ġgra b
Ġf a
ĠgetS chema
c wd
Ġg ather
mt p
Cre ating
Ġtrack ing
Ġbo ard
Call er
Ġcalcul ation
ĠOper ator
Resol ution
Ġf close
comp ile
ENT ITY
D AT
ĠW idget
par sers
Ġget Long
ch ant
Port s
Ġest imate
Ġdatas ets
err er
vent ion
ĠE XT
anag ers
ĠPack et
ĠSer ve
cest ors
ĠY AML
Sub scriber
ant ics
ific ant
Ġpro t
RE MO
Ġand Where
Pre view
******************************** ********************************
FIL TER
g ateway
ĠC ODE
S K
T P
ĠC K
ĠM PS
SCRI PTION
ĠL at
Ġfind All
Ġc map
Fac et
Ġclass Loader
Ġcondition al
Ġd ed
/ $
o z
Ġ"\ ""
Ġold Value
mark er
* .
ĠOr ig
Ġpe ak
8 2
Ġs g
Ġp iece
Ġav g
Ġget Namespace
LIC ATION
MLE lement
Ġth umb
ue print
Ġdel eg
ĠgetM etadata
init ialize
Ġen er
cal culate
ch es
Ġdefin es
ĠgetD o
ne ighb
log ging
gener ated
v nd
Ġadd Content
s napshot
Ġdat atype
m is
Ġm g
ĠF ailed
Ġi tr
Cont ainers
ĠNew Reader
mag ic
9 3
o sed
le e
Ġto Blocking
ĠC raft
sub scription
SPON SE
Ġget Num
ĠgetD b
, '
ĠIn stant
Ġvari ous
NO RE
Ġindic ating
B roker
Ġset Time
Ġcover age
ĠRest ore
oins pection
Ġperform s
ĠC ap
Ġ2 2
Ġun ders
Start s
Ġtop ics
ĠFiles ystem
ĠNotImplemented Error
Config ure
Sign al
Ġpopul ation
MS G
Ġduplic ates
7 1
b rowser
et ter
Ġj Query
Ġevent Type
ĠPer form
Ġb ank
P AGE
ent ially
Ġget Form
ir med
bl ack
Out Of
Ġfull Path
RO W
P e
ĠCms Exception
am era
Ġ[ {}
ass ert
D um
Ġis Function
Ġus ually
iter als
E DEFAULT
Ġget Label
Complet ion
Ġcrit ical
Ġassert ion
std err
j avascript
Ġpro g
Request ed
OR TED
t w
Ġpro ceed
h ide
F ROM
it o
Ġget Module
Ġsh ipping
e q
s r
def ine
ir ing
Par sed
Marshal er
ĠValue Of
SI GN
G L
Ġs z
ĠgetD atabase
Pk g
index es
Act ual
Ġtimestamp s
Pattern s
Conf irm
Ġfac ade
OFF SET
Ġ) ;
Ġz z
Ġexec uting
pen ded
umul ative
N A
ur er
Ġ' >
An not
ĠS VG
ra dius
Ġfor um
velop ment
ĠNewErrParamMin Len
K ernel
se parator
ĠH elp
ĠAt tr
9 4
pos ure
F leet
M ARY
` '
Ġg log
n ets
Ġman ual
ĠInv ocation
im pl
FA CE
Ġinteg r
BU FFER
Ġ$ _
h at
ut ype
oun tries
Ġpre f
ĠImport Error
C ach
Ġm ot
ĠL ength
ĠgetM eta
ĠUser name
ih ood
Ġf ew
Ġiter ations
h int
el ihood
Ġreal m
ĠP ayload
ĠTr igger
ĠDec imal
Rece ive
B asket
E K
S ink
ĠP K
Com b
ĠX XX
fl ush
Ġprob ability
Ġin correct
Un available
Ġpriv ile
Ġre plication
Term inal
Ġquery String
Sc anner
uff icient
Ġget Headers
Ġjav ascript
ĠEd ge
R GB
ject or
**** **
Ġfilter ing
ĠHandler Func
w alk
ag ed
pl aces
fo o
ĠEx ternal
Fl ash
Inv ok
CHEM A
IN SERT
ĠPro file
target s
o i
Ġcomp ound
Ġconcaten ate
Ġget Tag
ĠWork flow
Ġvol umes
pr iv
im als
ER S
NAME SPACE
ver bose
ĠR ound
Ġsu ite
M ag
i ro
Ġt i
Ġs us
Ġth ough
UR ATION
ĠNew Request
ĠisLog gable
Ġbind Value
ĠG ateway
IL D
Ġdetermin ed
Ġasc ii
ĠA CTION
LE S
Ġyear s
nost ic
PA Y
por ation
ĠINT ER
Ġsever al
Ġcach ing
el low
RE SOURCE
Ġop code
help ers
ĠgetPr imary
Ġg id
Ġb am
Ġun marshal
Ġprodu ce
B LOCK
Ġg v
ĠS P
Ph ase
u ation
Ġb undles
TT L
s q
ap ps
D ao
Ġreplace ments
in x
M on
Exception s
ĠCon structor
Ġr ng
Ġz ap
request s
\' '
act iv
Ġgen es
Ġselector s
Pack ages
Ġsever ity
On Error
Ġtext ure
Rem aining
Ġ" ;"
Ġne arest
ĠKey s
Mut ex
Ġcompilation Context
ĠTo Lower
ĠIter ate
OP EN
% %
b log
Ġset C
ar p
ext methods
ĠP UT
Ġext methods
Ġbuffer ed
Dyn Class
cp u
Ġeffect ive
N eeded
B racket
sv g
Call able
et o
Check ed
ang er
Ex tended
ĠD ATE
Ġcomp ose
Initial ized
Ġattrib s
attach ment
al ive
Ġend ing
ĠST ACK
IL LI
Ġparam Name
O Auth
ĠWrap f
complet ion
Ġspec ifies
UT C
ĠN S
ĠD r
ĠS ample
arg est
In tegr
b am
Ġget Task
Ġe DataType
art icle
Ġapi Client
pack et
Ġbranch es
ĠS pl
ĠCP Definition
ĠSt ats
ĠVar i
h ist
AN N
Aggreg ate
Ġt rees
Ġ2 04
Ġclient Id
B as
an notation
om ial
Z oom
Ġc riterion
Ġrelationship s
r ank
u j
Ġrecur se
p ick
con c
Ġsign als
ĠgetP ackage
Ġnode Id
Sur face
a udio
ĠR GB
ĠSet s
over flow
ĠLogic Exception
ĠTrans form
pre vious
state ment
ĠS yntax
Ġex ported
ĠTrans former
Ġemit ter
inal g
Ġmac ro
K eep
T akes
Ġhas More
Ġare n
Ġurl lib
Ġrep orter
R C
ĠS ORT
Ġra ised
Pl ot
Ġdeser ial
semb ly
Al ignment
Ġpk t
Ġwebs ocket
COD ING
ER T
G it
it ted
ĠM ail
Ġget Server
Ġmod ification
pair s
P ipe
i ra
Re covery
ĠP AGE
ĠOUT PUT
ĠF ake
ĠDis patch
ĠAtom ic
C at
Ġpre ference
g re
y dr
Ġs ampling
ĠByteArray OutputStream
char acter
Ġverb osity
Ġn ic
ch art
Ġdel imit
for ward
Ġm aint
ĠL ittleEndian
ip ment
cho ice
igr ate
g reen
Ġel t
ĠP erson
sh ared
Primary Key
ĠFFDC Filter
associ ate
Ġw f
ĠD AY
am il
OR IZ
Ġparent Id
Ġattr Name
Ġfetch By
t yped
Ġrem ember
Ġinvalid ate
host s
n av
Ġf old
Ġlist ing
ĠList s
d if
Ġt id
Ġfor Name
ĠJson Object
Ġ' ..
Ġwh y
pre ter
Char acters
part ial
D NS
l ings
Ġis S
An chor
ain ter
AN S
EL DS
SECON DS
ĠisTrace On
n r
er al
=" %
c ir
Ġth rott
ATTRI BUTE
a head
Ġr l
Ġgroup Name
Sub mit
ĠNot Null
Ġpercent age
Ġvis ual
ĠFl ush
FA CT
rel ative
Over lay
ra ise
Ġpath info
Ġsub s
Ġ3 00
Ġvalid ators
}' "
s To
C op
m q
ĠU sing
pr ing
fa c
Ġph ysical
Fin ish
ĠAdd Generated
Ġinitial izes
Def ine
mar ies
Ġear ly
R pc
he el
Ġdet ection
cal endar
Ġmeta Data
in y
Ġnew Array
Ġk s
Ġis File
Ġpass es
section s
vis it
ĠHE ADER
post s
Security Group
d estroy
Ġout bound
00 1
Qu estion
Method Name
Fe at
Ġpur ge
ĠAddGenerated ConversionFunc
Res triction
ĠW OR
ĠBe fore
T erms
Ġget Record
Ġauthor ity
Ġds n
WR ITE
ĠD ig
N V
Ġt gt
Ġd ic
Ġmix in
V iolation
Ġh c
Tem porary
CL U
c redentials
Ex change
ĠA DD
Ġnot ice
ĠContent Type
ĠF ull
li ps
ANG UL
ĠL if
ĠisN aN
m ouse
To Array
ov y
Prefix es
FO RE
TERN AL
ĠSel ector
M ASK
ĠH O
0000 0
UST OM
ĠStd err
Ġblack list
T wo
exist ing
M AND
PA RE
ĠR ol
Start ing
ĠPI PE
Rule Call
t ar
Al tern
Ġfail ures
vari ance
Ġp ause
ib ration
Com merce
for um
ĠS U
ft p
D rag
M is
as ing
Type Id
Ġim mutable
Ġtw ig
v t
Ġsl ave
ĠBack end
er es
ĠA D
Sort ed
Ġget env
ĠM ODE
Ġadd Field
p ixel
ĠLog in
ĠHe alth
4 04
Ġ" |
n ed
Optional Parameter
C nt
Ġget Group
Ġtr iggers
OL DER
Ġmark ers
Ġaddr s
ĠComplet ableFuture
m ime
ĠConfig ure
Ġang ular
} `
ĠContainer Builder
ĠA zure
op le
attem pt
Pl ay
pl orer
tick s
ĠASC II
Ġh ack
ĠP R
key words
Ġfl ux
Ġstr ong
I CE
ul ator
pro du
cal led
L U
Ġp ress
ic ated
AT IC
ĠCal led
Ġin place
Ġcre ator
File System
NE CTION
Pol ygon
Ġpro files
ĠTop ic
M aterial
Ġm andatory
resol ved
M ATCH
ĠĠĠĠĠĠĠĠĠĠĠĠĠĠĠĠ ĠĠĠĠĠĠĠĠĠĠĠĠ
Ġdel iver
Ins n
en us
al ert
ul ated
Ġcurrent Thread
arb on
is ode
Ġm anagement
war ded
Ġver ification
UT O
ĠL T
dim ension
ĠA ut
ĠPl atform
Step s
Ġre connect
Ġentity Manager
Ġl ab
pro t
Ġs low
Ġ' !
Ġl inalg
ĠgetClass Name
ĠIss ue
l a
res ponses
Ph p
F ace
Ġd ashboard
D uplicate
Ġre use
ar c
ĠN ONE
ĠB ootstrap
B etween
Ġcheck box
Ġj ump
Ġapi Key
Ġget Row
ĠU S
Ġinitial Value
EX IST
} ]
P ress
Ġar y
Ġfind all
Ġ\" "
IT ER
Ġrect angle
OL D
RI GHT
c art
Ġ# ##
Ġstart up
ING LE
D ead
u fact
Ġserial ization
exception s
ĠBack up
g ene
p p
Ġget From
ivile ged
8 1
b ins
Ġle ase
Util ities
Ġget Api
() '
o a
Ġdouble Value
k top
S cheduler
Ġp ix
web pack
ĠA lias
Ġ'$ '
Ġextr as
Ġre jected
ere g
Date Format
Dis able
de cor
ĠGet s
Ġm aked
Ġ" }"
ec ause
D ial
u a
o ole
Ġadd EventListener
ĠFor ce
u int
Ġh ub
Ġquery set
Ġdescrib ed
f iler
Http Client
Ġprivate Key
Ġque ues
b tn
Ġport al
ĠIllegal AccessException
S ym
Ġget Block
qu ared
read s
ĠJava Script
P ersistent
ĠFile InputStream
cre ase
AA AA
C andidate
Con sum
Ġsub scriptions
Ser vers
s izes
Ġto oltip
ĠL DAP
Ġpl aintext
Dis covery
ĠOP EN
Ġc type
ĠC ert
ĠN ODE
S izes
Set Name
K nown
m ust
Ġlocal Name
CR Y
" ]
j ar
A ck
Ġen sures
Ġext ent
Ġmut ation
CLI ENT
N arrow
cho ices
p u
z a
ĠgetT imestamp
Bound ary
Ġhand shake
Ġcoe ff
SE C
Ab breviated
vi ct
Ġf write
Mod ifiers
Runtime Exception
Ġget Argument
ĠPublic Key
ht a
Prop ag
Ġv lan
Ġclaim s
f ragment
Ġsm ooth
ĠS uccess
ĠgetDecl ared
Ġget Active
q q
format s
ĠSI ZE
Ġvalid ates
FA ILED
f w
con straints
Ġtab let
v lan
IT LE
ĠgetS c
Ġ" `
Ġget Order
St ub
Ġsplit ext
TT ER
Ġalloc ated
om ation
ĠgetS e
ĠRE G
Ġlow est
s yn
In struction
99 9
T yped
EN V
m ing
Ex pect
Ġal g
get ter
Ġsc r
Ġbl k
ĠDepend ency
U id
File Info
ĠgetTable Name
Ġexec utes
LL ABLE
w ik
se m
Ġse ems
oun ded
V ault
ĠResponse Interface
Ġb ias
ĠgetC an
Del imiter
Ġap plicable
ins pect
pod s
Ġ] ]
Error Code
" .'
ĠS M
ep och
content object
check box
Ġindent ation
sm all
Bounds Exception
S ender
ĠP ayment
Ġread line
Mult ipart
L ambda
ĠM achine
QU O
Exp iration
os a
RE ST
Ġet ree
ĠSign al
sc roll
Ġassum ed
Qu antity
por al
Ġp andas
ĠS K
In jection
Ġinteg ration
D er
ĠP atch
AT TR
Ġshould n
Ġrecip ients
ĠOrg anization
Ġis Enabled
ĠA C
Ġr sp
L T
Ġapi Version
Ġmodel Name
Ap pro
Match Set
an ent
ĠO pt
ĠSIG N
Ġ& =
Ġdat um
Ġexcl usive
Writ able
M y
Ġf aster
Ġarray Node
Ġuser Name
Read Only
er as
ĠAssertion Error
L D
le af
filter ed
ĠOrder By
Ins pect
H ierarchy
Ġget Collection
ynam o
Sp aces
Ġinherit ed
Ġerror Code
ĠChar set
Det ect
ĠSY LLABLE
lib rary
Ġ' //
Ġpublic Key
auss ian
Ġadd Listener
Ġid le
Aggreg ation
ĠCH AR
h our
Ġs ib
ĠAss ign
Ġra di
level s
IF Y
im s
Ġsuper class
Qu art
ĠNumber FormatException
Validation Error
pre view
warn ings
ch ase
Int ent
Ġprom etheus
el se
ĠF OR
ĠU sers
Ġinter mediate
bl ank
ĠL ayer
pr ise
Ġjoin ed
Ġf ingerprint
Ġgroup ing
Ġobser ved
gu ide
Ġr tn
PE D
W ildcard
Ġsh op
." ""
b a
f un
Ġth ird
Ġp alette
L ight
ĠSp an
S SE
Ġpro cedure
ĠSub scription
tot ime
PLA CE
V ED
Com m
Ġdis count
el is
ĠF ix
Produ cer
Ġp em
Ġd ensity
elet on
OK IE
VI EW
Ġ- ----------------
Ġadd Select
Pl ayer
Pr inter
Ġplace holders
Ġmaked irs
Ġ ing
Ġmethod Builder
ĠCP U
Ġnot ation
Ġol der
ĠE JB
ĠHead ers
ab ric
per m
im ap
ans ion
Ġlong est
mb olic
Ġapplication s
ĠOB JECT
Ġ[ [
Ġresult Set
Ġslot s
Ġdata frame
); "
Host s
readcr umb
* \
Ġser ve
Ġ` `
ĠWh ere
P in
f ire
s ites
Ġ- ---------
Res ize
Form al
Ġaltern ate
R T
Ġf resh
{ {
Ġsh own
Ġhttp Request
L AT
ĠP Y
ST AMP
Spec ial
MOD ULE
I llegal
N ER
Ġret Val
un til
ob ser
COM MENT
m arshall
p res
Ġhtml Options
clo sed
TEMP LATE
ĠMedia Type
h ance
ĠD ynamic
Ġsynchron ous
pe er
Ġas n
On ce
Ġoper ators
____ ____
dro ols
ill ar
ĠSE CON
author ization
Ġfilter By
Ġcon crete
Ġpath To
Res ponses
Ġx x
Bit map
N N
Ġl r
Ġch ron
ren ces
Ġauthor ize
Ġcollect ed
P ACK
lo pe
Transl ator
Ġque ued
Leg acy
P res
normal ize
p ower
TT ING
Level s
Act iv
Byte Buffer
res p
M et
Ġrout ine
Ġd raft
Ġconfig File
apt cha
A CTION
Of Week
fail ure
C UMENT
Q ue
un ded
ol ation
Ġmean ing
Ġsup press
az ard
gener al
Ġback off
base d
du plic
Ġeps ilon
di ag
C li
h i
Ġget Filter
ĠF aces
Ar ch
Ġco erce
Exp and
ĠC ipher
Ġread Line
Ġar row
== =
User Agent
Ġto List
ENT ER
ĠTrans fer
END ING
ĠB ound
Ġobject Name
Ġreg ard
Ġt au
Ġstr totime
ME M
dir name
inter sect
RES ULT
ĠT imer
Ġap ache
Ġ4 5
auth entication
Sign ed
output s
b alance
Transl ations
cont ains
W HERE
Client s
Ġsplit lines
Ġxml ns
frame work
Ġscal ed
F ast
n om
v o
Ġsub type
ĠPl ural
ME lement
red is
Ġdecl arations
Ġpres et
Ġx range
Ġtrans ient
con structor
Ġapp ended
Ġup on
FA IL
exp and
Ġinteg ers
Sign ing
ĠNotFound Exception
ĠNe ed
Ġwrite Attribute
Ġdiv ide
Ġqual ifier
L ive
ĠWeek day
er ver
Ġ12 7
arb age
j a
r ink
Ġre plica
not ify
Ġproperty Value
ĠProp el
ex pect
ĠIN DArray
ew rite
ĠM ag
bs ite
ffic ients
Qualified Name
H AND
Ġr i
DE FIN
Ġstop s
Ġtrim med
a its
loc ations
Ġget Input
format ter
F allback
ang les
f lip
Ġget Atom
Ġcap abilities
Ġ3 60
ĠgetRe al
ĠBuffered Image
T ail
ĠD AT
Ġon line
check s
ĠTrim Space
O LEAN
] |
b g
Internal ServerError
C apture
M aker
Ġget Extension
Ġan alyze
ge o
Pre ferences
Cont inue
line ar
Ġvari ance
df s
Ġmod es
ĠSh ape
v irtual
is or
Ġ' ;
ct ype
position s
ĠG O
Ġsl ices
Ġa a
Ġsav ing
Ġconsum ed
Ġd w
ĠLabel s
Ġ36 00
O ccur
c ost
At trib
Ġlower case
en rol
Ġcon cept
Ġcont rollers
Ġcom e
Ġrequire ment
b uilt
se ed
Ġw r
Ġfinal ize
ĠX A
de ploy
Ġerr Msg
Ġsend Request
Ġcourse id
Ġans wers
9 1
Failed Exception
C trl
ĠOn ce
Place ment
ĠINT O
OPTION S
Ġl p
Ġfull Name
ĠIN DEX
SER VICE
El se
Ġex ceeded
fix ed
Ġ` %
exp ires
F s
Ġbe h
class Name
ĠG ray
Ġarg parse
* )
ĠS oft
Ġsol ve
ot os
Con d
Ġsw agger
( (
t cd
Ġf rac
ĠHttpServlet Response
G eo
cal c
Ġprodu ction
Pro files
al one
Ġ" ("
Ġcreate Ifc
Ġp seudo
Ġin fer
Ġpack ed
Ġn om
HE AD
Ġmembers hip
ado op
Ġ201 5
E lastic
ic ol
Ġmeasure ment
Ġy es
ĠTh at
Fac ade
S oft
Ġis Present
Ġcir cle
Ġv iol
REG EX
Ġget Action
Re cursively
Ġset Request
sc ape
E ffect
P id
p erson
Ġst ock
row se
ĠV olt
5 00
ĠB ut
~~ ~~
Ġlif etime
Pol y
zz le
Ġcheck er
Ġsp in
Ġdist ances
ĠRE QUEST
Ġth us
Ġd v
thread s
G ame
und ler
red uce
Ġmov ing
uggest ions
Ġv ote
im ator
Ġtag ged
Ġwebs ite
Ġp do
de vices
I X
ĠD i
Ġinstruction s
pe ech
ĠP OS
En sure
Tree Node
an cy
Ġfor k
Ġgener ating
Ġn or
Ġan alys
Ġk e
ĠA re
Sw ap
Ġc ertificates
Ġsc oped
spec ific
U AGE
ĠJ ust
m ysql
Ġ{ "
Ġident ical
Ġf ault
Ġel m
Ġs ay
Ġre peated
Ġcred s
Ġcach es
B A
def s
Ġfile Info
Ġpr inter
ĠPl an
ĠVert ex
t imer
Ġm iss
ic ast
pon ds
tt l
abs olute
Ġset Parent
ph em
call s
ing leton
Ġsh uffle
Ġra ster
il ine
Ġback ward
rient ation
W H
Ġd ash
SS H
Ġsp awn
Ġbe come
Ġinitial izer
d ated
Y LE
ers hip
Ġdefault Case
book s
Ġt iles
ĠB utton
Col ors
feed back
Ġstart Date
rad ient
Ġp aint
ens ors
Ġpl aces
ĠCONT ENT
RO P
ines is
Gener al
w ares
ay stack
par ing
ĠIN IT
ma j
dec imal
U D
u als
Ġset Current
( {
ĠS cale
Method Call
Ġcap ability
Det ector
Ġm imetype
ĠV I
Ġstruct ures
ĠPart ition
N av
er ate
To Many
Ġpar a
Ġcor relation
em es
ĠC ase
parent s
Ġplace ment
Ġprodu cer
I SO
er c
Ġg ate
Ġget Fields
Ġint ended
publish ed
B IN
N il
el ess
ĠF ac
Ġ100 00
ĠS cheduler
Ġq name
Ġc k
ĠF older
Form ation
Ġinter active
Ġinsert ion
Comp any
d escriptor
Ġm ol
sc ores
ĠK ub
ĠOpen Layers
man age
Ġget Array
Ġindex er
Ġop acity
ĠruleX Expression
Ġbounding box
Ġ% .
Ġpack ets
comp etency
Track ing
Writ ten
Ġmed ian
c oin
} )"
Ġmin us
0000 0000
R a
Re verse
ĠR ULE
ĠT im
ĠRE SOURCE
Ġget New
ver ity
Doc s
Ġcipher text
EX CEPTION
Ġ201 6
r ices
Ġf x
Ġl ng
Ġentity Class
A f
Ġentity Type
ĠCO UNT
ĠP DF
Sc opes
FILE S
Ġh s
Ġ' ]
ĠIn clude
ud ing
IT EM
Ġord inal
I ABLE
Ġq r
fl ib
Ġpag er
Ġ': :'
ĠPol ygon
is ions
FI ELDS
sub mission
ĠResponse Body
run t
l icense
p ur
Ex clude
time zone
" \
B S
M ARK
ĠT w
Ġlib kb
Ġauto Convert
Ġevalu ated
ĠPer iod
P aint
Ġobtain ed
Ġs lide
Se ed
Rol lback
Ġunc om
D escriptors
E OF
ĠRe cursive
pos sible
Ġlast Modified
Ġprint f
DO WN
S ys
Ġest abl
D raft
re pr
ar ound
ed is
Ġaccess ible
A udio
Ġl ittle
Ġobj s
boot strap
Ġb son
Ġbe comes
Ġby ref
Array s
Ġback wards
P M
b est
d ialog
Ġc ob
Ġ2 7
ĠCoord inate
ĠT RACE
Ġlog out
ĠgetC ustom
Ġmark down
ĠSw ap
Ġ ey
ĠM ain
ĠB lob
DB Cluster
al gorithm
ĠZ ero
Ident ifiers
an alysis
ĠV al
Ġtool bar
f name
Ġpre ferences
ĠGP B
b and
Ġindex Name
Ġf b
Ġm ess
Ġl argest
list ener
ĠCl one
ĠATT R
ocom plete
r ich
Ġget Definition
Or Empty
Ġs ense
To Remove
ĠH eight
Ġad s
Limit s
Ġadj ac
Ġchang ing
P ersist
IN I
Ġsub tree
fore ign
IP v
Ġsol ver
Ġperiod s
SU CCESS
Ġeas y
cal cul
ĠException s
Ġasync io
Ġs chemas
wh ich
Ġsubstit ution
ĠT HE
Ġremove All
Ġutil ity
Ġin p
ĠA UTH
Ġsp ans
Ġf our
Resol ved
andid ates
Com plex
EXT ENSION
Ġc ity
Ġb tc
to a
^ ^
ĠL ambda
Ġv c
An alyzer
Im g
ĠL azy
ĠData Source
Ġfetch ed
Ġsnapshot s
Extract s
Ġf rozen
Ġh ot
Ph rase
aj ax
Ġs al
ĠM AP
ĠDe ferred
Ġfetch All
Transl ate
ĠType Of
Ġrelative Path
C N
Ġget Pre
ĠD escriptor
non ce
cal ed
ĠSer vices
scri pts
ĠSER VICE
Ġprefix ed
ĠAl loc
ĠgetT otal
ĠMod ifier
Ġstream ing
Sec ure
ĠgetB oolean
Ġre action
Ġm i
seg ments
entr al
ĠUnexpected ValueException
Ġget Ifc
Ġst and
Ġtem perature
C W
M ULT
t yp
st ub
ĠA c
th row
Ġen queue
Ġinterpol ation
Ġib m
E QUAL
ol o
Ġpublish er
Ġget Command
ail y
D aemon
ro ovy
Ġme chanism
Files ystem
}/ {
} </
ĠAtt empt
et e
urn ame
ĠS S
Map ped
st age
Ġwrite To
Ġ'. /
Ġcap ital
relation ship
Hist ogram
ĠS IMP
Ġroot s
sl ash
Ġrepl aces
readcr umbs
< ?
Ġre wind
Ġf unct
Ġm n
Ġout come
b ut
Ġb asket
ĠN EW
Ġset Enabled
Ġlist ed
pro gram
Ġspec ies
can not
C r
ol ved
ĠPh one
Ġcred it
Ġsuc ceed
Ġget Language
Ġ2 9
ĠĠĠĠĠĠĠĠĠĠĠĠĠĠĠĠ ĠĠĠĠĠĠĠĠĠ
ĠN E
Ġout going
not es
DE F
spec imen
co res
\ -
ap pro
ĠD Matrix
col l
$ "
L anguages
ĠP an
Error Response
ĠRE S
rec ognized
NE W
R F
IN IT
ĠJ vm
Ġcontent Object
Document s
Ġhe artbeat
special chars
R ank
q s
in el
Ġtr ied
Ġener gy
ct l
Ġm l
ĠgetC ause
Ġbrok en
Ġnum Rows
Ġvari ants
12 3
Ġcir cuit
= {}
Ġm tx
ut s
ab u
ĠFile OutputStream
ĠIN PUT
Red uce
O ID
e cho
Ġset State
Ġch allenge
Ġdetermin es
Ġtr ial
ĠDis k
Rece iver
ĠCre ated
ar i
Ġuint ptr
Iss ue
Sh adow
Menu Item
O VER
ass ignment
Attach ments
Ġforeign Key
Ġintern ally
STRA INT
ĠD om
Ġadd Option
Ġwrite String
Pl ural
ĠV ec
el og
Can vas
ĠComp iler
s at
re ach
ĠA udit
ular ity
ĠSel ection
Gu est
k dir
Ġen force
ĠRe quire
M u
CA LE
ĠW R
n ested
Ġb w
Ġle d
place holder
Ġstrip os
. ,
V ec
AT IVE
Ġdelet ing
t z
L B
ĠgetS ystem
Ġ'{ {
. )
A W
C ATE
Ġj ournal
d en
Ġtick s
Un iform
Per Page
C art
ar l
ĠD iff
ĠR ight
Ġmod al
\\ \\
pare n
Rel oad
local host
Ġsm arty
Ġsn ippet
LE N
ĠGu ide
ufact urer
ext ends
ĠCh unk
ĠPl ace
Ġ' ?
Ġget Job
ĠR ate
Ġ0 6
Ġcl oned
h ouse
Ap plies
Ġt k
Ġg sub
ĠJ C
ĠDo ctrine
Ġ"{ }"
M irror
un ing
ĠD imension
ren gth
t or
Ġfollow s
Ġassum es
Min imum
[ $
w iki
Ġph rase
Ġlock s
Parse Exception
ime os
trans port
Min utes
Ġgu est
ĠL IM
n u
ĠD aemon
ick y
Par allel
re vision
ep s
ĠDown load
ĠR T
avig ator
c ers
ĠMethod s
Delet ion
Ġfrom Response
Ġoptim izer
Ġprediction s
Ġb old
Ġim pro
Ġchain s
Direct ories
Ġobject ive
Property Name
ĠCheck s
ĠGrid BagConstraints
ĠM ount
ang ular
ĠCur rency
Ġint ro
ST IN
ANN EL
Ġmodel Class
Ġoccur rence
O verrides
c nt
Ġin ventory
From File
gra des
Coord s
Ġdefault dict
ized Type
Ġ"# "
---- --
Ġfind s
Ġar ia
Ġchar Code
p in
s a
Ġiter ating
Ġhydr ate
t ail
ĠI G
Ġfall through
Ġfast a
B illing
s pl
l iteral
Ġres trict
Ġtra cer
ĠCh ron
Mark up
B ulk
war m
Ġport let
Ġpur pose
ĠCommon Tree
in formation
Ġf riendly
Ġst em
vi e
F K
Ġget As
Ġint errupt
ĠAr chive
St ores
Ġgroup by
Ġ4 09
ĠId ent
Enc rypt
p ot
Ġget Alias
ĠRe vision
Ġaut os
ĠUtil ity
ĠR IGHT
Ġtrans itions
Ġestim ated
m id
sh ould
Ind icator
tax onomy
E qu
TO COL
F FIX
ist ance
ĠExec utor
: .
il led
In f
Ġh el
## #
And Set
ĠService Callback
ĠWeb Socket
Bl ack
Ġinterpol ate
ĠgetSh ort
Ġm time
Ġ3 3
Ġbus iness
ĠLI KE
Ġredu ced
ĠE val
os er
ĠgetP ersistence
Ġbatch es
ĠValidation Error
cons ist
V als
Ġc oin
tr an
ĠUnsupported OperationException
H S
Link ed
Ġes lint
) /
ud a
dat as
Ġtr usted
Names paces
CON TEXT
P ersistence
DB C
ĠDef ine
S em
=\" "
Ġmigr ate
n amed
Ġb ag
ĠB us
Ġ3 5
Ġ'" >'
Ġinstall ation
P icker
ĠM IME
Ġmask ed
Ġgroup By
Result Set
Ġcounter s
Ġcop ies
sig ma
Ġend Date
An swer
AC CESS
Ġ= ~
Ġv i
Pl us
EDIT OR
$ /
C riterion
L icense
g ot
Ġhtml specialchars
plot s
G ate
Ġ) =>
ĠM ac
ĠError Code
ĠEx pected
Sh ell
rows ers
Ġ'.. '
Ġget Reference
P rom
R S
window s
initial ized
ĠA W
AB ASE
con sumer
Ġc rypt
Ġa mb
Thread s
s pect
Ġin form
Ġan onymous
Ġpre p
Ġgu i
S amples
b asic
g c
n oinspection
vi ation
ĠH ist
Ġget Route
ĠC ir
Ġe i
Ġun supported
Ġpar s
Un set
Ġassoci ate
chedul ing
Ġnew Name
Sup plier
ĠA CCESS
Ġpre fer
Ġquot a
n egative
Ġsp acing
ĠV PC
sup port
Construct s
Ġprox ies
ĠRect angle
M ed
b i
he alth
chem es
UT ION
ĠJ MS
Ġcs r
S UP
ĠM tas
ĠSet ting
Ġtemp file
NotFound Error
address es
ĠCRE ATE
C ycle
Ġs x
Ġget Params
Ġst ation
De g
writ es
b el
Ġwrite File
ĠSym fony
ĠT ool
Re porter
Un signed
Ġ4 4
ĠImmutable List
Ġpr une
fast a
= $
D EN
m u
A lert
with out
Ġstrip ped
ACT IVE
d um
ĠM anagement
00 01
ĠLog Level
Ġclo ser
Direct ive
ra f
ER O
Local es
ĠM alformed
Ġget Location
connection s
defin itions
Ġiter tools
callback s
pattern s
ĠL inux
ĠLIM IT
M ime
Ġfull name
Comp at
Ġget cwd
pectr um
p rompt
ĠC N
Ġgener ators
ĠC md
ĠCont act
ĠI toa
By ID
() :
Ġm gr
Ġg row
Ġg auge
Ġcol on
Ġet cd
ĠLe ft
Ġto ByteArray
Ġmod ul
IN STANCE
Ġhas n
Ġweb hook
Product s
Ġo c
ĠL ang
Im ports
ĠStruct ure
Null able
ĠgetCan onical
Ġf its
un ity
ĠC arbon
ĠP riority
ID ENT
L exer
Ġin bound
con stants
ĠCom parator
Pl ain
Ġgor outine
ad just
ĠF r
con straint
gorith ms
Option Value
ĠRepository Exception
Hint s
O G
S aves
Vert ices
o y
at ypes
Ġhash Code
Help ers
ll um
č Ġĉĉ
Ġne ar
Ġpick le
ĠP i
ĠP ersistence
Ġpre c
Ġcut off
C LOSE
s olution
Ġget Offset
Ġpage Size
mod ifiable
ĠNot hing
Ġtl f
T ake
b n
Ġbucket Name
L C
Ġav ailability
=' "
Ġp ts
Request Interface
Ġprocess ors
ĠEn coding
t own
ĠField Item
Bad Request
es ian
Ġv v
com put
Wh ite
Ġtyp ing
ĠSpec ial
o ct
Ġm obile
iz ard
Ġch mod
ĠRe plication
CA SE
Ġf flib
Ġre act
Ġa ffect
Ġre build
Ġ- ------------------------------------------------
Ġh mac
ĠT ensor
Bus iness
ĠE LEMENT
Ġcurrent Node
ĠList en
vid es
Ġ` '
RO L
reg or
Coord inates
C ampaign
H our
In Progress
inst alled
ĠFail ure
d x
Ġ3 4
TE X
fl ash
Ġman ip
Ġhint s
A jax
Ġf id
Ġclo ses
Ġcmd s
Members hip
ĠIn st
let ter
I B
el eg
Ġ/ >'
ĠM aster
Run e
Ġget Controller
ĠCon tract
transl ations
ĠSTACK TOP
b c
Ġesc ap
ĠP ub
LI SH
Ġmag nitude
V C
---- -
Ġany way
Mod ification
Evalu ation
p ull
ĠR SA
Ġjoin s
ĠFrame work
ĠCOL UMN
am odel
ĠS ip
Em itter
ĠVALUE S
c id
d ashboard
ĠM P
Ġal location
Hash Set
Ver ification
Ġmis match
ĠMy SQL
ĠgetOr Create
Ġf tp
ing Box
Ġl t
ans wer
ĠĠĠĠĠĠĠĠĠĠĠĠĠĠĠĠ ĠĠĠĠĠĠĠ
ĠArray Helper
Ġoff line
Ġ questions
Ġt ap
Ġun able
Ġput All
DI S
G lob
Ġget Values
cal er
anit ize
Coord inate
c url
Ġup stream
' ;
a ption
Ġp ers
Ġon Error
Ġlog p
AL LOW
Ġrad io
Ġv pc
Ġaccumul ator
Ġser v
Ġstatus es
Ġtra it
bar s
IFI ED
Ġupdateres ource
Ġt v
Ġget Variable
Ġinstance Value
Ġmin ion
ĠB order
Ġthere fore
fin ished
Max imum
Ġlist dir
Ġuser Data
ĠMult iple
Ġis Set
Pro cessed
De precated
Col l
ĠInvalid Argument
Ġca ught
A cl
ĠR DF
gener ic
Ġsmall est
M F
Ġf path
ĠMe asure
L ABEL
Ġs ugg
Ġde coding
vi ded
Ġdown loaded
lat est
Ġpropag ate
m gr
Ġcon venience
ĠEn coder
Ġj vm
Ġ( {}
Ġlo st
ĠRe ason
Field Value
EN ABLED
Ġt a
Ġincl usive
] ]
Ġkey Name
String Util
Session s
ogn ito
cap ability
n an
ĠM ILLI
Ġcopy Of
Ab ort
F ore
Ġ" ?"
List Item
Pos sible
Ne ighb
I LE
Ġi c
Ġservice Locator
Ġinter action
project s
truct ure
CO OKIE
Ġk ube
ĠPro gram
S uite
ĠT ick
ĠLinked HashMap
Ġ( ?
Ġstart Element
ĠEx tra
ĠJSON Array
Ġlimit ed
ut ors
Ġlocal ized
SP LAY
ĠUN KNOWN
ĠArgument s
Z ones
ĠW ITH
yn omial
IM AGE
Quart ier
Ġtw ice
h ow
m n
Ġcon trib
User Segment
Ġassign ments
Non ce
ith m
vance d
Tick et
complet ed
H it
M icro
Ġpan e
ĠSup port
Hook s
Implement ation
Ġworks heet
r d
Ġg allery
EM PTY
Ġ"[ "
Ġcollap se
qu ential
Ġline Number
ereg ister
ul ary
Ġcheck State
ĠCom parable
W rong
n ative
Ġ" ;
Ġtr an
Est imate
S calar
us r
AT ER
Ġmax Length
prec ation
Ġexcl udes
P ure
R oom
an alyzer
ĠIn f
Start Time
Ġapply ing
ST ORE
Tri es
S N
map ped
Ġet ag
R etries
ĠgetP art
Ġgra ce
Ġvt k
d ocker
Ġm olecule
Ġin ferred
Qu ick
Ġspecify ing
A sc
Ġ{ '
Ġmark et
Iter able
ĠCA CHE
W ill
ĠP ipeline
Ġtoken ize
Reg Exp
ĠgetC l
sl ashes
Data Set
Ġunders core
Ġset Accessible
ĠG ENER
Ġtransform s
Ġx p
Ġwrite Int
ĠgetF e
Ġflat Map
e in
Ġre pos
ĠSerial izable
Q Name
c ies
ĠF UNCTION
B ridge
Ġvalue Type
ST REAM
Ġpur poses
Ġ201 4
Ġbook mark
Ġget App
Cl usters
Buff ers
Ġg runt
Frame work
ĠCustom er
Ġradi ans
it ors
Config File
Ġsm art
ĠFile NotFoundException
Ġpol ling
ĠCommand Execution
Ġd jango
Ġparse Float
Ġblue print
x s
Ġal ive
Field Type
Ad apt
ĠSort ed
BY TES
Prob lem
t ensor
Ġal arm
Ġvar Name
wh en
F raction
ĠH ook
Ġsize of
Ġfind ing
Ġnormal ization
ĠgetT op
C ALL
Ġread Int
ĠRe act
Parent s
is ing
ĠD ay
Ġstr r
Ġsession ID
Part itions
account s
gl ish
Ġget Stream
Re presentation
ĠH ere
ip edia
Cont rollers
Ġ6 3
Ġweight ed
qu eries
fin ish
Ġ eth
ĠSt mt
Ġn ice
Ġle arning
Ġedit able
Ġpag inator
ASC II
5 12
c rop
el ect
Ġloc ally
ĠField Location
" ></
Ġt aking
Ġh aystack
Ġchar ge
Ġblock Size
ov ing
Ġlet ters
Host name
Pop up
ĠMS G
} ."
Ġ" +
OD Y
en k
Ġfor get
Ġx min
to i
ĠFile Utils
L n
Ġa data
Ġget Owner
lo sed
PASS WORD
A ff
To Add
F ooter
P ower
Tx n
Ġa Data
ĠT ile
ĠGet env
Ġper ms
Ġdec rypted
Ġannot ate
ĠDet ect
G I
e ach
unc ate
Ġvalid ity
Ġloc ated
C MS
ĠP O
Ġclass ification
Ġear lier
Ġt y
Ġget FileName
Ġver ified
B o
Ġinter ceptor
Addr s
Ġset Description
ĠP erm
Ġnode Value
work flow
Ġdecor ated
Ġb md
Ġend Index
ph en
Ġstyles heet
Ġf requ
Ġ1 01
ĠP REG
ph armacy
Ġcor pus
Ġdet ector
spec ified
Ġg f
ad j
Offset s
alias es
r p
ĠT yped
Id le
pol l
Encoding Exception
Ġb d
ĠP ay
ĠG ROUP
Ġget Storage
Key Value
Gener ation
Ġatt ack
ĠCol lector
Ġjob Id
ĠCOM P
S PEC
an a
-------- ---
Ġ5 6
num bers
Ġforce d
Ġobserv ation
Ġget Display
Ġcheck For
Output s
Ġpointer s
un shift
Ġend Time
Class ifier
Ġfloat ing
ĠCON TEXT
Ġmove To
ĠEnum eration
F requency
trans fer
e ffect
Ġd fs
); '
Ġcert s
s peed
Ġi ps
fo x
M X
Ġo bservable
Ġget W
Ġdirect ives
Ġte ch
Ġadd Body
ĠW E
Ġcreate QueryBuilder
iss ue
Ġpage Num
Ġnetwork s
Ġround ing
lap sed
Ġs un
im a
Perform ed
C ATED
T CP
Ġmat plotlib
ĠPrepare d
ĠisNot Empty
Ġlisten ing
C ipher
V pc
i ded
ĠT okens
ĠE mb
Ġal go
Ġback trace
uzz y
E val
g if
Ġadd Header
ens es
Ġ5 12
bas ename
Ġ ub
Ġand roid
ash ed
ĠD esc
Ġover all
STR UCT
pan el
Ġre cursion
ĠJ WT
map per
ĠLo ader
ĠLine ar
ĠIAtom Container
f ocus
ro om
st one
Ġcheck out
Ġcancel led
Ġset S
transl ate
Opt im
b ias
} }'
Ġtrack s
Ġmov es
Ġpot entially
nost ics
B alance
L etter
Ġalign ed
Ġadjust ed
C ross
M ONTH
U i
] \
ĠW AF
cy cle
Ġin fl
str ict
ĠCur sor
O PER
Z IP
m c
Ġr ating
Ġraw url
Ġcorres ponds
Ġcob ra
g ame
Ġn f
Ġroot Path
ĠY aml
ph ase
Add ing
Par sing
Ġtree Builder
ĠField Descriptor
Rout ing
ĠSw itch
fil led
Ġ orm
Ġcurrent User
Account s
Ġdrop down
ĠStd out
Ġtre ated
Ġz ones
Ġasc ending
ĠOrderBy Comparator
Ġr st
Ġcom ps
De ep
Un authorized
With Annotations
Ġassoci ative
ĠAR G
Formal Parameter
Ġfrom Array
Key Name
Ġtem pl
Calcul ation
G ENER
re store
ĠO bser
Ġrepl acing
ĠCollect ors
Ġh om
add itional
que ez
Ġgo es
Ġmark s
Ġreason s
G ap
b ig
Ġn od
ro u
IN TERNAL
OR S
Ġdefine Property
ĠAssoci ate
Abs ent
Ġre ported
ĠL ONG
Cap abilities
ĠFe ed
c ov
Ġ( (
Ġx max
Http Exception
ĠPrivate Key
maj or
S UM
Ġsort By
ĠArt ifact
} -
ĠM aybe
Ġhow ever
([ \
C lock
ĠT EM
Ġch dir
ĠV ideo
Ġextract or
Rot ation
RET URN
C IDR
v irt
Ġf ee
ĠN odes
Place holder
n l
Ġ? '
Status Code
And Get
ĠATT RI
d id
l anguages
Ġd ont
) |
g ap
Ġh t
" ><
Ġrequest Params
Ġ4 01
call point
ĠE S
ind er
cl one
ĠMOD ULE
D iag
ĠS pace
ĠS afe
Ġk p
ĠPro vision
Ġtick er
Ġm ul
ĠData Set
g uid
Ġst ale
out er
ĠHttp Request
exp ire
ĠPrint Writer
o gs
ĠB LOCK
Base Url
Ġloop s
ĠT TL
s aved
Ġbase Dir
ud ience
sp acing
bl ue
comb ine
Exceeded Exception
to uch
an ode
ĠM onitor
Ġx i
Ġo mit
de precated
Ġb anner
ĠB EL
f requency
Ġcl auses
ĠEx tended
lar ge
Ġdead line
O rientation
Ġc w
Ġprint ed
ĠHand lers
ynamo DB
K it
Ġe ver
Ġfiles ize
Work sheet
IO Exception
g res
c ertificate
Ġset Title
Ġresource Type
Notification s
Ne ed
A IT
Ġst able
Ġan no
ĠA toi
Ġfunction Name
Ġ'\ '
Ġca uses
il le
ĠG ame
resol ver
T ITLE
X Path
Ġg m
Int errupt
Ġterm inated
Ġb enchmark
Ġinner HTML
C AT
ĠJ VM
Condition al
C ertificates
Ġstring To
ĠgetC ur
Ġg z
ex cept
ĠM ut
Ġx a
Key Id
av g
AD DR
ĠCan not
Type Exception
By Type
Tr ust
_ {
ĠAPP LICATION
Key words
ĠgetP ost
Read able
uc ene
ar ter
Ġget Manager
Ġget Count
code Coverage
Ġview er
Ġass essment
ĠDefault s
ĠJson Response
c lip
Ġv a
Ch at
Ġz k
OPTION AL
q p
ĠgetS ign
e valu
ĠCom put
reg istration
Ġflatten ed
Ġpreced ence
B est
D ocker
et c
Ġfunction ality
Ġsign ificant
ĠAl ways
ĠRef resh
domain s
86 01
codeCoverage Ignore
Ġra ises
Ġper f
Dis card
Transaction s
Ġmail box
Ġpartic ipant
T ip
Ġs ound
Ġget Auth
ĠF ill
Ġ? >
sl ot
Ġskip ping
Ġdecl are
Web hook
olt age
E nt
Ġf oot
Ġj id
n c
z ones
ĠS N
ĠString Util
Ġaccept able
istr ator
ĠWith Error
HO ME
Ġget Style
Ġset Option
Ġpar sers
Ġremove Child
Insert s
Ġd escriptors
In herit
IN TEGER
ĠInet Address
F it
S ensitive
Ġa e
Re plica
ĠO w
Ġform Data
Propag ation
Ġget Columns
PRE SSION
ĠBig Endian
Ġcoe fficients
Ġshut it
B and
P OL
S CHEMA
ĠL exer
U AL
ĠFile Info
A U
ĠAd apter
ĠLoad Balancer
c ity
p f
Ġhash ed
Ġbas eline
Ġconnect ing
or n
ĠM AC
ser vers
PE M
Ġpersist ed
irm ware
Ġ eta
Ġset Allowed
g g
Ġi l
Ġemail s
L ar
T IES
de cess
com plex
12 7
Render ing
ĠgetLocal ized
ĠAb ort
Ġp en
ic ipant
ra ct
Ġr val
Ġstr ipe
Ġra ft
limit s
' d
C s
Ġbehavi our
ĠC HE
ĠT OKEN
ok ed
Success ful
stit ution
Ġget Is
Atom s
Ġann ounce
ĠNormal ize
ĠLif ecycle
Ġl bl
and ra
Ġctx t
Th rough
Fetch es
P ORTED
ul p
ĠCon struct
Qu otes
ĠSer ialize
Check ing
Ġgr p
Ġconfirm ation
Ġconsist ency
e qu
ate ver
//////////////////////////////// ////////////////////////////////
N avigation
Ġw ish
Ġu v
Ġexecute Query
Dat as
CRY PT
s ame
s yntax
Sh ould
Ġw c
om ething
ĠC ould
ext end
Ġpro tein
ens ive
Ġdr ive
st amp
SY STEM
amil ies
P al
Ġo Db
Ġan cestors
ĠB egin
Ġadd Property
Un ion
ĠDE SC
register ed
ĠGraph QL
ouch er
geom etry
Ġ{ !
Ex act
ĠCms StringUtil
:// "
Ġcomm its
iction aries
N eg
ĠC ard
ĠP open
ĠL INE
ateg orical
U Int
f uture
ing u
writ ing
Ġcompany Id
OutOf BoundsException
en ger
ar o
Ser ve
und ing
ĠgetClass Loader
re ferences
Ġm orph
Ġset Level
Ġbox es
man ifest
ĠPag inator
attem pts
Ġ<< <
(.* )
j pg
er ialize
ass andra
Ġset User
ĠSAX Exception
ĠSe q
ĠTab let
et y
Sc ene
ĠCms Object
Struct ural
ĠInv oke
render er
un used
Ġn w
Ġw atermark
LA ST
Ġcard inality
Normal ize
Ġis Blank
Ġe fficient
Ġdata Provider
con stant
Ġun typed
Ġro bot
hand led
Button s
Failure Exception
nowled ge
ĠC li
ĠL iteral
Ġ4 03
ld ap
ĠAn notations
ĠWork space
ĠgetI ts
Ġign oring
Ġexceed s
b rid
t oggle
Ġ" >
Ġindex ing
Com poser
PER TIES
Red is
inv oke
A x
al ignment
ĠA P
ĠR ED
Ġlist By
ĠgetC ms
sl t
ĠHTTP Error
Ġcomplet ely
Price List
ĠT L
sh are
E Enum
Ġmult ip
vis ibility
j peg
Ġget InputStream
Ġcal lee
Ġpad ded
priv acy
V ATE
Ġst amp
De ps
Check point
" ;
\ $
ew idth
ĠC LOSE
Ġadd Parameter
__ "
stat istics
M ixin
Ġn args
Ġget Position
ux io
L azy
R ob
c os
Ġs dk
Ġre plic
ĠAr g
Exp ires
Ġconflict s
[ %
Ġw d
Ġelement Name
auth enticated
Hash es
+ )\
H orizontal
m icro
Ġrequest Id
ĠCommandExecution Error
L P
re p
ic i
ĠA T
** *
ĠP ur
Ġsup ply
======== ====
Ġfast path
Ġestim ator
Ġc um
Ġcon str
CH ANGE
Ġassoci ations
ĠFilter s
Ġp ng
ĠRe v
Filter ed
Fail ures
ur um
Ġe vidence
th eta
Ġim mediate
LI B
F req
Ġp itch
Ġwas n
ĠPr imitive
Ver bose
Ġfact ors
pred ict
enk ins
ĠM at
Ġauth ors
Be ans
be an
CON F
Account Name
ĠBl ueprint
ar er
Ġcomp etency
Ġref errer
Ġca iro
Single Page
ĠWrit able
L ab
d ynamic
RE SPONSE
77 7
regor ian
p ipeline
Ġnext Element
Method Exception
CE PT
ĠQuery Builder
icon s
Bucket s
n eg
ard ware
Ġ"\ \"
D i
in er
ex tr
Ġr g
Ġdoc string
ĠDe veloper
Tra ining
DB Instance
ierarch ical
r anges
Ġre positories
im p
lo ut
M akes
Ġcom es
onom er
t ec
w ire
ĠD iag
Ġconvert ing
S B
] :
Ġtr iple
ht able
Hand shake
Ġin flux
Ġblock ed
prec ision
Ġrespon sible
' ."
Ġall ele
Ġbyte array
Ġrecomm ended
De fs
RO LL
ĠK ernel
Ġlet s
as er
In c
By Key
start ed
Ġb ed
Ġtarget Class
ĠEmb ed
ĠCHE CK
u tr
el ines
Ġin file
oc used
Grant ed
G ra
V oice
il s
Ġis Error
ĠCom plete
Execution Exception
ĠUnmarshal JSON
ass oc
'] }
re trie
Ġcon ver
ĠC redentials
ĠF R
ĠUn ique
ĠEnc ryption
ĠScreen Constants
t ip
at trib
Ġl w
Ġget Resources
Ġw or
Pro posal
Ġconfig urable
Account Id
HE IGHT
tl c
b ulk
Ar c
Comp atible
Ġset String
Ġpro of
St roke
Ġrec ogn
Ġdec ision
Ġ9 9
Ġappe ars
A K
c ampaign
Ġ' *
ĠPro b
Ġdrop ped
Ġsecret s
Ġun modifiable
Ġrel path
Ġattribute Value
Cl azz
RE FERENCE
B L
Ġp q
Ġex posure
Reg exp
Ġclass ifier
ĠHtml Tree
N orm
P DO
x C
t os
Ġs itemap
Ġc tr
are house
ĠLO CK
ĠgetF ilename
Exp iry
Ġn aming
ĠE ither
MT P
phem eral
E poch
L ONG
V S
f ollow
i om
ĠL aunch
Ġsc atter
enc ms
? ?
Z end
ĠObject Meta
Ġsav es
Test s
ivers al
queez e
c ross
pro g
Un der
Ġfrag ments
Ġe e
Pure Xbase
H dr
g ines
l ambda
Ġg w
State ments
Ġis subclass
get s
ĠEn abled
F ee
L ER
Ġs udo
an notations
Ġan imate
EN CODING
Ġsp i
IL ITY
Ġ" >"
col lect
ĠTra vers
Enc rypted
Ġa i
Ġfield name
ener ate
aring Class
c atch
ĠA CT
Ġrun nable
EM AIL
VALID ATE
Ret ention
X text
Ġv ers
chunk s
Ġsib lings
Ġt itles
An n
ren cies
Ġgen ome
Ġfig size
ĠWarning f
Ġp as
Con venience
Hand ling
Ġwrap ping
upd ates
Ġopens sl
Ġp ri
com press
Ġ6 00
Ġpro posal
ĠI p
Valid ID
If Absent
ĠGroup s
ĠgetRequest Context
Syntax Exception
Ġin complete
Ġdis cussion
Ġexpand user
Ġnote book
Ġre li
Ġp wd
Ġm w
Ġlanguage Code
foot er
l ename
ast e
tern et
ard s
ĠCom posite
Init ializer
Ġl strip
ĠErr No
Ġlib raries
Ġelem s
SinglePage Async
ĠW H
Ġsh apes
UN KNOWN
ta hta
wh ite
Ġmedia Type
cell s
ĠMark er
Ġin C
Ġget ID
Ġadd Action
ĠR S
Last Modified
llum inate
Ġm f
List en
OR ITY
Ġis Column
RE SH
Ġsim ulation
Ġtyp ically
L ex
Ġm av
Ġg ives
Ġend ian
Ġdat atypes
Ġvari ation
IM AL
Ġder ive
ĠBit map
Ġresid ue
or ient
Ġv elocity
ĠCon verter
Ġport ion
cer n
Ġrs a
p ipe
am ent
ic ing
Ġe ol
ib er
Ġmax Size
WE B
Ġxy z
ĠRET URN
P ers
[ @
Ġnew s
cl aim
Resource Exception
V endor
ub ble
ĠP ID
Pro jection
URL Connection
ĠWith Stack
ĠHE AD
Ġ'` '
Ġcurrent Value
Tr im
ld r
dim ensions
Ġhold s
Ġstrr pos
Ġo dd
ĠE L
Ġx sd
Ġempty List
ĠCh art
Ġwant s
ĠWith Fields
Ġin dependent
Ġget Address
Str ict
Ġwalk er
Ġsubstit ute
Ġw ide
Ġe of
amp led
Ġseparator s
In former
Ġrem oval
Not ation
Parameter Exception
lap se
Symbol s
IND ER
do ctrine
Ġrele ases
Ġt unnel
ul i
Ġun changed
ĠData Type
CLU DE
D ashboard
m oodle
t cp
Ġm illis
ĠIN SERT
ten v
Work ing
Ġdata Set
PRE CATED
ĠE V
Ġend Element
Ġcontact s
C atch
N ET
Ġal bum
ĠSup er
Qual ity
aff old
Ġc oding
il est
Ġoptim ization
) .'
h ere
Ġin finite
ĠU ses
Ġfrom String
Ġ4 2
Act ivation
Pe ers
Ġfunct ools
m ix
p ix
Ġsign atures
Ġ201 8
Ġlv l
IFI CATION
Hex String
Ġkey Type
Ġentity Name
Ġfont size
ug ment
Ġnode ID
play er
Ġenumer able
ĠaddSelect Column
L ng
Ġg cd
de ps
P ad
Ġget Remote
ex e
ĠH y
Ġcolumn Index
Ġoper ands
ĠAR RAY
F olders
a que
Ġb alancer
Ġrow Count
Not ifier
Att ached
ne ed
Ġactiv ated
Second ary
us ic
config ure
for cer
format ted
ĠP tr
ĠP ull
Pos itive
ĠDOM Document
Ġsur vey
V olumes
th umbnail
Ġen rol
ĠNew Decoder
length s
Ġsystem s
BR L
H ours
et ary
Ġ" ',
ĠM ULT
str ategy
work space
Iter ate
ls x
ĠDO UBLE
ĠIG NORE
R ULE
p w
LO CAL
rem oved
ĠFormat ter
A nt
d ns
Ġchar m
Ġperform ing
Ġprodu ced
ĠOPTION AL
k g
z oom
Ġs Name
ĠC L
Error Message
trans ition
atom s
Ġd g
P UBLIC
ĠM er
Of Month
Attribute Value
PA RENT
) ."
u it
y ing
Ġc g
ext ended
Ġrecord ing
Target Exception
Ġsent ences
Ġasynchronous ly
ĠC atalog
Ġnew Path
To X
Ġoutput Stream
ĠClass Metadata
Ġequal ity
N egative
t ures
Ġ ray
ĠColumn s
e quals
SU FFIX
e v
Ġl m
Ġis Required
ad ing
ĠD er
int eg
Ġprint s
Form ula
Ġfire wall
Volume Source
Chunk s
To Delete
RE QUIRED
Ġtol ist
Assert ion
Embed ded
Ġget NumberOf
Ġis Instance
Ġprom ises
CK ET
Ins pection
h ub
ĠM o
ĠU SE
Ġright s
Ġcas Feat
A ws
W as
Ġb rowsers
Ġbo ost
Ġ5 9
ĠTR AN
incip als
ĠC r
ĠP in
Ġch k
Ġhttp Response
Ġtri angle
ĠInternalXbase WithAnnotations
it ect
AG ENT
alt y
Clean up
h o
Ġadd Item
Ġsp atial
ĠgetM ain
Ġget Http
Ġdiv isor
ĠFl ash
ĠgetContent s
in crement
Ġ" ^
rel ations
b etween
in o
st able
Ġstr tr
CH ED
H R
Ġadd resource
Ġtarget Path
Ġmulti plier
Y ANG
ĠQu al
Ġdenom inator
s ock
Ġh aven
Ġal i
Index ed
Ġresource Id
ĠRead All
de p
ĠF ixed
ĠB ot
Out er
Sc ripts
Ġlib s
ĠTable Map
ĠS ender
ĠA udio
Ġcol our
Ġoutput File
ĠServer RequestInterface
Append s
Ġmetav ar
Ġb udget
Ġentity Id
Ġ'\ ''
Ġbound aries
PAR T
mark up
Rest art
D em
In ventory
Relation al
ĠSER VER
Ġn z
Ġv oice
ĠF A
Ġfrom Index
ST YLE
ĠAl gorithm
ĠA V
th rows
Ġfirst Child
Ġpredict ed
FR AME
Ġex e
ĠH ANGUL
Ġread Only
ship ping
Ġnv ae
ĠReg ex
cip ients
ĠLE VEL
p al
Ġkey Value
Ġis Active
ĠA bs
ĠG C
Ġle aving
Dis position
Ġ100 0000
p ret
ĠIn c
lock ed
RO UND
ĠVAL ID
n m
Ġn est
Ġret ain
up grade
Ġwh atever
Key Pair
File Size
Node Type
SS ING
Ġsp read
Ġcor rection
Ġdec imals
Ġĉĉĉĉ ĉĉ
Ġsubscription Id
Ġsym metric
Defin es
Ġnan o
PARE N
O s
Con cat
Tr iggers
spec s
Ġan alyzer
Ġcurrent Page
ĠRe po
ĠAdd itional
Ġct or
direct ories
under a
ĠL ex
P N
IL L
Ġ' +
ateg ies
U ses
ĠS leep
ĠL IST
Ġun shift
sh utdown
Service Exception
Serial ized
Ġn am
C USTOM
Y EAR
ĠDec oder
Ġcy cles
ADD RESS
G lyph
Ġcreate OrUpdate
Associ ations
Ġassum ing
Ġnat ural
LE T
Ġnp m
Query Params
check sum
Collection s
Wh ile
Ġcore v
Ġacc el
IAL IZ
Throw able
se en
ĠG l
Ġdb Name
ĠCh rome
Se en
raw l
Fr ames
S at
er ay
Ġdatabase Name
sec ut
stand ing
1 01
res ize
Ġfull path
Ġpag inate
ĠgetSup er
h its
load ing
ĠgetS ort
TER M
Ġmat ter
Ġsem antic
quot ed
et ypes
Ġp aper
ch r
Ġr at
Ġch alk
Ġurl parse
s ap
Ġx ref
I A
Re places
Ġfin fo
ĠB ecause
Ġx c
Ġcreate View
Ġtrans cript
c ould
Ġ' =
rit ical
Ġimp orter
CON STRAINT
Ġtrack ed
Replace ment
Ġs andbox
pl ural
Ġlog file
com merce
ĠcharCode At
ĠH igh
ail s
Ass essment
gra ding
ĠPl ot
ĠCurrent ly
rece ived
an za
re tries
Ġm es
ĠF ree
Ġadd Component
Ġtext s
Status es
Ġdif fer
CP U
X MLElement
h ot
Ġi am
Ġre vert
Ġset Message
ĠG R
Ġda o
U tf
Ġp arenthes
ĠC redential
Ġexp lo
ĠLO CAL
Ġplace d
Transform s
C b
R UN
x t
ar ia
Ġto Json
ĠCon current
Ġnum Cols
Ġpass phrase
Ġlif eray
Pages WithContext
ĠfindOne By
R SA
W ire
Ġdif fs
ĠInt ent
Work ers
ĠSerial ization
Lead er
Ġregard less
ĠinC py
ĠC DK
POS ITION
B F
m as
Ġthis Obj
Ġtempor al
APP ING
Does NotExist
0 33
Ġl g
Ġde crement
Ġset B
Ġset Is
Com pression
EX EC
Ġbr and
Ġbuilt in
Ġk ops
Ġy max
Query String
LO CATION
Ġdelay ed
O bservable
ĠD irection
vert ex
Ġtrunc ated
ro gate
ĠT ango
ĠIn tegr
not ifications
Ġversion Id
ĠAnd roid
Ġscr atch
Ġk l
Ġcreate New
Trans formation
Create Struct
Stop ped
D st
User Name
ATION S
Project s
k i
Ġsearch ing
DE V
Ġcir cular
Ġsaf ely
v a
Upd ater
Ġdi ags
ĠDO MElement
Ġn y
ĠM igration
ĠStatus InternalServerError
ĠSE VER
Me an
L ess
in a
Lif e
ĠisNull OrEmpty
Ġtor ch
or row
Ġk sort
Ġsub classes
Ġtask Id
ĠInputStream Reader
Ġcid r
Ġf is
ĠF ace
trib utions
Instance Id
ĠEd it
) {
s ender
Ġ0 5
Ġcont our
Ġsub j
Config ured
cl usion
org anization
Ġprevent Default
Ġden ied
C lip
Ġg arbage
Author ized
ĠInvocation TargetException
Ġa ccuracy
Ġcal ibration
Ġover written
Related By
out h
ĠSer ializer
Ġs ampler
Ġc and
ĠN ET
Ex ports
ĠIn formation
FI RST
Ġco res
find er
Unavailable Exception
ener gy
Ġsub system
To Be
Ġrow Index
und ant
ĠSee k
iter able
ĠInput Option
Ġsn mp
ĠUnsupported EncodingException
t ile
Evalu ate
GR AM
ĠgetPrimary Key
Integr ation
h p
im ag
ĠR EL
ĠIs Valid
BY TE
Maintenance Window
ST ANT
Ġo User
st ock
Group Request
Or d
Buffer Size
comp ressed
ca ption
Ġinvok ing
B N
D to
Ġs ens
ĠG e
-------- --
Ġroot Dir
Ġback ing
mpl s
G C
b ra
Ġout dir
Ġsend Message
Match ed
fl at
Print s
Ġguarante ed
ĠCK EDITOR
B undler
Ġp icture
Ġh r
ĠB rowser
AN Y
Pre cision
Ġoptim ized
ĠXml Element
Ġ\' %
COR D
t wo
v ol
Pro c
Ġso up
ĠUp dates
Foreign Key
war g
red s
service Name
can vas
Ġdiag onal
Ġuni qu
Ġd rain
Ġget Entry
Ġget Methods
Ġset M
Ġ-- >
mod ifiers
Con cept
Ġvar name
In Use
Ġun do
ĠW eight
Ġobject Manager
ĠEn ter
Sub scriptions
[^ \
Ġfront end
ĠMan ifest
W s
LE CTION
Y our
Ġs Key
Ġde aler
ĠB ranch
To File
Ġaction Name
Ġstmt s
Ġst ypes
ĠW ire
Ġthem es
ĠDateTime Zone
SA CTION
ĠInv oice
mer ged
Type Code
CON NECTION
ĠGroup Layout
ĠRelation ship
Prepare d
Require ments
Ġadd on
Ġresource Path
AD MIN
Ġart ist
Edit able
]* )
V ID
Ġclient Response
ĠX BRL
Pr iv
ĠProcess or
agent o
Des ign
Ġang les
N ORMAL
Ġw id
ch ors
ĠF LOAT
ĠR UN
Api Exception
ĠFunction s
CUR RENT
Ġg uild
Ġget Map
ĠP H
ip p
ĠIn jection
Request Id
CT ED
enc ing
L DAP
Ġcalcul ator
Ġperm itted
ĠAss ignment
brevi ation
Ġorg an
Ġ' !'
Ġpre fs
Ġwant ed
Ġprodu ces
on ic
Ġth ink
ĠT S
ĠA xis
ĠEx pect
ched ules
Can onical
Ġsk y
or able
Ġget Items
Ġk n
Ġset Config
Context s
AD ATA
Socket Address
bro ad
ane ous
Ġtemplate Name
Ġparameter Name
Tra it
Over flow
OUT PUT
Health Check
, %
v v
Domain s
ĠNUM BER
] ;
ed ora
ĠM iddleware
symbol s
ET IME
Ġtim ing
Ġac cessed
Ġshard s
Ġcommun icate
Ġint s
Pre p
DEFIN ED
Ġget Link
Ġmod s
LANG UAGE
o e
Ġ} );
Ġd escriptions
Ġg d
Ġcreate Model
OR AGE
Cache Key
ĠJSON Exception
d ictionary
m esh
Ġ\ .
Ġle aves
Group Input
19 2
ĠgetFormat ted
" :"
re pos
tr ail
MI SSION
res id
Ġun escape
Ġtra il
g ence
h ort
ol ine
Ġbase dir
)" ""
Ġsol r
Short cut
Normal ized
D ates
T V
T ASK
w f
Ġc umulative
Ġf utures
ĠA imeos
ĠE D
Ġare as
ĠNew Client
Ġconf idence
ĠStr ip
ĠCOL OR
. +
F old
Ġm irror
Com ma
ĠXML Stream
Ignore d
Ġbracket s
In ject
(? :\
Ġattempt ing
Ġmon ey
ĠCraft y
Ġus able
ĠĠĠĠĠĠĠĠĠĠĠĠĠĠĠĠ ĠĠĠĠĠĠ
ĠAdd s
Auth enticated
Ġinsert s
Del eg
k le
Ġpr im
Ġlat t
ĠLA ST
19 4
ĠValidation Exception
ĠEN V
oss ip
G ot
ĠModel Node
ĠInternal PureXbase
O PT
a verage
} ?
ĠO NE
ON ENT
work ers
Ġneg ate
ĠgetSe arch
Ġw itness
ĠC rypto
Ġfunc s
Resource Type
Ġallow ing
ĠAv ailable
ĠDr upal
Ġserial izable
Rece ipt
An cestor
Ġem oji
XX X
F LOAT
I ZE
m igrations
Ġx l
ĠJ ar
ĠCom b
Default Value
Sign er
He ap
Ġpub key
B IT
G radient
Ġp Entity
ĠSec ure
Ġbad ge
secut ive
re ed
sub set
Order By
Ġfire Event
č ĠĠĠĠĠĠĠĠ
ĠS em
ĠP A
ser ializer
SI S
Inter pol
ynchron ized
Ġsk ill
ĠGit Hub
ograph y
Cop ies
T ier
Ġget Color
Ġget Role
Ġget Transaction
An alytics
Ġhandle Error
Ġconst s
Ġdispatch Event
d v
d y
en ess
Ġset Query
Ġset Length
ĠP ermissions
ret code
ĠDe aler
Ġatt s
Ġconstruct ed
ĠBind ing
H ide
W ish
Ġb onds
Ġres tricted
ĠI MP
Ġremove Class
Parameter ized
ĠR ot
Ġoccur rences
writ able
il i
ĠD estroy
Ġexit ing
del ivery
Vert ical
AV A
V at
Ġis M
In gress
Ġbe ans
Ġ"| "
Ġint errupted
vi ction
Ġhandle Request
Read ing
CO RE
L IT
Con versation
ĠR ules
Ar ns
com poser
ry Run
Ġexp ose
Ġren ew
max imum
Ġconstruct s
unct uation
ĠgetLocalized Message
E SCA
Ġst oring
alu ed
xx xx
Ġtz info
l and
ĠH ex
ens ure
UN IT
Is Set
ins pace
Nan os
ĠisColumn Modified
Ġf ft
rol ling
Ġ12 0
Change Listener
Clo sing
m igration
con verter
TT ON
URL s
part ment
del imiter
Ġdecor ate
course id
Ġoperation Type
Ġedit ing
ASS OC
uj u
Ġh over
ĠgetC re
bs ocket
g is
as y
Ġy min
Ġhas her
ST RI
Ġrecord er
ĠAR N
ĠFin ally
h ib
Ġh eld
ĠC ached
ĠD OT
ĠRead File
Py thon
P ainter
Ġin jected
ĠString IO
Ġequ ation
ĠConn ector
g id
Ġun available
Ġexist ence
Ġav ail
Ġsuc ceeded
q n
Ġh azard
Im plicit
Ġcap s
ĠDev Failed
REMO TE
ĠS calar
ĠCms UUID
ĠTem poral
Unmarshal JSON
COMP LETE
Ġget Available
Ġcon vention
Ġcreate Request
ĠUn authorized
Ġimp act
Ġwidth s
scrib ed
pred iction
c ourses
Ġis Event
ĠF AIL
ress es
ĠgetP oint
ĠgetD omain
ĠRE QUIRED
PRO P
C ut
ĠM ONTH
CH ANNEL
ĠLocal Date
RM aj
B oot
Ġget Store
Ġdis criminator
exp ired
ĠSk ill
Ġt up
Ġm ention
Ġspec imen
Ġdis pose
Ġne ither
ater n
Ġart icles
ĠPh armacy
orth and
MB OL
LIMIT ER
g a
n i
Ġo t
ĠP el
ĠO ff
Ġdict s
Dead line
S sl
j query
ĠB ACK
Ġcomp ared
Tra vers
Ġif rame
Pro totype
Ġrece iving
Ġca used
Ġnorm ally
ur b
Ġh tt
Ġpl ug
Ġembed ding
plan ation
Ġl x
ven ance
Ġeas ier
T urn
d ic
Ġc ook
Dec ision
Ġaccount Name
bind ings
ĠDig est
/ .
} },
Ġget Tree
RE L
ĠTo o
N ING
ĠC M
Ġcont ig
ER IC
Ġse ason
Exec utions
Evalu ator
Denied Exception
RE EN
ĠEvent Type
ĠgetPro duct
Ġcomput es
ind s
Node Id
ĠPr imary
ĠgetD river
vari ants
Ġmut ate
Feed back
Ġg ran
enc rypt
Ġdir Path
Ġ6 5
ĠCommand Line
He artbeat
Ġmock s
depend ency
C ent
inter faces
El t
Ġenviron ments
TTING S
Ġ" *
min imum
Ġlong Value
Ġaccording ly
ig ure
Ġnew State
ĠI R
Ġplugin Name
Ġra vel
DE SCRIPTION
Base Path
v ocab
is er
ĠS INGLE
Ġj oint
place ment
box es
Quot ed
H ASH
Ġh d
ph inx
reg ions
ĠCloud Formation
Claim s
B roadcast
L on
R ANGE
Ġd ur
Ġget Left
ĠM ojo
ĠO F
Pro tected
IN PUT
Ġ5 3
Char Array
", "
assign ed
ĠAttach ment
Ġtravers al
ĠATTRI BUTE
Ġm achines
Ġent ropy
Sum maries
Chain s
Wait ing
M at
Z a
m ath
Ġf ired
ĠS D
Ġe Get
ĠString Bundler
Ġun subscribe
ĠAdd Nested
Ġhash lib
Ġ'# {
Ġinject or
ĠNoSuch MethodException
Publish er
C LA
H ref
I o
Ġc class
Section s
Shard s
P rompt
im uth
per ms
Ġx b
ME DI
Un ary
Stream ing
num py
-> _
Ġrelease d
Gu ess
high light
termin al
ĠA cc
Ġ5 7
Line ar
ĠAss ume
k in
Ġc u
ĠA ES
ĠRe al
T C
h it
z illa
th en
ĠL ight
SH ORT
ĠCal cul
rou pe
H yper
d rag
l azy
Spec s
Ġpool s
C U
Ġt n
ap h
]+ )\
Deser ializer
W D
f old
ĠE mit
Ġupdateres ources
4 00
ĠI con
Ġconfig Path
Ġstart Pos
Im mutable
Ġcommit ted
button s
cap acity
L R
R ename
i ates
Ġor Else
Ġappend To
Ġ'{}' "
K B
al tern
Ġnew Data
To One
Pre ferred
Ġlook ahead
Ġrece ipt
Ġcr ud
Q NAME
Ġre play
ĠP ending
Ġclass List
Ġy s
Ġmod name
Ġload Class
Ġcomput ation
B ank
re view
ul ian
Ġh l
Ġset Response
ip h
Ġwe ak
map pings
Ġinter preter
ik ipedia
Ġinstall er
Ġ( !
re w
ĠM ore
Ġcle ared
IG H
t abs
ig ible
ĠH istory
Com parison
ĠCom plex
BE GIN
Ġpip es
' ).
f olders
Ġtarget Type
ac le
Ġexit Code
C Y
Ġnew er
ĠM O
ĠG dn
list eners
ĠhasMore Elements
Ġm utable
Ġget Hash
Ġget Unique
Ġquery Selector
names paces
ĠDis associate
FILE NAME
ĠlocalVar ReturnType
V s
Ġbuf io
ĠCms Xml
PRO XY
pop up
Ġreflection Class
ĠSO URCE
C ookies
F mt
ĠS yn
per form
ĠF ollow
Ġle arn
Ġcontent Id
Ġreport ing
ĠgetDo uble
Ġey e
t k
Ġrec ipe
ĠWrite Header
Ġfix er
Dat etime
p ip
or um
Not Supported
Property Value
iter ation
EX P
ĠDec l
Ġadvance d
Nan o
G S
r st
v d
Ġis Static
Ġh yp
Ġdr ivers
inv oice
st ud
pro f
Ġterm in
Ġmiddle wares
B udget
D M
m f
ro cess
Ġx f
Ġbind s
sm arty
cut off
Normal izer
I AS
S eek
S olution
Ġf ul
Ġget Provider
Ġw i
Ġh w
call er
UN K
alan cing
ĠComp ile
In Bytes
ĠY EAR
Ġ9 2
Cor rect
Tri p
Draw able
ĠruleJvm FormalParameter
B undles
or ded
Ġd os
ĠO k
Pro x
Com bo
Text Field
NT R
ĠBack ends
Ġled ger
ĠC URL
Ġbase Name
field Name
Ġimplement ations
Ġaggreg ated
Widget s
/ {}
H alf
V O
Ġin str
Ġcon struction
qu antity
Version TableMap
Ġco upon
require ments
Ġd ictionaries
Ġ" //
ĠI Bond
ĠStop Iteration
ĠByteArray InputStream
st roke
Ġget Prefix
Ġget Expression
Ġsql ite
Qual ifier
. __
t bl
Ġs ms
Ġg as
Or m
Ġfetch ing
ĠSQL ite
FACT ORY
al ink
Ġo mitted
ME N
ĠUser ID
Desc r
Ġown ed
> $
Ġ{ :
ĠRe ply
Ap plied
Ġexp orter
High light
Ġocc ured
Ġset Color
Ġor th
Ġun n
ĠEn velope
az ure
Ġmed ium
uy er
D U
an chor
ĠE ntities
Ġbreak s
Ġdisplay Name
Ġenter ed
Dif ference
Ġg i
Ġb f
array s
SC O
Ġgr and
Ġway s
glob als
Ġl inspace
Ex tr
ĠU DP
Ġfore ground
Ġdis p
Ġjson Object
B AD
P Y
ĠL ar
ĠRes erved
Th rott
comp at
c ookies
Ġa zure
Ġsub domain
gr ant
Auto Scaling
BO SE
Walk er
alloc ate
Ġw aits
Ġis ol
ĠGet Value
Ġhard ware
Ġcon tr
Ġst y
ick r
Ġref und
RO LE
NAME S
ĠPRO P
Ġartifact s
Ġs am
it ed
Ġkey store
Ġkey board
Ġadd resources
Ġexp osed
Sl ots
Ġs anity
In correct
ĠF inal
Th umbnail
match ing
Ġ#{ @
Cert s
ĠnewArray List
x F
} \"
ct rl
il iation
dis tribution
Ġhex digest
Ver b
tick et
B C
Ġp u
ĠM Shop
Ġop encms
dict s
Ġdec ide
ĠEl se
R en
Ġ2 000
leg end
Inter cept
Search es
inu ous
================================================================ ====
Ġl it
ch rom
Ġuser ID
Service Provider
Ġtra ffic
AG ER
u v
Ġre pe
Ġy label
Ġwrite Object
Ġenc losing
ĠHttp Client
Ġmonitor ing
Af finity
Ġs Value
el come
Ġw ater
Ġ0 8
Ġe in
De p
ant om
ĠAn alysis
ĠgetPl ugin
stream s
C ar
S ending
Ġs ector
EN G
IT IVE
Ġper Page
Ġdraw ing
SECON D
a con
p at
Ġset Field
Ġrec ognized
KEY S
Ġinherit ance
Ġadjac ent
J ournal
Ġof ten
Ġsource File
Ap ps
Ġ9 7
test s
Could n
Ġw ent
Ġ1 11
ress ion
Event Type
Ġ"& "
Y ield
Ġh m
ĠN a
con tract
Sub scribe
pol y
et r
ĠIn line
cover age
Rot ate
Ġdatab ases
ToX en
b illing
Ġd pi
ĠN ORMAL
Ġout line
ĠJ DBC
read only
Ġpos ix
ĠLE TTER
ithm etic
Ġkey Code
ĠString Tokenizer
Ġgp Get
/ #{
C amel
T ARGET
Ġs as
In verse
us ions
ĠR ad
ip ants
ĠTem p
ĠTree Map
pr ime
Or Path
Fl at
char ge
VALUE S
G O
Ġlib virt
C IMAL
b old
k l
ĠS W
ĠB eta
Ġlib xml
ĠCLI ENT
ead m
Percent age
Ġn i
err it
Ġobject Type
ĠCon version
Event Handler
Ġpred icates
mult ipart
ous el
ĠWarn f
% "
, ,
B uilt
b d
m ul
ĠRe quires
Ġopt imal
exec ution
Ġmat rices
Ġsimilar ity
Ġderiv ative
k ill
Ġe ff
ĠE very
Ġrec orded
(? <
Ġagent s
ĠOp code
Skip ped
con cat
Ġhas Attribute
Ġplay list
ĠExp and
Ġb ra
to o
ĠCh oice
ĠSw at
ĠSO AP
INTER VAL
PAY MENT
ĠgetEntity Manager
v ity
ĠF E
Ġdif ferences
Ġgenerate Url
ĠInternal Xtext
ĠgetSub ject
VAR IABLE
Ġsubscrib ed
le ast
ĠD ictionary
ĠTh ey
config ured
Ġfont s
Publish ed
j oint
Ġs park
Ġget Channel
ĠS y
ĠO PT
Qu iet
ĠgetC ell
ĠS UP
Ġh p
Ex cluded
art icles
Ġsp ot
ĠeZ Debug
ĠFr ont
th etic
ĠB AD
Ġ` $
Ġextract s
Composite Node
f allback
l ive
ĠS parse
ot ed
Ġset Path
Ġfast q
Ġobserv ations
S olr
Ġqu iz
enc oder
ĠIN TEGER
Ġpatch es
DR L
P t
Ġget Bean
Ġ0 4
Ġadd Message
Ġindex Type
ĠService Exception
ĠSh ard
ĠTime Zone
Ġset Body
Ġfield Definition
Ġbatch Size
qual ity
Pod s
Ġneighb our
ĠruleJvm TypeReference
Ġsimpl ify
car ded
D H
esc aped
Ġraw Data
LA SH
OP Y
G T
P a
se ek
EN UM
aug ht
ex plicit
Ġtr uth
Ġinter est
Work place
ĠTrans ition
Term ination
ĠServlet Exception
det ect
Relative Path
C redit
C amera
P ID
Ġis Sub
ad a
ĠC C
Ġset Options
Ġread ers
Or ders
rout ing
Ġcoeff s
ĠSt age
Un icode
PE G
Ġprotocol s
ĠKey board
Ġdiv ision
MO VE
ĠXmlElement Decl
P i
Ġred raw
Access Control
offset s
track er
ĠeZ Content
Leaf Node
ĠIo T
$ $
ic enses
ĠA MQ
oc on
Ġint ensity
Com press
For bidden
Ġcoe fficient
Ġke pt
T X
T ol
Ġset Label
ĠK afka
PRO CESS
ĠSU CCESS
S peed
b anner
n di
Ġm eter
Ġget K
ĠJ ournal
Job Request
app a
CS V
decl ared
re ater
Ġt ex
Ġv host
Ġus r
Ġx label
Ġun install
M ongo
Ġj dbc
item pty
Ġcluster Name
Split s
Ġprof iler
ĠM is
ĠM ATCH
`. `
h dr
n v
de ep
Ġr fc
ĠG VR
Ġinter act
Do ctrine
Ġsom etimes
Weight s
TRAN S
W IND
t ains
re le
Ġf lex
ad es
ĠField Type
ĠRuntime Fault
bound ary
Ġeffect s
IDENT IFIER
il li
qu is
ĠgetR ight
Tick s
Ġsanit ized
Ġv r
Ġget Environment
ĠA st
Ġset Context
ĠP ure
Ġ'< ?
Ġp ure
ar oline
In Millis
ĠC MS
ĠM Bean
Ġaccept Language
ĠArgument Parser
ĠgetSel ected
? )\
se par
ĠP E
ver b
Field Seq
User ID
Str ip
Ġis Open
Java Script
Bas eline
ĠChron o
| '
From Array
Pool s
or b
ex change
ĠF println
ĠPath s
../ ../
SIB LE
enc ryption
Ġ7 0
Ġ{} :
dig its
ĠGPB Util
tec ode
G EN
Ġv b
ĠB ar
Ġtext Content
IC K
ĠPlural Rule
Ġintro du
om b
Ġ0 777
Object Id
Ġsearch es
Work s
ipp ets
us able
ĠY ear
Iss uer
ĠAre a
Ġget Json
Ġnew Key
ĠF ilename
St ation
Ġu dp
Ġaut oload
Ext end
ĠResource NotFoundException
SH OW
Ġfix ture
Ġget Adapter
ĠS ur
nt l
ĠB i
cur ve
Ġfree ze
FIN ITY
Already Exists
Com pliance
Host Port
opt im
Ġlatt ice
B ODY
Ġs ensitive
Ġp Add
Ġo u
ĠS ent
Ġset Key
Ġset Visible
ĠM ask
o h
Ġsh ader
text area
Ġs ocial
ro ps
est ure
and roid
Ġstr and
Object Name
Ġboolean Value
Gu ard
ĠDispatch er
{ "
Ġwrite Varint
Build ing
vc f
G H
č ĠĠĠĠĠĠĠĠĠ
ĠN ative
Ġsys log
Ġeig en
Ġi llegal
str tolower
Ġdocument Element
ĠQ Name
ĠSign ed
Ġmeasure ments
ĠOPTION S
M o
e ven
Ġro unded
Ġnum erator
Ġsk u
clean up
T ex
ĠM ay
ĠString Var
By Path
ĠNew Error
Ġad vert
ov a
ĠAl lowed
xml ns
ĠErrCode Resource
ĠAN Y
f raction
Ġmin imal
Ġfont Size
Inst alled
M esh
S chemas
Re peat
Ġbe am
Ġlog Level
Ġuser Info
Ġsy mbolic
ys q
Order ed
Back off
ĠInf lector
C sv
Time Zone
Ġauthor izer
Ġsocket s
ĠSign er
Serial ization
ĠCon versation
Ġblock chain
Ġcent roid
Ġsubscrib ers
n x
Ġset Version
Ġas String
pect ive
ĠCont inue
Ġsn ake
avel ength
S aved
W AR
Ġcom bo
Al arm
Ġposition al
ĠNode List
Ġsubject s
Ġrand int
rf c
PARAM S
es is
ĠD ynamoDB
Ġq ry
Service Name
Client Config
AN NOT
Start Index
ĠKey Value
session s
Control s
Ġisn an
Ġ409 6
] /'
at on
Ġnew CompositeNode
ĠD R
ĠM age
ĠG iven
Ġun s
Ġy i
cl usters
Ġind irect
Tra iling
div idual
cover ed
ĠAm ount
Leg end
BIN ARY
h ours
In cludes
ĠF FT
ĠM illisec
bo u
reg ular
ĠTransl ate
M imeType
ĠA LI
Ġor b
Ġdecom press
v rf
Ġr y
ĠB in
Ġany more
ĠStatus OK
ĠGraph ics
Ġv ir
ĠL icense
Ġadd Argument
Ġenc odes
Comp ound
Ġenumer ation
ĠOw ner
Ġin active
Ġsp rite
comp any
Comp ressed
Sep ar
AIN ER
D escriptions
v able
Ġh ue
Ġbe g
Ġ9 5
ĠResource Type
PRO TOCOL
Many Requests
ALLOW ED
Ġstr ain
ĠCom m
Fetch er
ĠpAdd Param
tr i
ex amples
Ġdis tributed
On line
WH ITE
Ġitem id
Comp act
DO UT
Ġiss ued
Ġperm anent
long itude
Ġdescrib ing
) }
c ler
Ġd ists
Ġv pn
ra cle
16 0
Ip Address
BO X
Skip ping
ĠisNot Blank
UNI QUE
/ :
S pl
v ations
Ġi loc
lo p
Ġfield set
De ferred
Ġparse Long
Tra ffic
Ġdec odes
Lat itude
Sim ilar
ĠMon ey
> /
F D
V iable
ĠT wo
Set NextToken
ĠSet NextToken
Ġcor rupt
Display s
Mis match
Ġfield Names
ĠCh at
namespace d
Ġprivile ge
ĠC IDR
ĠB ug
act ivation
ĠNew Buffer
Ġav atar
Red u
Ġindiv id
ĠPrepared Statement
T ensor
Ġb cc
Ġl d
Ġl ig
Ġget Internal
Ġcom position
Type Parameter
Ġsub dir
Ġpk gs
l st
s un
t m
Ġen ded
Ġ2 50
ĠRe plica
Ġoper ating
ĠDo Request
client s
Ġyield s
Ġmodified Columns
des ign
M eter
W allet
Ġg ray
Pro tection
Ġbuffer Size
fl atten
coord inates
ĠPag ination
Phone Number
measure ment
K V
Ġa mp
Ġex press
ĠM W
Ġerror Msg
Tr usted
Ġpe ople
consist ent
ĠAMQ P
ysq li
} .'
Ġa es
ed com
os ome
ĠAr ch
Ġiter ates
TE ST
I FF
Ġd ense
ĠT ARGET
Ġwrite Lock
Ġnon zero
lat itude
ony ms
Ġf ax
ĠMET A
+ \
G eom
ĠT yp
Ass oc
Ġduplic ated
Ġpl uck
Ġ3 9
Ġsynchron ize
Ġ'-- '
ĠNum eric
Artifact s
------------ -
ograph ic
Ġsal tenv
A E
am eter
Ġmsg p
TE M
Ġtim ers
Ġrule Op
Ġpol ynomial
ĠChild ren
ĠFLAG S
Ġw cs
ĠS ys
Ġdate Format
gn oring
ĠgetM em
Full y
ĠSm arty
ĠHO UR
ĠsetAllowed Types
Ġo This
Ġset P
ĠSimple DateFormat
rad io
Ġs urname
Ġstop ping
ĠAl ready
ĠPr incipal
ĠReg exp
Ġexpect ing
ĠM ouse
Ġpr ime
Event Attributes
cur r
ĠKey Store
Rel e
Week day
ĠENT ITY
ĠE List
Ġpoint ing
', '
Ġrece ives
ĠgetRequest Parameter
ĠPATH INFO
Ġcollap sed
Ġto JSON
ey ond
ĠB reak
Request Data
Ġcurrent Index
Exp ire
Ġinner Size
Cap ability
ĠAccess Token
ĠYANG DynClass
YANG DynClass
` "
ul er
Ġfile obj
mod ify
width s
Ġdesc ending
QU ENCE
ĠRece ive
Ġuniq id
r at
ag ram
ĠT db
pro vision
As Stream
Ġcr ash
Ġep isode
S ites
re act
Ġb irth
Ġpath Info
ĠClose able
Ġpublish es
implement s
ĠWOR K
L M
Ġw ind
Ġno op
Ġ5 8
Ġold est
Spec ified
ĠHttp Method
CODE S
Ġincre ments
S u
f rag
s ink
Ex clusive
Re cent
Ġ4 6
Ġstud y
Ġrawurl encode
Viable Alt
if old
---- ---
Ġversion ed
ĠDe ep
ĠLog ical
Ġstd dev
ĠIs NotExist
DO UBLE
ĠQU ERY
ĠHelp ers
n ick
Ġv cf
ĠNo ViableAlt
cip her
Snapshot s
Ġden y
****** /
e ff
ul ates
ĠR et
Ġup sert
Ġread only
press ure
FT P
% (
N X
Ġ0 3
Ġdata center
Ġcreate Object
ement s
Ġz mq
ĠRequest Interface
medi ator
ĠNoViableAlt Exception
A verage
t ls
Ġcontent Length
roll ment
Application s
ĠByte Buf
ĠRaw Message
ĠVari ant
C url
H ydr
h om
Ġt an
ĠS A
ot ing
ĠT ake
Ġservice Id
cur rence
Ġrule ValidID
# "
^ \
load s
Ġso on
Ġcollection Name
Ġip Address
Ag g
Ġlif e
ĠParameter izedType
Ġget Info
cont inue
Ġtra cing
Ġtim est
Ġretrie ving
PRO JECT
ĠMax Results
Ġkw ds
ĠGra b
Ġprot ect
b p
d raft
ĠPRE FIX
lif etime
b f
ĠS DL
ĠH or
ĠGet Name
Ġ4 9
Ġcomp lement
context id
Port folio
Ġdisk s
ex act
ĠC I
ĠL eg
ong odb
cre ation
Author izer
ĠLogging Util
2 000
Ġs queeze
Ġn esting
ist ant
ĠM aven
xy z
ĠHas Suffix
Ġscreen shot
Ġs ong
ec on
Config urator
ĠRes olver
Rate Limit
Relationship s
Ex plicit
ĠP UBLIC
Ġresol ving
ĠThere fore
se quences
ĠA UTO
chem y
Ġcontroller Name
Ġchain code
None Match
Ġde velop
Ġpro v
Ġch i
ĠK ube
Ġam ong
TIME STAMP
pag ination
h yper
t rees
ĠO PER
ĠFor ward
stit ute
Esc aped
ĠSECON DS
ĠRES ULT
, \
ar ded
Pro cedure
() ->
Pr ivile
ĠSup plier
P UB
T s
ĠElement s
Ġom ega
hance d
H IT
P ing
Ġc ourses
Ġget Previous
ĠM ED
Ġerror Handler
Ġbot o
DI RECTORY
Ġident ities
if fer
ph oto
struct ured
Ġproject Name
Ġcontinu ous
Ġget Level
ĠC ognito
ĠgetB ind
Ġannotation Type
b ill
Ġl ag
ĠD ialog
ĠX SL
Ġbytes Read
Ġabs ent
reach able
as is
Re plicas
if s
Key Store
SE ARCH
item id
Ġshow ing
Ġthread ing
session ID
Ġmer ging
Ġneg ot
88 59
Ġactiv ities
č ĠĠĠĠĠ
un ication
Ġint f
Of Day
Ġcalcul ates
Ġcomb inations
ĠCOM MAND
Ġsem antics
F aces
X A
Ġtrans parent
Ġcancel ed
Ġadapt ers
produ ction
E le
im ated
Ġos id
ĠEx ists
Ġatt ention
Ġpercent ile
icol on
ĠMillisec ond
= ?
t reat
ul us
Ġst ory
ĠSchedule d
Ġget Constructor
ig ma
ĠA SS
ĠG ithub
ĠK inesis
Sp ot
Algorithm Exception
Ġpolygon s
3 84
C AP
Ġget Email
Ġw b
Text Node
check out
Ġm essaging
Append er
Ġget Uuid
ĠL ess
Type Info
Dec rypt
let s
Ġmail er
un pack
Ġl am
ĠĠĠĠĠĠĠĠĠĠĠĠĠĠĠĠ ĠĠĠĠĠĠĠĠĠĠĠĠĠ
over lay
Ġgraph ics
Ġweek s
ĠgetFirst Child
Iss ues
Y N
ad s
Le ast
ĠSub mit
ĠCode c
Ġĉĉĉĉ ĉĉĉĉ
ĠRow s
Cho oser
ĠFatal f
r ating
en ium
th emes
ĠV ault
ĠGet User
CT YPE
Ġcoe f
Ġclass Metadata
Ġwhen ever
Ġ12 3
exp anded
'] ,
ĠGroup Version
56 7
ĠEvalu ation
ĠreadFile Sync
duplic ate
Ġre tr
Reg ions
Ġnet loc
Ġinflux db
. </
T abs
s ibility
om itempty
Ġtor rent
m iddleware
Al location
ĠInvalid Object
Security Groups
FER RED
F OLDER
S ome
Ġv at
ĠVis itor
ĠINTER N
Ġread Object
Response Exception
min or
Ġlocal host
Ġco variance
ĠPl ain
J AX
w ant
ĠM kdir
mt ree
ĠParse Error
ĠCOM MA
8 00
Ġel ect
round ing
ĠMessage Format
Ġcontinu ation
Elastic search
g zip
m anagement
Ġf out
Ġn arrow
ch ie
Ġresol ves
leg acy
ĠIN NER
ĠgetT ags
Ġcr s
ĠDel ivery
MOD EL
Mac ro
F ar
d able
Ġk id
ĠL ights
ĠgetP assword
Ġaccount Id
cover able
Ġscroll Top
p rom
Ġsup plier
ĠWh ether
Ġget Ref
Ġappend er
Ġrs plit
p olicies
Ġkey ed
Ġnum erical
Ġdb Handler
Over lap
ĠSEVER E
a udit
p db
r ases
w as
Ġl ot
SE NT
Inter action
Ag reement
PRO PERTIES
Ġplatform s
ĠHost name
Gu ide
Ġhttp Method
ĠgetP ublic
ĠTransl ation
Que ues
/ {$
F LOW
V ol
x E
Ġt ao
Ġget AccessToken
ĠA ws
ĠString Writer
Ġcode cs
ĠgetM edia
mark s
Ġperm utation
ĠOR M
Cho ices
255 19
S vc
t end
Ġb ldr
Ġis First
oc ations
Ġun bind
Ġreg istr
Ġcapital ize
li est
Resol ves
Min Max
Ġicon s
Ġfact ories
ĠgetService Locator
Ġm alformed
ĠC IM
Ġerr msg
Class path
Ġsw eep
DI SPLAY
ĠElastic search
Ġdescend ant
retrie ve
Con v
As pect
Ġdimension al
ĠgetContent Type
n eeded
s parse
ro ols
Ġg em
ĠP EM
vert ices
Top ics
Ġperiod ic
U C
Ġbase URL
Element Type
SP LIT
QU ARE
ĠByte String
Provision ing
č Ġ
Ġ" +"
iver se
Ġqueue Name
Ġbam bou
ĠLights ail
Ġre index
tr ial
Ġevent Data
Ġ4 7
Ġroute Name
Ġhappen ed
}: {
Ġrestriction s
H H
Ġv min
ĠD ot
ĠWith Field
Ġappro ach
Ġmaint ain
1 10
H y
P DF
m v
Ġa head
ĠO FF
Ġtime Zone
ST OP
start s
cor r
Implement s
re load
Ġre gs
ĠP mag
pro viders
Ġexecute Update
Ġwait er
wh ile
ĠMem bers
G UID
at ively
Ġg ain
Ġ" !
VER Y
ĠgetF oreign
ĠModel s
gr p
ManyRequests Exception
Ġv ox
ag g
ĠS caling
sg i
Ġsend Error
Ġaut omation
Root s
DI RECT
oper ations
Ġs lope
Ġr ates
Ġcont in
Ġread lines
ĠDis tribution
Ġba os
neighb ors
S ip
ic ult
ĠP rom
Ġcom paring
Ġwh eres
Ġsh im
Ġevent Dispatcher
With Name
Graph ics
olid ay
phan um
ĠInst ead
G OR
ĠF IN
port ion
Ġle m
ĠObject Manager
iss uer
ĠSh op
serial ized
M anagers
Ġs pend
Ġstr ptime
ĠJ CR
Ġcode base
DE PRECATED
Ġreflect or
ĠApi Response
Ġgrant ed
Cons ist
ĠConf irm
M ajor
s ocial
al ready
tr aining
Ġde viation
Ġx or
Ġby pass
Ġdef s
ĠRender er
Ġpress ure
D OT
g est
x D
ĠGet All
Ġauth enticator
ĠCol l
Confirm ation
ANS FER
Ġc ascade
ep age
Ġquote Column
ĠInv ok
Ġc ountries
Ġset Date
ĠF ore
Ġun marshall
Ġpre fetch
Ġinstance Id
Ġmatch ers
Object Type
ĠgetD estination
hash es
Ġrespect ive
in ja
Ġf os
ub ic
Ġnext Int
Auth enticate
Part y
ĠSE PARATOR
Success Response
Ġbelong ing
FAIL URE
in complete
Ġget Errors
ig o
Ġwrite Error
OD UCT
Ġparameter ized
Policy Request
R ew
i B
Ġin cr
ĠF O
ĠF oreign
os h
min ute
mod al
Ext ent
ĠSh utdown
ĠDI S
Ġws dl
t itles
} )'
ur als
Ġis F
Re plies
sh apes
Char ge
Det ach
Ġinstant iated
sessionID Arg
) *
Ġk k
int f
Ġor bit
Ġren amed
ĠIs Dir
Ġpresent er
Ġs mtp
Ġin et
Ġw all
Ġadd Value
con sum
Wrap ped
1 12
M ON
c imal
Ġget Exception
Ġget Layout
Ġto po
pro d
Item Id
ĠEx cel
Ġfetch es
Ġstand alone
= {$
F ingerprint
f v
g h
Ġmax Width
cur se
Ġgo al
ĠNoSuch AlgorithmException
< <
ist ype
Ġsplit ted
Ġclick ed
Ġdestroy ed
Ġ'~ '
V OK
t ok
is ot
ro ids
ĠC art
ĠC ouch
Ġsh rink
Ġcreate Query
ĠUp grade
Bind er
Initial ization
ĠcontentObject Attribute
c ach
l c
t uples
art ifact
pon der
AD I
Exec utable
Ġindic ated
Aggreg ator
Cach ing
ĠTravers able
Ġs il
Ġs qu
IN FINITY
Or Create
ĠgetS l
Par agraph
ĠAd just
Ġprovid ing
yy yy
Ġcent ers
ĠRol lback
o ices
p illar
Pro vides
func s
Error Handler
Tr an
Dec om
Ġlimit ation
Ġexpect ation
Ġtech n
D AV
w k
al ways
link ed
SI P
Ġcoll ision
MT AS
Ġt ier
Ġparent Path
Ġsource Path
reg exp
Le ase
ĠPr ivileged
cer pt
Ġsite Id
ACK ET
exec utable
Ġcon currency
qu ant
pl eter
Ġen cod
Ġpath Params
ĠgetS cheme
Ver ifier
ĠBad RequestException
Ġne ur
Ġsk eleton
normal ized
B id
Ġset Last
ĠR x
ĠG reen
() }
ĠIndex OutOfBoundsException
scrib ers
Provision ed
Ġb is
Ġde velopment
Ġcurrent State
Ġbyte Array
Ġload Balancer
ĠCh anges
prefix es
Op ens
(\ $
ĠSecurity Exception
Ġpa used
lin eno
Parameterized TypeReference
' m
Ġs pe
Re comm
ĠE st
ĠG E
ĠgetS ql
Resource Id
Ġchunk Size
Identity Provider
Ġprevent s
Ġo Settings
ĠS ame
Ġap is
Ġexists Sync
Sp ans
ĠDel ta
Offer ing
ab stract
ri ef
Ġdir path
ĠAl ignment
TR Y
ĠSo y
STIN CT
n am
Ġs ubl
lo om
ĠP rc
file Name
AT S
no ise
ĠST OP
Ġperson al
E lect
er ior
Ġm h
ĠC ampaign
St ock
Ġlist a
ĠSet Name
vert ical
Ġad v
Ġemit ted
ĠgetUser name
attach ments
lips is
ing ular
Ġv max
Ġto CharArray
Ġjob Name
Ġvariable Name
sing ular
FLAG S
k ops
w ave
Ġget Arguments
In Seconds
Ġan t
pl ist
ĠA void
En forcer
Ġ6 1
files ystem
ĠCloud Watch
atern ion
id Evenement
Ġis Dir
ĠR ewrite
Ġlist Files
Ġdis connected
mp ot
Port Type
Bind s
NO TE
Upd ating
Ġpag ing
ĠisEvent Enabled
Ġex per
Ġpro tection
res pond
To Int
Sub mission
AUTH ORIZ
ĠDet ach
Ġign ores
Ġ ue
Ġin ode
Ġj Panel
Key board
Out bound
Ġbegin s
ĠAt las
Act or
0000 000
ym er
transl ator
P arenthes
S andbox
ĠP ASS
ĠIn crement
Ġread dir
User Pool
Ad j
Ġreport Error
Ġsoft ware
ĠArt icle
ĠDMatrix RMaj
K eeper
ut c
Ġv iolation
st ation
Ġh ar
Ġ0 2
ĠM B
ĠgetType Name
att ention
BO OLEAN
Ġkey Store
Ġpar ms
Ġext name
Ġins ensitive
top ics
ĠRef lect
Tool bar
------------ --
oct et
ĠgetCur rency
Ġv x
ab ling
ĠA lert
Info List
sc opes
min utes
Ġsatisf ies
ĠSM ALL
Ġto c
Ġch ance
Ġ? "
Ġenum s
Sent ence
Pub Key
I FT
R FC
p rior
s chemas
Ġis Undefined
Value Type
Ġplot s
Ġbean Name
Measure ment
Comput ed
ĠMongo DB
Ġ[{} ]
h ierarchy
Ġ( \
or ator
Ġb eyond
Ġr mtree
Ġpre process
ĠInet SocketAddress
H ave
ĠRe q
over lap
Buffer ed
New s
Ms gs
R R
id en
Ġadd Filter
Ġmod ifications
00 02
Log ical
rem aining
Exp anded
Ġprob abilities
23 4
Ġgl ue
ĠgetFe ature
P AD
T F
pe ar
Ġexp ansion
'] }"
ĠSum mary
P ick
Ġs uggestions
Ġs pectrum
Ġget O
Ex ponent
ĠD eletes
Reg ular
Ġshow s
ĠWrite Byte
local s
RES OL
ĠE NG
ĠB o
Ġlocal ization
Em it
loaded File
Ġdr uid
Annot ated
T oggle
Ġfor bidden
ĠP AT
Time zone
ĠTra cing
Ġcould n
C y
tr ins
get Name
pro j
Ġra ce
Ġeas ily
ĠDAT ABASE
Ġget Doc
od ified
ĠD N
Tr unc
ĠDe fin
Ġinsert Before
Store d
Sp acing
Ġrev oke
T icker
ĠF ragment
Ġobject Id
Ġevent ually
Ġ3 8
dir ty
ĠSub scribe
Ġbackend s
Ġsom ew
Ġox New
ĠRender ing
Acc el
a as
Ġb v
Ġl es
Ġget Modifiers
Ġe jb
ĠE scape
ĠO ID
Ġcurrent Path
we et
Entity Id
Session Id
post Body
ĠS ep
table Name
ĠCommand s
Ġsol id
gen es
Counter s
Try ing
Ġdescend ants
ĠOrig in
c ron
m etry
Ġsec s
ĠIO Utils
AP H
={ }"
Accept ed
C rypto
W in
n os
ĠC lock
ĠC MD
ĠL dap
par allel
ĠQ R
Price Entry
ĠDO CUMENT
Ġinvok es
ĠAggreg ate
M ass
P U
set ter
Not es
Ġredirect s
Ġcp Definition
Ġpa ired
Ġlik elihood
Ġrefer er
ĠInstant iation
G ui
W orld
Ġp ul
ed List
Res ervation
Ġvalid ating
ĠStatus BadRequest
Ġinternal Request
branch es
Pixel s
ĠHor de
t id
Ġa ce
al i
Ġthrow Exception
list en
ANCE L
enar ios
1 000
M Bean
v r
Ġ3 7
Ġsort able
obj s
33 33
Ġmkdir s
B D
B el
W AY
Ġs ap
Ġf bo
Ġ" ?
ĠS MTP
Ġis Number
Ġe cc
ead er
Ġ5 2
Tra il
pc odes
des erialize
Ġstud ent
F ULL
h y
Ġset Output
ĠM Util
Ġpl ayers
imit ives
igh ter
SI C
ĠErrCode Internal
ĠPAR AMETER
Ġattempt ed
Ġcard s
itect ure
P s
Ġreturn code
To Check
Class Names
cl ause
Var Name
ĠQuery Util
CRE T
coe ff
A CH
od ies
Ġbind er
Ph ysical
Ġfact s
Ġfrequ encies
ĠINTERN AL
M igrations
Ġp icker
ex periment
Ġstr val
Al ter
Or Enum
Validation Exception
Ġcover ed
widget s
rece ive
Ġinvert ed
S aml
k v
ĠF ULL
Ġcache Name
Process ors
run ner
ĠJson Node
Ġi g
Ġf read
ul u
Ġe vict
ĠE F
Th at
Ġmodule Path
Ġ"< "
Ġabort ed
Ġchrom e
neighb or
G roupe
ĠS CO
Ġset Start
Ġmin im
Ġ"{ "
ĠMe as
Workflow Execution
ĠEvalu ate
Ġanalys istype
M IME
w orld
Ġf av
ext ent
Ġj p
ang ing
ĠB ulk
Ġph otos
Ġdown stream
ĠgetClass Metadata
Cle ars
ĠQu antity
Ġsepar ately
MA IL
DOM AIN
ĠgetDo ctrine
A I
G ood
a ux
w g
Ġtime Stamp
ĠCre ation
Ġw m
Ġw t
Ġde b
form ula
SE D
Network ing
= \
Ġd ere
Ġb are
Ġget ReturnType
ĠL ABEL
Ġscal es
2 02
Ġnew LeafNode
ĠP ing
Ġu ow
ID DEN
ffff ff
ĠHist ogram
ur istic
ut ter
Ġcon secutive
ass essment
Ġadd Method
olog ical
Desc end
ĠReflection Method
in fos
Ġl iterals
od ata
ĠD ashboard
ĠE QUAL
ĠE tcd
ĠO W
Ġor phan
//// //
Sort ing
bot h
Ġdiscover ed
P ivot
ĠT ax
Re cipient
ĠD ump
ĠE Enum
Ġlog gers
Ġstart Offset
IP s
Wh ether
CONT ROL
AF TER
D id
V pn
j id
Ġd ct
Ġb n
AL T
Ġevalu ator
FE ATURE
paren cy
ĠFieldDescriptor Proto
Ġa ugment
Ġf o
Ġget Files
ĠCon v
AND ARD
Ġ"@ "
sur face
ĠQu estion
Dat um
lik elihood
ilest one
r ub
Ġto HexString
Con currency
ĠH yper
Str ipe
iron ments
ĠZ IP
18 0
Ġcommun ication
/ >'
s ol
it ations
Ġget Settings
ĠM icro
Ġpart y
Ġtemp File
Host ed
can onical
Ġt g
Ġc name
Ġc entral
Ġis Info
ĠC AS
up s
ĠM M
Ġon Click
Ġuser info
Format ted
If Needed
ade cimal
ĠSec onds
Ġmut ations
Success fully
Ġthrott le
Ġb urn
Ġr as
OT H
Package Name
Upload s
xx x
ARG UMENT
Ġestabl ish
m ot
pro files
ME T
Ġtim eline
ĠKey word
Ġcons ensus
ĠGit Lab
Ġtwe et
J OB
] }
j unction
Ġc ube
Ġre visions
Ġp Value
Ġm q
Class Type
Min ute
Ġb olt
Ġcode point
context s
Ġsuffix es
rec v
Ġadjust ment
ĠInd icates
b ridge
an not
Ġv id
class name
ret val
ĠExec utable
FFFF FF
p redicate
qu iz
ĠP res
Ġadd Post
Service Interface
ĠgetT okens
Ġconsum ers
Relational Database
f its
k m
Ġget Original
Ġ/ ******/
em it
ĠIn stances
ĠV box
Ch allenge
Ġwrite Line
ĠRemote Exception
ACT ER
ih ale
ĠZip File
Ġ----- --
s b
Ġset Target
Ġ\ /
ĠB IN
Ġtra its
ĠDate Format
Ġtx id
Ġdynamic ally
Ġdelimit ers
C DATA
s ive
z ier
Ġ// /
St ar
ĠRequest Exception
ĠCl aim
ĠInvalidObject Fault
ĠVbox PortType
K ub
P reset
m obile
r is
Ġm aintenance
Ġh alt
Ġy Axis
List er
To Map
state ments
ĠPol y
entr ic
h orizontal
Ġ' ://'
Ġcor ners
ĠgetC or
ĠAssoci ation
ĠgetDecl aringClass
x l
ĠC ASE
Ġr isk
Ġsup posed
Ġleft Join
ĠOut Of
me ans
alyz ed
Monitor ing
P ot
Ġ urn
al g
Ġb readcrumbs
View er
Ġbegin Transaction
ĠCl ick
success ful
Sim ulation
ĠSK IP
ĠGENER IC
Ġb ail
Ġh is
Ġitem Id
Ġpost Data
Ġdesc r
Ġupload s
? [
Re positories
Ġadd Handler
Not Empty
Ġtest ed
EX PI
Min us
orph ic
A ES
L dap
Ġres ervation
dd it
Ġblock size
Ġdb s
Ġsl ider
new s
h op
Ġth rift
Ġint ros
Ġy lim
Ġdb name
ĠZ ERO
DO CUMENT
ĠEd itor
ĠVirtual Machine
ĠSyntax Error
ITER AL
C andidates
Ġi h
Ġget Stack
Ġfile System
fer er
.. "
sc p
Ġdat al
ĠBuild Exception
Right s
k y
an alytics
Ġget Relation
Ġadd Statement
ĠRe verse
ĠPro c
Ġover view
Ġaut om
12 5
ful Set
Sy mlink
Ġm pl
ĠC apture
Ġ1 50
Ġset Layout
ĠD jango
ug ar
ĠEx press
Ġ... "
ĠCUR RENT
DA O
Prep ares
S itemap
T yp
c rypto
y thon
Ġget Number
Or Fail
cle ot
ĠNAME SPACE
dispatch er
Ġintercept ors
ĠFA ILED
$ {
in cludes
Ġv p
Ġsh allow
ĠGet Object
ld p
Ġtmp File
ĠCms Property
END POINT
ĠSw agger
iet f
........ ........
/ _
G allery
Ġafter Parser
SI G
umul ator
pli ant
I so
c lock
Ġ ess
Ġl y
ĠN L
Con current
Ġpre decess
Set Id
Ġsort s
Ġstore Id
start ing
Core Bundle
Ġa o
Form s
Ġtw itter
ĠgetD el
Ġedit ed
alan cers
Ġsk etch
vector s
loss ary
] /
n y
re name
Ġp th
pro totype
Ġtra de
Ġpush ed
ĠDI R
Clo ses
CRE ATED
OrEnum RuleCall
ĠafterParser OrEnumRuleCall
+ -
h ed
Ġs ch
Ġf avor
Ġfil t
Configuration Request
Ġbl ur
ND ER
ĠEntity Manager
Ġdirection s
ĠHas htable
ĠFin ish
M ux
P df
Ġget Endpoint
ĠR pc
Ġle v
Port let
PL U
Ġg ulp
Ġcontent Info
Ġsource Map
Depend ent
Servlet Request
aggreg ate
ĠFac ade
D ITION
G rammar
w cs
Ġg ender
un set
ĠW s
Check out
gra ins
ĠgetParameter Types
ĠPDO Exception
201 80
C ron
t b
Ġc rawler
lo pen
ap is
int o
ĠAL LOW
ur st
Ġl f
ĠString Value
cl uding
work s
ĠAS N
Require ment
D ns
H ello
b ases
al em
ĠTh rift
IM UM
ĠUnmarshal Handler
ĠVersion ed
Ġpat ient
Ġdelimit ed
ĠMILLI SECONDS
: {
R q
ĠO ld
Ġcode Point
Sub tree
Body Handler
ĠMessage Type
Top ology
Ins ide
Ġoverlap ping
Ġc uda
Ġb right
ab ort
Ġch ip
Config Exception
Ġsome one
onom ies
Assign ments
Ġh h
Ġnew axis
Re ports
Ġstr str
Ġnum Bytes
ĠgetS rv
Using Alias
ĠisInfo Enabled
R aster
i q
er g
ĠUn able
Ġ07 55
& #
I STR
x path
Ġfile List
Ġread String
list ed
ĠgetPro tocol
ĠUnmarshal Discard
Lat est
ĠAF TER
> .
qu otes
Ġst e
Ġcol Name
Ġwrit ers
HTTP S
COM MIT
Ġpub Key
ĠUnmarshalDiscard BodyHandler
m iddle
Ġs ufficient
Ġset Page
th ere
Ġ\ ''
Ġmax Value
Tax onomy
fast q
ĠTransl ator
ĠHealth Check
Ġadd File
act ual
Ġcomp osed
Tag ged
process es
inter pol
Ġtimes eries
Install er
P G
ĠT OP
Ġk ws
son ata
AL OG
ĠX sd
Ġref l
Ġauth z
percent age
b on
Ġm se
ĠB its
Ar row
Ġcopy Obj
Ġsecret Key
ĠLib rary
M alformed
ed By
Ġget Function
Ġget Trace
Ġfunction al
Ġconfig urator
ĠĠĠĠĠĠĠĠĠĠĠĠĠĠĠĠ ĠĠĠĠĠĠĠĠĠĠĠ
enc rypted
Ġhost ed
wrap ped
Ġsk in
ch e
ĠS heet
ĠN ON
Ġrequest ing
Ġparse Boolean
Ġinit iate
ĠgetS ymbol
Quiet ly
M ost
b ul
Ġm px
um or
Ġset Item
ook eeper
Ġpage Id
Ġme et
ĠStream ing
ĠConnection Interface
TR UE
Mer ges
N r
Ġv im
back trace
Un ix
ĠgetS tructure
Resource Bundle
SI ST
ĠCON F
ĠWh at
ĠWrap per
product s
V PC
n ic
ad os
ĠW idth
ind icator
Ġfail over
Ġcluster ing
BU TES
ĠGeneral Utility
S W
Ġi pt
Ġcache File
Connection Factory
ĠTable Name
Ġrestore d
Ġextr action
------------ ---
ĠServe HTTP
Cach es
sem antics
n at
Ġget Process
ĠC U
ĠO bj
Ġresponse Body
To Use
Ġfore cast
Ġfn match
ĠAction s
ĠChain code
" {
D ROP
W arehouse
b alancer
Ġp print
ĠA jax
Ġresponse Data
ĠX Y
Ġpan ics
ĠgetF ont
wh itespace
ĠTerm inal
Ġguarante e
ĠMojo ExecutionException
d ensity
end ation
Ġj edis
Res tricted
ĠWeb hook
ĠSY STEM
drop down
ĠImplement ed
Ġc rl
Ġde activate
Ġnot ified
An onymous
iter ate
ĠToken Type
Ġlin ewidth
Ġtouch es
ĠPersistent Volume
ĠMPS String
Ġ'> ='
J OIN
T ot
Y aml
ĠL F
orm ap
Ġfrom Json
Al ways
rot ation
B i
G e
R W
al m
Ġg a
Ġin ference
Ġget Runtime
us pend
ĠA CC
Ġr ss
ĠF igure
IN ET
Ġbreak point
Ġ7 5
ĠDB ID
Ġzip file
ĠTask Field
Ġgre at
Css Class
Ġg om
un able
Ġb m
ĠA nt
Ġremove Attribute
Ġsy ll
ĠSub net
Pool Size
Writ ing
activ ated
aph ore
Ġlem ma
W ER
n ight
Ġif NoneMatch
ure n
AL TER
Ref ToXen
Pr ivileged
Ġsuper Class
Parent Id
ĠMax imum
tool bar
f ort
Ġis Closed
Ġ* **
Ġe ager
Ġadd UsingAlias
ĠB IG
Ġsub command
RE ATER
data frame
Of Type
Resource Group
Job Input
ĠOption Parser
ĠgetRoot Path
PRI MARY
INTER FACE
Ġsatisf y
Ġsamp led
M odes
T W
h icle
Ġn rows
Ġd aily
Ġremove Listener
Ġrel ay
sl ots
ĠAttribute Value
CUR ITY
Ġrespon der
Ġgcd message
R s
f ers
Ġs on
end a
ĠN aming
Ġex tern
ector s
Ġlock ing
Decl ared
L vl
Ġ{ \
if rame
Ġr an
Ġset Image
Exception Handler
Dis connect
Ġc j
th ough
res erved
Ġadd Group
Res ets
ĠG lob
Ġfil etype
ĠEx change
ĠHTTP S
Document ation
Feature Call
ĠUI Component
gu est
A UTO
un ion
Ġget Java
ess enger
Ġset Source
ĠData Object
ENT IC
Max Results
Ġtempor arily
E p
[ -
== '
ĠGet String
Th umb
Ġpost fix
que ues
ĠgetM ember
block ing
Wh itelist
Ġocc up
ĠKub ernetes
in flux
al ed
is ible
Re p
RE CTION
Ġmin imize
Or Null
VER TEX
SC SI
Remov ing
sw ers
G auge
re quires
Ġf wd
Ġo Article
Ġget Handler
ot ope
ab c
Node Name
With in
Fire wall
Ġp yp
Ġk m
DE VICE
ĠSel f
ĠPut Uint
Ġcir c
Ġkb fs
Ġsatisf ied
Ġdruid G
Ġb ands
ĠS n
Ġh tlc
eld b
cl ic
Ġ201 0
Ġupper case
Fld Foreign
prob lem
Ġelastic search
cir cle
Ġviol ations
ĠC ron
Ġ1 16
def er
Ġwork around
Ġconn s
Auth enticator
ĠNode Interface
ĠTH REE
QUO TE
D ENT
v cs
Ġb igger
Ġfile Size
Ġwork book
Definition Version
Author ize
i qu
Ġpro bs
ĠM EM
user Id
ĠgetPro xy
ĠBO OLEAN
e Z
Ġset Style
ĠO pcodes
ec ol
Ġproperty Path
Ġaw are
URI Component
Art icles
\. \
d elet
f coe
g ml
č Ġĉ
er ated
ĠE qu
ST ORAGE
ĠClass Info
med ium
ĠServer Error
Ġpriv acy
Ġenter ing
Ġrad ix
g d
Ġun ary
Ġok http
oot hing
Bound ingBox
Ġdraw able
LOG IN
prop Types
L ost
it lement
ĠS olr
Ġset Model
Ġch em
ĠD eleted
Type Error
Ġx id
sp ot
Ġsl ack
Ġsl ashes
Ġinv ite
Ġts db
Ġmer ges
V oid
Ġrequest Data
BO OL
exist ent
([^ \
Mer ged
B IG
K ill
W AIT
Ġb last
Ġget Rule
Ġcl amp
Ġsort Order
Ġele vation
ĠEX IST
D n
F L
Ġh op
th at
Ġnot ifier
ĠM oz
Ġcontext id
ĠPart ial
ĠFace book
c gi
ul ner
work shop
request ed
G ING
b all
s ome
v server
an onymous
ĠN ested
ĠD uplicate
pre tty
ĠSc anner
ĠGP GET
Ġseed s
PACK AGE
Ġre conc
el f
Ġtr ie
List ing
SE CTION
ENT RY
ĠHttp URLConnection
Pol l
Ġfastpath TV
Ġ// ====================================================================
err no
ĠT ools
Ġmessage Id
Of Year
Return Value
Ġpass wd
Parameter Group
And roid
Ġtab lename
Pop ulate
ĠSIMP LE
il io
Ġw heel
Ġh unt
act ic
Log File
COM MAND
O id
Ġset Size
Of Work
ĠgetS ingle
pre p
ĠgetC ategory
EX PRESSION
Lead ing
Ġ//==================================================================== //
B r
P ager
in struction
de m
ĠB oth
sh adow
Ġdo ctrine
To Object
ble ms
ches tra
Ġ[{} ]"
Ġoutbound Marshaler
G RESS
ĠC ss
Ġlog o
Ġdefault Options
Ġcheck If
fl ight
Allow s
m aybe
Ġ- --------------------------------
Ġget JSON
Ġget Servlet
lo quent
Ġen rich
Ġlog Message
Ġsub nets
pre ference
decor ator
V ille
x sd
ĠS R
In clusive
Ġerr str
Ġj d
ĠK V
Parser RuleCall
Ġformatter s
BE FORE
d h
ing Mode
St ale
und s
Local ization
ĠIm ag
Lock s
ĠPol l
Ġ'^ '
ĠPi wik
' {
re start
Ġi st
ĠP red
Ġnode Data
Class ification
Ġdis c
Ġpart ner
Ġprint ing
Ġfloat s
Ġind s
Check Box
ĠPRE FERRED
m imeType
w allet
Ġre actor
is is
Ġh ql
Ġnew lines
res olution
pro jection
Comp ilation
ĠPl ayer
We bsite
Sm all
c andidate
Ġp ic
Ġgener ally
H A
f b
Ġl and
Ġget Unit
ad apt
As Array
Ġ'" ,
ĠResource Bundle
Comp ares
Ġredirect To
ĠSE EK
Ġsquare up
ĠgetSc ope
G MENT
P ause
f q
j av
or ic
Ġg round
In jector
ap ache
IN F
Get ting
Ġrel s
so ap
Ġ"/ ^
Web Socket
Ġali ased
d os
Ġres ample
Ġload ers
Render ed
Full Name
Pag ination
ĠOrig inal
] );
y ellow
In strument
Ġel im
Builder Interface
tra ffic
ĠParse Int
Associ ated
Ġreach able
orient ation
( -
th resh
ĠB L
Ġcur rencies
Attribute Name
ET WE
Ġsearch ed
check er
ĠPar sed
Ġtransform ations
collection s
Ġ\' {
ĠInstantiation Exception
3 00
c apture
p ersist
ĠN EXT
Con sume
Pro vided
Ġmin io
ĠUse ful
Ġquote Identifier
ĠEnd points
Lif etime
f h
t el
Ġo ci
ri a
Ġse em
User Data
Ġhost Name
... }?
Product Id
ĠgetElement ById
ĠBE GIN
Fact ories
Ġt er
ĠMap per
over write
ĠgetP ayload
Ġshort Name
Selector s
Calcul ator
Ġask ed
Am azon
G ORY
m odes
Ġcom ing
Ġresource Class
ĠCms Container
Ġleg al
Ġkub ernetes
ĠgetSec urity
Mag ic
S alt
Ġp key
an c
trib utor
ME TA
Ġln wire
ĠSCO PE
M oves
S ynchron
r df
ĠJ sp
ĠUp dated
Spec ify
Keys pace
ĠReg istration
gra ded
(? !
ĠFind er
Man ip
ĠAv ailability
ĠMkdir All
ETWE EN
h aps
Ġi j
ubl es
Ġch e
ĠM A
ĠAl ign
BO UND
ĠGu zzle
O ct
ur o
ch er
In cluded
ĠF TP
Ġfile mtime
Ġexp ensive
Resource Name
af ari
Char sets
iter ations
ĠST DOUT
Ġ9 6
ĠRead Closer
IC ODE
sent ence
Tim ed
Oneof Funcs
V ote
g un
g os
Ġget URL
Ġw av
ĠF amily
ĠE quals
ell ite
Ġclear Cache
Ġhe at
ĠSimple XMLElement
ĠRout ing
PR INT
Ob tains
Ġget Factory
Ġar ity
Not Allowed
Sh ipment
Ġclear Timeout
Ġdeploy ed
associ ation
R ON
m anaged
Ġa ccur
Ġret ention
Ġ// }
ab b
Ġadd On
List Type
Ġse o
auth ors
ĠPre vious
u ched
Ġis Root
Ġnot Found
oc ode
ĠO ps
Ġle ap
Be havi
Ġdraw n
SCA LE
ĠSECON D
R G
b ugs
Ġst reet
ĠP OL
LE G
log ged
ĠType Token
Ġ7 2
MP P
Ġobser ve
Ġtls Config
ĠSecret Key
RET UR
p ersistent
ĠC ountry
}" '
Sh ader
comp iled
CHE ME
Ġmount s
ĠCOM MENT
Ġpast e
MAN AGER
styles heet
UNI FORM
DeepCopy Into
tw itter
Ġclass Names
ĠH T
og en
Ġtarget Dir
ĠEn tries
ĠPre vent
ĠCan onical
Ġconverter s
PLU GIN
Ġn id
Ġd yn
To Index
Ġnext Sibling
Valid ators
Ġnamespace URI
Ġgraph s
Ġdecor ators
ĠKeyboard Interrupt
b en
g lyph
Ġre order
SE TTINGS
Ġfind Next
Ġheader Name
Ġmult iline
Ġprop Value
ĠSh ell
ĠRa ft
poration Id
ĠPhone Number
R B
W atermark
Ġh ello
Ġthrow ing
Entity Name
ĠRandom Variable
Inspect or
SCO PE
u k
us c
Ġcurrent Key
AL Y
Action Performed
Ġzip File
Ġ201 3
ĠSw ift
Ġx lsx
ĠIn finity
Class Info
Log out
Resource Inner
Ġlat ent
ĠPh ase
sql ite
ĠTree Set
ĠUN I
Rect angle
Ġwebs pace
Ġrgb a
MI SSING
ĠCN abu
Ġd ynam
Ġset New
Ġtime Period
Qu ant
Ġseq s
C MD
J K
L inux
p ause
Ġl int
Ġget To
ĠCom parison
Ġcor r
Policy Input
**************** ********
Ġcs rf
ĠgetB ound
arg v
'] )
Ġnorm als
Ġoverr iding
Ġtot als
Cir cle
G G
em oji
Ġid p
ĠIn ner
Ġra ck
Ġfl avor
Ġsrc Path
Ġsql str
que ued
Ġxml db
SER VED
Api Key
ĠSup ported
Ġpres sed
Plan e
clo sing
rocess ing
E q
F rag
Ġv stack
Ġget Queue
Ġget Device
ol ete
Ġh al
op acity
ID S
ick ness
Ġlat ency
exp iration
Http Response
mem o
Ġdot s
ĠLinked HashSet
Ġv g
qu ick
Ġex its
Ġnot ifies
ject ory
Attribute Type
Ġred undant
Ġaccess ing
Ġsuccess or
QUE UE
ĠLine String
spl ice
M utable
n avigation
Ġb readcrumb
Ġset Method
Ġas semble
Ġun read
Ġqu bits
An swers
min o
UL AR
sel ves
Be arer
Ġgraph ic
Min or
Ġcapt ured
ĠTw itter
Ġf use
Ġd to
Ġk warg
Ġpre defined
og y
tem perature
Array List
Ġdist ingu
Ġexcl uding
ĠgetField Name
m ixed
Ġget Limit
Ġw l
Ġcreate Table
Ġoutput Path
Ġren ders
Next SinglePageAsync
ĠgetDefault Value
Ġnick name
S ingleton
Ġt en
Ġc group
le ave
Ġex ha
ĠR oles
Res pond
ĠG ot
pro bs
Ġcreate Form
Ext ends
Ġoverlap s
Ġprivile ges
M obile
V oucher
p able
el ves
Ġv otes
Re cs
Ġfind First
With Params
ĠPl ay
F atal
M igrate
f x
or ique
el m
Ġis Primitive
Ġfile Content
Ġrequest Uri
min us
Ġag reement
ds a
Ġpoly line
Ġdescrib es
o is
s leep
Ġ_ __
ĠT ASK
nt ology
Ġred irection
ĠEnc rypt
Ġur lopen
Sn ippet
ĠOpt im
olo ader
attrib s
R ewrite
h ood
Ġis Public
Ġr u
ĠP e
Ġsh orter
Ġbuild Form
ĠArray Object
index ed
ĠgetM onth
ĠWeb Driver
Ġrespect ively
MEM BER
Ġs ex
st ores
Ġget Html
ow el
Ġread Lock
Col on
ann ers
Trans ient
UM NS
cp Date
ĠAction Event
J ust
S q
im ents
Ġu g
Ġat an
ĠJ OB
Un recognized
Ġtra ces
Ġterm ination
Ġshort en
ĠProcess ing
edit able
}. {
Ġff i
ĠSm art
i ans
Ġset File
ĠO b
av atar
Tra cer
\\ \
Ġ8 64
Job Output
Ġutc now
C ENT
F lex
Ġn ls
ĠM AV
Ġen s
ant ares
Ad resses
ĠIs Zero
second ary
fig ure
Ġsc ans
Call ing
Valid ity
members hip
Pers ister
ĠFFT ok
D uplic
Ġfor warded
ab ases
ver ified
ĠR ob
ĠB roadcast
ĠG T
ĠG rant
url encoded
Ġtext area
Ġ8 5
DO C
ĠĠĠĠĠĠĠĠĠĠĠĠĠĠĠĠĠĠĠĠĠĠĠĠĠĠĠĠĠĠĠĠ ĠĠĠĠ
Ġez p
Ġ'// '
Ġc ds
Ġe Unset
oc ache
ln g
Ġowner Document
IfNot Set
Ġestabl ished
E cho
Ġst or
est yle
Ġex am
Ġr up
Ġ# ################################
iss ion
Ġmenu Item
ĠPh ysical
ival ence
Ġfld Path
Ġsugg estion
S QUARE
a ight
m aking
s quare
Ġe ast
Ġstring Value
DE LIMITER
ĠField Info
qual ified
Ġlin ux
ĠTop ology
CF G
C d
C rop
F riendly
fa v
Ġvar args
String Value
Ġrun as
TT OM
ĠStr ategy
lt i
ele port
D t
S il
el imit
ĠC ross
Ġset End
Ġx lim
ĠTh eme
Ġrole Name
go od
DS A
Month s
Ġdiag ram
Note book
d on
Ġc ty
Ġd j
Ġv l
Ġ* ****************************************************************
Ġcol ored
Out come
For Key
ĠCheck sum
ĠPar sing
ĠgetFormatted Message
L ucene
Ġf leet
Ġex plain
ĠG auge
ĠError List
ĠID ENT
ĠClass Node
Ġselect s
Enc odes
M AR
b id
c v
o verrides
Ġset Position
Ġput IfAbsent
for ced
ĠEncode ToString
er un
st em
ĠC ast
Ġnew Child
IN ST
Ġline To
OD B
cre ates
Ġstruct ured
off ice
dec rypt
Ġintersect s
D TO
F N
f ld
Ġre vers
Ġn avigator
Ġto ur
to oltip
AL PH
From Cache
Ġour selves
Ver ifies
MA IN
PRI ORITY
broad cast
y label
Ġj c
Ġen ables
Ġend Pos
ET AIL
ĠClass Name
inter vals
Ġobser vers
: </
S OL
Ġs uggest
ĠR uby
1 99
K ube
h mac
Ġs aw
Ġb h
im ens
Ġnew est
per f
Ġsub plot
Ġpr ices
ĠSt reet
Result Inner
ĠEx amples
ĠgetD irectory
aut oload
Ġcommun ity
Glob als
C ENTER
Ġdat os
ĠMap s
Ġstack s
Ġnormal izer
man ual
ĠBatch Get
Ġuc words
Groupe Adresse
C id
L d
M ixed
o ire
Ġset Locale
Ġend Point
ĠgetC o
OT AL
ĠRead able
Ġvert s
ĠDT M
ĠcreateModel Element
' ^
Ġp ct
Ġis Running
Ġlist Item
Ġwrite Byte
ac ion
Log ged
Line String
Ġcorrect ed
B ug
R U
Ġs orter
Ġto URL
En sures
ĠJ ms
ide os
raw types
ĠRel ative
Ġconstruct ors
fil enames
~~~~ ~~~~
ĠWE B
t unnel
Ġ} ,
el es
Ġget Required
log o
ĠURI SyntaxException
ĠQu ick
Tab let
E tcd
M d
n od
č Ġĉĉĉ
Ġre ward
Ġw ake
Ġset To
ĠD ist
For User
app id
Inv itation
Ġfq dn
Ġinterpret ed
' ),
Ġget Read
ĠS PA
Re jected
ĠM any
Ġpar ity
TH ER
rok en
Ġrecent ly
Ġunn ecessary
x label
Ġ" ~
Ġret h
ĠT T
ĠL ANG
Node List
Response Inner
Ġbuild ers
ĠST REAM
Ġhold ing
ĠMult ipart
m ongo
Ġget Integer
Ġh ole
Ġset View
Ġpar m
ĠY es
sub net
Ġmarshall er
Security Policy
ĠMatch String
b one
Ġas sembly
Ġcall ers
Ġport folio
Ph oto
Notification Impl
pop ulate
HAND LER
eleg ram
ein sum
y ou
Ġd ql
Ġset Sub
St ud
Ġsub path
ĠPro posal
Ġcache Dir
ĠAPI s
head ing
Ġchunk ed
Ġ----------------------------------------------------------------- ---------
m peg
Ġp name
ĠE NotificationImpl
Ġstr s
Ġhas Option
Connect Gateway
IST ER
SU CH
Ġtri angles
front end
Ġrequ ester
Ġ' *.
ĠN d
sub scriptions
ank s
Ġkeep ing
Ġmicro seconds
ĠClean up
Ġpreced ing
NTR ANSFER
V OL
s cheduler
Ġfil er
Ġclass ify
Ġcolumn Names
Ġpart ially
Ġdebug ger
\\ .
Ġconf irmed
ĠST ATIC
Ġimplement ing
network s
Ġthreshold s
Rad io
Adjust ment
RETUR NTRANSFER
J WT
S ms
W W
Ġc ri
Ġc dn
ar win
Ġv o
ull et
ĠE OL
ĠR ename
Ġappend ing
led ge
Network s
ĠSpec ification
Ġsk ew
P ING
p ic
r atic
ot er
Ġis Granted
Ġset Cache
Ġadd Command
Ġx d
Ġform ed
Ġab c
Manager Factory
Run nable
If Exists
bser vice
Order Item
Contact s
ĠENT ER
Ob tain
Lar ge
ĠgetSuper class
M C
T enant
ĠP ipe
ĠM vc
Ġdevice Name
AIL ABLE
Mut ation
x B
in ant
Ġ[ {
Ġal gorithms
Ġ? ,
ĠJ enkins
Ġdis crete
Ġpart icle
Sc ores
her its
Ġidx s
Ġpartial s
Ġs phere
Ġ' ::
Re pl
St ops
ĠIn spect
Ġ'/ (
Ġput Int
loc ator
Ġsl ight
roll back
cent ers
Ġbundle Name
CA PT
ĠTrim Prefix
PRI VATE
Ġez c
Skill s
ĠPRI MARY
VID ER
T RA
Ġt q
Ġg ob
Ġres ets
ĠN T
Ġcomponent Type
ĠgetId entity
Controller Configuration
BU TTON
POST FIELDS
Ġhex adecimal
Ġs ac
Ġl u
Ġis digit
Ġsub query
Ġcreate Instance
Ġdis carded
tra de
RI VER
ĠSH ORT
lar avel
| |
Ġis Absolute
Ġk ms
Ġpro posed
ĠIn ject
ph ony
arsh als
ert aint
Ġsim ulate
mark down
Card inality
Ġcontract s
USE D
Dum my
LAT IN
ĠN B
Ġde precation
Ġat least
war der
Ġmax Age
SH IP
ĠDat um
PARAMETER S
ĠgetSign ature
v g
v p
ra form
Ġk eras
iv ial
File Entry
Ġdoc Id
Th en
Ġdel tas
cs rf
ten ant
ĠgetD uration
Ġiterator s
IG NORE
aff ected
cuss ions
iph ers
r x
ĠN u
Ġe h
out s
ĠW allet
Not ice
From Context
Dir Path
Ġver ifier
TH ON
lin ux
c am
Ġthis Arg
Ġget Generic
od ay
ĠP rice
Ġj ac
Ġfl ask
plic ated
And Filename
Update Struct
Cur r
Domain Name
Serial izes
ĠPAT TERN
U V
Ġa Class
ĠM agento
Ġsub plots
Ġ{} .
run s
Ġrandom ly
n il
Ġis Annotation
Ġcon form
pl ink
ĠM ed
ĠRe ject
URL Exception
ĠgetPath name
bot o
install er
Ġmt as
ĠDel ay
G ROUND
Ġl im
Ġ1 10
Ġlog File
Ġ4 1
cont rollers
Ġtask Name
Ġparameter Types
object ive
Reg istr
Ġred uction
dis connect
Ġ{} ."
Long itude
Ġrb ac
Temp File
ĠgetSel ect
ĠFR AME
S INGLE
Ġs ays
Ġa chie
tr acing
ĠCom ms
ĠgetS pec
Ġ5 000
Mod al
Find ings
ĠQt Core
w ill
re ports
Ġn th
Ġl ti
ĠC ENTER
Ġe Set
Ch em
AN K
ĠgetM essages
ĠPar allel
ĠFor bidden
ĠExecution Exception
~ '
Ġp Rq
Ġget Actual
Ġto Index
Ġ* ********************************
Ġset Url
ole d
Ġtmp dir
Ġ'{ :
BU ILD
ĠgetResource AsStream
Ġ19 2
ident ifiers
grad ient
Ġnano Time
C AS
h alf
Ġf st
el t
Ġw eld
Ġim ap
11 1
Dat atype
Decode Error
SSE S
F ETCH
Ġa ud
Ġp illar
out ines
Ch ron
Ġcustom ize
Fl atten
ĠLo gs
Ġdrop out
Bot h
wait ing
ĠgetReal Path
Ġ' ...'
st h
err ing
ĠTr ust
null able
ĠgetColumn Name
Ġh ive
Ġparam Value
class ification
ateg or
ĠSign ing
^^ ^^
Ġv cs
ĠT enant
Ġex if
ĠB ook
Ġun zip
Ġsource Code
ry pts
ren d
head s
H EL
W P
s anitize
em odified
ĠH our
Ġchain ed
ĠTree Node
omatic ally
Ġknow ledge
Equal ity
WE EK
Ġhydr ated
Dr upal
567 89
s mtp
ar ly
Ġget Workspace
Ġsub title
Ġrel Path
ĠgetD imension
ĠRem oves
Ġsent inel
Ġlookup s
Ġrefresh Token
Ġ'__ '
ĠgetCanonical Name
WAR DED
L ite
g ui
l ate
} [
at ile
ĠS to
ot ypes
Ġst ages
if o
log ical
Ġconnect ivity
Sl ave
Ġcomput ing
Ġclip board
READ Y
ĠFaces Context
comput ed
/ *
Ġa u
Ġm it
Ġm ysqli
Ġget Web
pe m
pro x
Sub set
Ġ({ ...}?
u el
y ii
Ġs ax
Ġd k
ra per
ĠG UID
Config ures
ĠUn ary
Ġag o
ĠData store
ĠNode ID
ORIZ ONT
T unnel
d og
le ets
il ium
ad ic
ĠT ar
ĠD istance
Ġadd Defaults
Value Pair
() `
PO OL
conf lict
ĠRed shift
rot ate
ĠJMS Exception
ORIZONT AL
S ous
op ens
Ġsplit ting
Ġme ant
)) )
ĠTask s
Ġfit ness
U DP
s am
Ġi FieldSeq
st p
Ġh ence
Ġset Variable
Ġrequest Options
Ġon tol
AN CH
ĠInternal ServerError
Language Code
Assign ed
ctx t
PL ATE
P ATCH
re cipient
Ġn gram
Ġm im
In coming
Ġe b
Ġe IsSet
RE Q
For Parent
Sh a
trans actions
ĠConvert s
Ġer as
h ard
qu iet
ĠI lluminate
ĠB ounds
Ġmethod Names
Ġim t
PI C
esh ell
" ).
R ating
Ġi a
id le
Ġr nd
not ice
Field Names
cre ator
Ġtimeout s
ĠFl at
Ġmt f
Ġwp db
Ġamb iguous
- \\
> ,
G LOBAL
R D
l b
in cluded
up pet
Ġresponse Code
Ġcontainer Name
wh itelist
Ġ"< ?
Ġmer chant
Ġappro ved
Ġsus pend
Ġm ant
Ġas m
ec lipse
Ġstr ategies
ĠCon sume
Ġexist ed
ps im
Transl ated
Ġdeploy ments
Deser ialize
I SH
it ored
Ġerr wrap
Re connect
ĠM obile
ert y
Ġmem cached
xff ff
thes is
Delet ing
e very
y lim
Ġs chemes
Ġa fp
ĠB roker
Pro of
ĠW ARN
ph ysical
Ġmodule Id
Se o
ĠgetD ay
IM PORT
Ġnorm path
IST ORY
Ġmis c
ĠSalt Cloud
M APPING
} ;
ar ms
Ġis Visible
Ġset Font
SE CRET
Ġdest inations
Ġ8 6
plic ity
Ġstop Propagation
Build ers
oned DateTime
Ġfraction al
A O
T ar
Ġg old
Ġv rf
Ġde crease
Ġon Delete
ĠB IT
Ġjson rpc
ĠY our
); \
(?: (?:
Ġservlet Context
Look s
ĠEXIST S
T ok
work ing
ĠRequest Context
ĠRun ning
10 2
Ġsimpl ified
elem etry
B rand
P LO
Ġs warm
ĠS Cons
Ġis Un
Ġas semb
type Parameters
Pre tty
ĠDate Interval
Order ing
vers ations
ĠDocument ation
ĠTx n
ĠRa ises
ar ity
Ġm aven
Ġget Iterator
Ġres erve
end points
ĠM ARK
Ġen gines
Ġser ving
Ġinter ested
ĠRetrie ves
Ġband width
ĠGray F
( :
> {$
S izer
y e
Ġ: "
Ġj b
Ġj ax
Ġx e
Input Exception
Ġorder by
ĠK ill
Ġfetch er
Ġtransform ers
br and
Display Name
ĠgetNode Type
ĠPod s
L oss
re aded
ess ian
Ġset Object
Class name
Ġop ener
Ġmin Value
Ġtemplate Path
Char Code
Is Valid
ĠSI ResourceException
multi plier
ĠRa ise
Intercept ors
B tn
m aterial
ĠgetC ached
Ġ^ \
Created At
Ġ0 00
Set Status
ĠArray Utils
Ġmem cache
Ġgra ins
Ġnormalize Path
Break point
ĠisTrace Enabled
Consum ed
Ġversion Info
Log ic
ĠRE F
char acters
NOT ICE
Ġuncom pressed
ĠErrCodeResource NotFoundException
1 16
D ed
G Y
S parse
s udo
u dd
Ġget Writer
Ġget Setting
Ġcon c
In bound
ĠB psim
Ġun resolved
Ġpublic ation
Ġparse Double
TT Y
Ġcomponent Name
Ġtotal Count
Ġshort est
open gis
ĠgetR andom
Ġpanel s
ĠSPA CE
) /'
C G
H old
L ON
T pl
g amma
Ġget value
Ġget Global
Ġnew File
iv o
Ġr n
Ġclass loader
cont ainers
mod ifier
Ġac quired
Ġtx s
ne eds
So ap
RESULT S
erc ise
Ġescap ing
Rob ot
ili ary
L ater
S ol
S ITE
c red
ation Token
St and
Ġon Success
Ġy ellow
der iv
Ġentity Metadata
ĠRead Only
arg inal
open id
Ġcp us
Thread Pool
Ġcountry Code
Ġmed i
Updated At
ĠSD Variable
N B
i ency
ur k
am azon
un ed
Ġv el
Pro vide
Ġrow Key
Ġhy phen
Ġforward ing
Ġredu cer
at as
Ġlog Error
ast ers
ĠTh rott
ock s
ick s
DE LI
Ġcolor bar
ĠRE SPONSE
ĠCall er
ĠPRO CESS
oriz on
Ġincrement al
ĠBytes IO
un g
Ġis Default
ĠA M
Ġtr ip
ĠL iterals
Ġj q
do es
ĠBad Parameter
period s
ĠBY TE
H EX
L ed
L IN
b uff
s caled
Ġt el
om p
um in
Ġset Active
Ġcomp ares
ĠSc ore
stack overflow
Stat istic
Ġear liest
FOR WARDED
ĠTH IS
align ed
W K
Y AML
en ode
al arm
Ġv fs
Ġh stack
ard own
ĠBpsim Package
: $
M ysql
c redit
m av
Ġres idual
Ġset I
Builder Factory
sp ent
ĠIN VOK
ĠCON NECTION
cp us
Bucket Name
avig ate
Ġaltern atives
bucket s
h w
Ġa id
Ġtr ash
ĠF s
Ġkey Area
Ġend Of
Ġclient ID
Ġq q
ĠRest art
ĠMalformed URLException
M id
Ġc data
al go
Ġb ill
Ġtarget ed
Ġjson Data
ĠValue Enforcer
Column Names
Ġtemp Dir
ĠOption ally
ĠSplit N
embed ded
Contract s
P B
Z ONE
Ġp ids
ra b
pl er
Ġe at
Re peated
are t
Ġback ed
Comp iled
ĠMin ute
ĠComplet ion
a id
b box
l aunch
Ġset Entity
Ġrequest Body
Ġquery string
ĠRe peat
Ġrun Info
ĠCh an
Ġ/* #
Ident ities
ĠON LY
Ġturn s
Invok es
Ġdeserial ization
ĠXSL T
d av
or chestra
Ġm anag
Ġthe ms
li ers
Data Provider
Ġnode Path
Ġop posite
ĠEx clude
Ġver ifies
Ġaggreg ator
sk u
IV ED
Deser ial
Pred iction
WHITE SPACE
S leep
j d
Ġg oc
Ġto Int
ĠT ER
plet s
Ġac ct
================================ ================
Payment Method
contact s
i ers
t body
Ġget Types
Ġparam Type
Ġapp Config
ret ch
ĠK B
W raps
} {$
Ġc amp
et ag
am a
ĠP U
Ġx sl
ĠH MAC
Ġext s
plit ude
Certificate Authority
ĠUP LOAD
ĠCir cuit
RESH OLD
G r
I ps
Z eros
Ġf lo
Ġd q
Ġget Parser
Ġis Type
ĠM I
ĠE DataType
Ġvalid ations
arch i
Ġfunc Name
az ily
Async WithHttpInfo
Del iver
ĠPAR T
Secret s
ĠWait Group
] }"
s rv
ĠP B
Ġrequest Context
Ġreg enerate
Cl s
c losure
Ġset Constraint
str pos
Element Exception
Im ap
Ġarg max
Ġoper ate
Ġdirect ed
ĠDis covery
Over write
Ġcatalog ue
ĠSO CK
ĠTEM PLATE
R ates
p romise
Ġb ts
Ġv oltage
ĠE c
ĠG roovy
ĠH H
Ġwe ird
Ġoutput Line
Ġdecl aring
ĠPhp Parser
pick le
QUO TES
T AL
l f
Ġn ational
st alk
ĠS EL
Ġis Connected
Ġset Width
Ġcol span
ĠH ASH
Ġy ml
comm unity
Ġautos caling
E v
it ivity
Ġget One
ad m
Ġor acle
Ġad manager
Ġ` "
AG ING
Ġ201 2
Media Type
Ġlazy Get
re cent
ort ex
con ds
Ġfield Def
Ġread From
Index er
Ġdir Name
Ġhandle Exception
Ġ"% "
ĠClient Exception
Ġcalcul ations
reference d
Cor rection
gu ess
Ġsit uation
@ '
S quared
ĠH ello
Ġhas Property
Ġle ak
An im
Ġcommand Name
Ġcommand Line
Ġrec all
ĠNode Type
Ġstop Ch
Target ing
Ġ'# ^
ĠDis cussion
case cmp
cd n
Ġserialized Size
report ing
tim ed
Ġvocab ulary
s dk
Ġs ag
se x
ag ue
Res ume
Ġx r
Ġread Data
Ġ` {$
Ġcons ists
cor rection
pol ygon
emon ic
Ġmount ed
ĠaddDefaults IfNotSet
g ies
t urn
Ġkey ring
ok u
Ġformat Message
AR B
Ġreq s
Ġjoin Column
Ġorg anizations
Change Event
Ġmask s
ĠDeprec ation
ARE A
++ ++
Ġescap eshell
. {$
G reater
Ex plorer
Ġpro jected
Ġlog its
Ġpre load
Ġhas Class
ST AR
Ġorder Id
Ġrelation Name
Host Name
Ġplot ting
Ġkeep s
Character Id
H its
} \'
Ġa k
de e
Ġ/ >
ĠS PI
Ġis Selected
Ġnew Val
Ġ< ?
Ġadd MethodCall
ec onds
par ation
Ġlast Page
Ġ6 9
ĠIs NotFound
Ġdot ted
ĠCan vas
ĠWR ITE
Ġthems elves
M ER
Ġb rain
ĠP aper
ĠM AN
Ġadd New
Ġout standing
Ġcase Sensitive
Ġpr t
For Resource
Dec odes
db name
Internal Error
Mark s
Ġĉĉĉĉ ĉĉĉ
uc ceeded
s ms
Ġg ps
Ġe f
ĠP ORT
ĠD elet
our c
con version
Ġon error
Ġsc affold
Ġclient Config
Ġrep air
Ġcompare AndSet
Ġevalu ates
ĠStandard Charsets
Ġconj unction
Ġget Byte
Ġon Mouse
Ġsh aring
ĠType Element
Server Exception
Parse Error
Executor Service
Ġincre asing
Der ived
ĠObser ve
T ell
b io
ul ations
ĠC USTOM
ĠObject Name
Group ing
User Info
Ġ` {
Ġ6 7
ĠAn alytics
ĠAn swer
ĠCall ing
Ġhex dec
ĠNoSuch CP
Aut os
evalu ate
b racket
on line
Ġp ys
ro gram
ex us
ĠS AML
Ġto mb
Ġnew Config
To Bytes
Ġq a
Ġstream Id
ĠType Name
Record ing
comp act
Que ued
ĠPan ic
Ġset Resource
Pro be
Ġsu cc
Ġdomain Name
PAR SE
Ġcalcul ating
Sequence Number
Ġsyn ced
SIGN ED
dum my
UserSegment Entry
C URL
F ALSE
I OD
W AS
h old
Ġg iving
Ġ0 9
code c
Ġnum s
oid s
Group Version
Ġ'% (
Ġcar ousel
ĠActive Record
ĠRece ived
/ #
S lide
Ġo prot
de coder
ab out
ĠL a
Ġcreate Service
Ġpl ist
Ġq os
Ġproperty Type
Ġcolor ize
ĠgetM imeType
Ġinsert ing
Ġapplication Name
Ġretry ing
ĠCmsResource Filter
Ġcapt cha
pixel s
Ġg aps
pt ide
ĠS park
ĠC T
Ġset Int
Ġinstance Name
ĠJ F
Ġinput Type
ĠGet Service
posit ive
ANG ED
Ġpres erved
exec utor
Place holders
implement ed
ĠAggreg ation
Activ ities
j i
Ġm anagers
ĠD if
out ube
Un used
Notification Required
Join s
ĠNetwork Interface
(.* ?)
C n
k n
č ĠĠĠĠĠĠĠĠĠĠĠĠĠ
ĠĠ ĉ
Ġm T
ĠP LU
Ġapp id
Ġmin ify
Ġ5 1
Ġexecute Command
\" >"
ĠgetB uild
ĠProdu cer
Sym fony
datas ets
p icture
Ġf abric
ĠN DArray
Ġurl decode
LE X
ĠLe ave
Ġphone Number
(. +
SUP PORTED
ĠACT IVE
un ix
Ġw ikipedia
Ġsc anning
ĠCom pression
ĠUn der
#{ @
ĠAct or
MOD IFIED
Altern ative
Ġc itation
Ġth rew
Ġde que
ĠD id
Ġx Axis
EN AME
Store Exception
Ġrole Id
ĠHttp Status
ĠMod ified
ĠOne Login
Alloc ator
________ ________
C aption
L java
Ġp du
Ġv d
Ġget Operation
UN C
Ġ{} \
Vari ants
ugg estion
Ġenter prise
ĠDat atype
HO O
Ġwildcard s
Ġimpro ve
N aN
Ġe NotificationRequired
Ġof fs
Ġset Attributes
ĠI Node
cal es
Ġmap To
cur ring
num s
Ġpres er
Ġchang elog
phanum eric
H over
Q S
c ube
Ġre ly
Ġm otion
Pro t
ĠH orizontal
Data store
ĠObject Id
Ġ4 3
Ġok ay
Ġspecific ally
Ġround s
Category Id
ĠPer cent
ĠBit Set
CONFIG URATION
Ġkub eadm
ĠcreateFrom Format
ĠBE FORE
Ġapprox imate
EXIST S
ĠgetCl uster
qu ester
Re visions
ĠB io
Ġse quential
Ġpl urals
Ġservice ID
Iter ations
part y
Debug f
ĠLE SS
BR ACKET
isot ropy
Ġf type
Ġget Execution
Ġget Edit
ĠP GP
Ġfile Id
con sume
ĠB C
AT AL
ĠJ AVA
list ing
log out
Mem o
Ġbar code
Ġmet as
batch es
ĠPK CS
Camel Case
Ġret Value
Data Table
Ġfore ver
Ġjoin ing
ĠAdd ing
Access Key
Next WithServiceResponseAsync
DI G
Ġexcl usion
bad ge
V ia
Ġm en
un expected
um ing
ĠD um
Ġstr aight
Ġlog level
String Builder
Ġtarget File
User Group
ik a
Ġmeta Model
Man age
/ >
m ol
ct ime
ĠC B
Ġnot Empty
Ġadd Rule
Ġparam Types
Ġcreate File
To Update
By Index
iss a
With Headers
ie ve
Check box
Ġsave fig
ĠTrans formation
part itions
Ġchain hash
Ġcoll ation
sy mlink
Ġtwe ak
i ability
ĠĠ Ċ
Ġm ar
Ġo cpDate
Ġ1 14
Ġex planation
ĠIn jector
Ġqu er
ĠPro jection
Ġtop Level
ĠContent s
Notification Template
USER NAME
DD L
M ix
Ġp ainter
Ġm anner
ĠS MS
ĠP ATCH
Event Data
Le ave
Ġinitial ise
Root Path
Order Id
Ġdes ktop
ĠPort let
Ġrm dir
ĠED IT
G l
Ġnew Index
Ġsh orthand
Ġfail ing
Ġ'& #
ĠStd in
plan e
Ġf uzzy
Ġ[ $
se cs
ĠS F
od a
os id
ĠH ome
doc let
ĠPHP doc
Ġcore Type
limit ed
Ġcoll ab
ĠComp ound
Upper Bound
D IN
Ġn cols
Ġm Input
Ġis True
Ġto Be
Ġset Template
ri p
get Element
ĠGet Instance
ĠObject Type
ĠSub scriber
Ġshift ed
A HOO
C rawler
W ARD
w heel
es ome
le arn
ro at
ut y
ic er
im ports
Ġel igible
ĠIn ternet
ĠH ub
ĠRe view
Ġmin Y
col lector
Ġoffset Get
Find ing
tick labels
Ġmo vie
deg ree
Pred ict
Asc ii
Ġt ill
List Options
Ġparent Class
Ġcache Id
Ġref ers
ĠUser Interface
Act ivate
UND LE
HO UR
AMP LE
Ġm enus
Ġget URI
Ġfrom string
IT ICAL
Open ing
Op acity
SA ML
ĠMarshal JSON
Ġ36 5
Invocation Error
GOR ITH
A st
f ee
m r
Ġfor ge
ĠC ause
Sc enario
Command Line
\" :
IC Y
ĠĠĠĠĠĠĠĠĠĠĠĠĠĠĠĠĠĠĠĠĠĠĠĠĠĠĠĠĠĠĠĠ Ġ
CONT AINER
Ġdiag nostic
ĠCRE ATED
STRA CT
Ġbehavi ors
Ġp om
ur a
Ġnew Size
ĠJ Label
Ġtok s
col lapse
Ġprepare Statement
Role Arn
Decl arations
Ġg h
Ġw avelength
ĠD iv
Ġoutput Dir
Get All
ou sed
version ed
Spec ifier
AC CEPT
PRO GRAM
Ġappropri ately
Cost s
ru ption
Pur ge
Ġintegr al
H OLDER
ĠH OST
Request Context
Ġelement Type
uid s
Ġaut ocomplete
ĠFl uent
Ġrecogn ize
Concat en
) (
Ġf ly
Ġn orth
ro te
Ġif f
ĠC assandra
og raf
Ġpl ans
ac f
Ġpage Context
ĠService Locator
ĠSh ift
Del im
ffect ive
Ġperm it
sur vey
pectr al
ĠDiag nostic
Ġ864 00
F qn
G reen
g allery
le arning
Ġis Interface
ab i
ĠCom poser
Ġsp y
ĠgetParent File
Lat ency
Ġconflict ing
Ġide a
ĠWOR D
E very
al ic
Ġto Path
Ġx axis
Ġsub graph
Ġall uxio
File Object
Ġquery pb
Ġoption Name
Rule Set
Ġteam s
Ġur is
Ġdem o
Ġbeh ind
Ġif o
ex pressions
Ġset Icon
Ġmax X
Ġ5 5
Ġph en
Max Size
Mark ed
Forward ing
Prox ies
re write
Ġg aussian
Ġget St
ĠT RA
ĠL ava
ĠString Helper
Ġadd Tag
ph er
AL F
ĠAl tern
track s
Connect s
isf ied
> {
F ed
w l
Ġm ctx
Ġb ol
pt ic
ĠC D
Ġmax Y
VER S
da emon
Limit ExceededException
ecess arily
ĠXA Exception
b an
h ave
s itemap
Ġuser data
Variable Name
Ġtt y
mail er
Ġworkspace Name
transform er
ĠSoft Layer
Game Session
ĠXMLStream Exception
P D
k ub
v in
w rong
Ġget Related
ĠC sv
ĠD C
Ġwe ather
Ġcontent Types
Time Stamp
Ref und
LI KE
aw r
dat atype
Ġps d
Ġblob s
Const s
V D
Ġre plicas
ing Exception
ĠS print
od ash
if er
Ġu ids
Ġ? >"
Ġmin Length
Ġsplit ter
Ġexecutor Service
ĠcasFeat Code
* (
V a
ĠP ACK
ĠL ive
Ġthrow Error
ĠIn gress
sl ices
Next Page
ox id
Change Set
ĠStr ipe
Ġicon v
fac et
Ġar cs
ph erical
lib s
ĠWh ile
2 04
J oint
T e
s List
Ġb ubble
Ġis Value
Ġis Success
ra ck
Re action
Ġset Result
ĠP ersist
Ġrequest Url
Ġoutput Pos
Ġmin X
ĠType Desc
Ġsign s
Ġwrap pers
Ġexit ed
Ġreflect ed
Api Id
ĠCON NECT
Enc losing
ĠDO WN
ĠMIN UTE
ĠsetStatus Code
Ġontol ogy
Ġo Table
ĠN AN
ĠP DB
ĠI V
ĠF ax
ĠM et
Ġstat istic
conf irmed
63 9
ĠMatch es
74 3
Ġcomplex ity
x lim
al Unit
Ġg RPC
Ġis Equal
Ġres ized
Ġk afka
and i
ĠR R
Ġchild s
enc il
B orders
h h
Ġv ect
Ġan aly
able Type
Ġstr ides
ug e
ĠW in
Ġopen id
Se verity
Draw er
relationship s
Compat ibility
I AN
c andidates
r as
or ry
Ġst rength
th umb
ĠM ul
ĠH AS
Ġhas Method
ĠDis card
Mark ers
Bl ur
ĠRelation al
T Z
is set
Ġg b
Ġst anza
Ġout File
Ġfil ls
cs r
VER T
status es
Ġaccept ance
Protocol s
Ġentire ly
Ġs Path
are ns
10 5
Ġdown case
Ġupper Bound
ĠSpec ify
ĠAccess DeniedException
CHAR S
O US
s f
Ġo Auth
Ġb rowse
Re quires
out come
ĠH DF
Ġrem ap
SE ND
Ġattr Value
ĠPrint Stream
ĠLocal DateTime
Ġrc ube
Vector s
Ġfac ets
Serial izable
Ġcare t
ĠTransformer Exception
ĠProb lem
ers et
Ġset Input
ĠR i
Column Index
AC COUNT
cy cler
ĠResource Field
ites paces
ĠgetProperty Value
ĠQu ote
trace back
Ġbus y
Ġparallel ism
Background Color
ĠMOD EL
Ġdevelop ers
I gnoring
x A
de ployment
Re ject
ĠG MT
Ġdb Q
ĠgetS QL
Create OrUpdate
Se quences
Ġspace Id
'] ['
Ġdiv ider
Ġfall s
Ġgp Vertex
ĠXml TypeCode
Ġgrad ing
xFF FF
Cir cuit
Comb ine
ĠBeta Api
b roker
Ġm elis
Ġget Icon
ĠF allback
RE PLACE
Ġoffset Set
Ġpost Type
query set
TH READ
pres ence
Ġv n
qu ad
Ġbyte Buffer
ĠgetP h
ĠDE SCRIPTION
ĠParse Uint
Ġselection s
Ġknow s
Qual ification
ĠgetSec ond
Soft ware
Lex icon
ĠgetCre ated
I CON
Ġc ors
et ing
Ġv alu
Ġh b
Ġst icky
Ġset Location
ĠB B
ĠSet Status
Ġimage Type
Gener ating
Ġcoll Dealer
Ġaccumul ate
Ġbtc util
ĠBus iness
trins ic
7 55
L ongs
t ex
Ġp Req
Ġch ord
are as
Ġclose Quietly
Definition Id
Row Index
10 8
ĠLink s
std in
ĠCR C
Ġexponent ial
Ġaf finity
P x
d anger
Ġs quared
ĠC tx
Ġset Auto
Ġadd Event
ĠIn secure
Ġgener ics
Ġauth entic
Ġcons olid
ĠFI RST
ĠgetR oles
oo Keeper
ĠSo ap
Install ation
ĠCR LF
Ġcamel Case
Ġrol ling
ĠVI EW
ĠTdb Shop
J sp
j p
en queue
Ġf ram
ĠP a
ĠD ER
Ġsub List
read ing
par er
Out line
Log Level
ĠST AR
Ġredirect ed
Ġans i
Ġgp u
Tx t
ĠgetNode Name
CB C
Ġhel ps
H sm
P ix
d ash
m nt
Ġx UserAgent
ĠW orld
ĠĠĠĠĠĠĠĠĠĠĠĠĠĠĠĠ ĠĠĠĠĠĠĠĠĠĠ
Ġ10 2
Iterator Iterator
Sl ider
ĠWarn ings
Ġturn ed
ĠImmutable Map
Ġmultip rocessing
ĠEmbed ded
- $
W ay
z y
Ġc our
Ġy yy
Ġ'/ [^
atal ogs
ĠCre ating
mat ter
ĠSalt InvocationError
ĠIMP ORT
oused own
Ġget Kind
In tern
nt actic
Th rows
... )
Enum eration
Ġ'[ %
201 8
Ġsus pended
a ver
Ġset ContentType
Ġap plet
ĠB enchmark
Not In
Ġ10 4
Ġcor outine
cr s
ĠOpen SSL
ĠLar avel
s in
s ilent
Ġ( `
Ġo Data
Ġnext Char
Ġdb us
Head ing
we bsite
10 4
ĠIs Nil
CA ST
mar ize
lex ible
ĠSp atial
Ġprox ied
ĠBool Var
) $
r w
tr ust
ĠH ive
Data Object
Ġmax len
Al g
Ġtransl atable
full name
Ġpair wise
Sp i
Term inated
Site Root
Cancel led
Ġgeom etries
ĠALI GN
D ash
j mp
Ġs cheduling
lo ver
ĠD etails
Dis criminator
Ġsql types
VER BOSE
ĠTo String
split s
Ġct l
ĠOrg anizations
Front end
Ġgenes is
Ġ204 8
B AR
Ġget Access
pt o
ĠS ig
om es
ĠG regorian
Key Exception
An imator
For Deletion
ĠUser Agent
ĠWh ich
ĠUN DEFINED
Ġmodify ing
Ġgrad ients
Ġcapt ures
( \'
M iddle
\ ']
ĠH A
Im porter
=" {
Configuration Input
Ġfn s
Ins ensitive
ĠPublish er
Ġsucceed s
icult y
f usc
Ġth in
ent ropy
err y
Ġfile Type
ĠH ave
Or Whitespace
ĠErr NotFound
EL L
Ġdiff ers
Year s
Ġconcurrent ly
il og
Ġun e
Ġsub key
Ġspec ifications
EN S
Hash Code
ĠSpl FileInfo
Ġn ets
Ġget Results
Ġis Allowed
Ġk am
Ġadd Data
Ġmin i
Ġschema Name
Ġkind s
allel e
Ġ'/^ \
Ġdeal ing
B race
R ue
T st
Ġa Params
Ġo Order
ens ities
ST ACK
Ġpl ate
Event Id
sub type
ĠData Table
ym orphic
Ġmk time
Redirect s
ĠMe an
Ġslight ly
A ux
s al
Ġw ar
ĠC atch
vi a
Ġhas Error
ĠNew Writer
Method Type
Ġauth n
Ġday OfWeek
ĠWrite To
me as
ĠTree Builder
Stop ping
ĠgetCurrent User
aut os
Ġarch ives
en umber
se o
Ġget Inner
Add On
ĠK MS
Bean Name
ĠOperation Status
ĠRO LE
ĠRecursive IteratorIterator
C V
z eros
Ġre plies
Ġf re
Ġex cel
Ġset From
Ġstart col
Ġinput File
Ġremove Element
Per f
CON DITION
ven ient
condition al
Mult imap
Disk s
ĠNotFound HttpException
ĠTick et
Su ites
) `
P F
m oment
Ġo Item
ĠS quare
Ġadd Row
Ġfile Contents
ind iv
Ġfirst Name
Ġdat ad
auth enticate
Ġ'% .
Ġdet ached
Ġer ase
ĠVis it
OPER ATION
F iber
O verr
s ynchronized
x ref
pl ug
up y
Ġpre ds
ĠGet Resource
Ġ\" %
Sel ler
Iter ates
font s
Ġgv r
Multipart Upload
ĠgetDisplay Name
f i
h d
Ġf unding
ĠM ime
Pro filer
Ġ"% (
11 5
Convert ed
ĠBase Field
Ġpopul ates
Ġbean Class
ĠD rools
ĠM T
ĠM Y
stan bul
Ġsub missions
Ġ3 02
ĠTh us
Ġmax Depth
Ġcount ing
(' "
Http s
root s
ĠgetPro p
Ġconcaten ated
Ġvault BaseUrl
aggreg ation
m igrate
et ty
ĠIn s
Ġread Value
64 4
EN DED
Ġpost erior
ĠEvent Listener
Ġbackup s
Click Listener
SY MBOL
quis ition
Ġd ow
Ġg op
de ad
ack s
ĠM ost
Key Type
Object Reference
From Config
ĠgetS ection
ĠgetP ayment
Ġph on
Ġenc aps
ĠgetB ounds
fact ors
ĠExp ires
ĠMPS Constants
Altern atives
Ġdeliver ed
calcul ated
M Y
Ġret code
ĠP G
Id List
Ġnode Info
ĠEvent Emitter
gr ass
================================================================ ========
REMO VE
ĠSorted Set
Consist ency
OrWhitespace Only
H ANGUL
T tl
Ġo g
In i
ĠT EST
Ġset On
ĠG tk
Ġlast Error
Exec uting
10 6
ĠgetT ax
ĠJob ID
Track s
cli de
cap abilities
Download s
C pu
V m
b ench
u clide
Ġp aren
Ġex plorer
Ġlo s
Ġadd Widget
() }"
ĠgetT erm
1 32
ĠT Y
Ġk c
Ġr uby
Ġset Required
str ix
Class Path
Ġread Resource
Option Rel
ĠgetD escriptor
ĠWeb App
Ġsingleton List
ĠStack Trace
Sur vey
LAY ER
oole d
Ġsugg ested
ĠeZContent Object
in ject
Ġn io
om ents
ĠP eek
Ġdata Table
Ġ@ @
RE AK
PI O
Start up
Be Empty
Ġstack overflow
init ializer
ĠForm BuilderInterface
IFI C
ĠMark down
ĠKub elet
c ases
f rac
t ake
Ġm type
ut ations
Ġget ById
um l
Argument TypeReference
content Type
Timeout Exception
ĠConfiguration Exception
ĠruleJvm TypeParameter
ĠDet ector
Combo Box
Networking Spec
F B
_ \
c ri
at im
Ġget Helper
Ġget Lock
Ġst aging
Ġu df
Ġwith Header
ĠCon sum
Ġad mission
Ġ"\ $
CH O
11 4
33 39
del egate
ffic iency
Test ing
SA FE
Ġiso format
Ġmeas ured
ĠAlloc ate
oh n
PUB LISH
Ġreth row
or ation
Ġr q
ĠTr unc
Node ID
Ġdoc Block
Ġwork dir
Chain code
Bo ard
Ġsomew here
B ED
C ity
Ġc ategorical
Ġget Buffer
ag rid
Ġe js
Ġerror Messages
Ġy ii
ĠUn defined
Ġview Name
Ġcopy right
ĠY AHOO
AG IC
ĠNot Valid
Ġ9 99
ĠHttp Headers
ĠServiceResponse WithHeaders
Ġbar s
Ġsur f
ĠPop ulate
S quare
Ġs Url
Ġo Basket
Ġk a
ri ends
Ġread Unsigned
RE CORD
Ġnext Index
Ġimage color
Ġnamespace d
Ġrep et
12 2
10 9
dis covery
AS N
sw ap
ACT IV
Peer ing
ĠDoes NotExist
Ġsilent ly
confirm ation
SSE D
c ascade
Ġk not
Ġof Nullable
oc s
get info
Ġse per
File Loader
sub s
ĠNode Data
Ġdec ay
Work spaces
Ġ"' %
ĠPre view
Ġful fill
ĠMeas Rec
: <
D on
S ensor
c op
Ġg one
un signed
ub b
ĠM AIN
ĠIn sets
Ġread Byte
Ġtoken Type
ĠgetS creen
Ġbit Pos
Exp orter
Ġgen otype
ĠStr ict
ATTRI BUTES
Ġoct et
Ġdeleg ates
Ġparenthes is
F INDER
T uning
h al
i w
l ined
| "
el astic
Ġget External
Ġh du
ĠC ent
ĠA ck
Ġapp name
Ġon click
Ġcurrent Line
ĠJ avascript
Ġstack Trace
ĠPre tty
Limit er
Ġadmin istrator
Ġlar avel
CW SIP
R gb
S peech
a es
Ġh er
ĠC y
Ex periment
Ġat las
ans wers
Config Path
Ġ6 6
12 0
Reference d
Ġunique Id
Ġpartic ipants
direct ive
Ġkub elet
Ġalter ed
Micro soft
ĠMoz u
Y es
p d
ic ial
ĠA JAX
Ġcurrent Position
LE ASE
OR IG
Object ID
Return ed
ĠNew Encoder
Ġboolean Node
Model Name
TRAN SACTION
Unmarshal er
DAT ABASE
C ERT
W ave
\ ',
u ing
Ġa kt
Ġd urable
Ġget Range
ĠG ive
Com pose
Or Equal
Ġsp ell
utor ial
Deploy ments
Ġaccur ate
Ġget Var
ol l
ĠM L
op ing
ĠV LAN
Ġremove From
ĠgetS egment
Ġtri ples
Ġmon itors
prob ability
ĠRendering Hints
uclide an
> &
R DD
S F
Ġi stanbul
Ġf ocused
Ġb ugs
Ġset Defaults
Type EClass
Ġsub parsers
Ġmessage Type
Ġne utr
Ġremove EventListener
For Type
Length s
Width s
TH AN
exp iry
med ian
ĠDec rypt
Ġlayout s
Ġunder stand
Open ID
Ġdr upal
ĠComp ilation
Ġcar rier
STIN ATION
ĠCr ud
. {
G ATIVE
T wig
Ġs ides
st reet
ĠT urn
ĠE Q
ĠB R
ĠG REATER
Ġcolumn Count
Al go
Ġ5 4
Ġenv s
ĠgetC al
Cl auses
ĠThrow s
Ġabsolute Path
seq s
Instant iate
ARG S
g ray
Ġd types
ĠC lo
ĠP L
To oltip
par agraph
Ġstore Name
Sort s
decl aration
duplic ates
Ant lr
l ify
Ġget Report
ĠD en
ord inate
Ġrem otes
Ġsc enarios
EN DER
Ġinit ially
Ġdest Path
Child Nodes
Ġdisplay s
PRO FILE
Ġchanges et
ĠPoint s
Ġflow s
ĠCondition al
ĠBl ack
ĠBIN ARY
ĠisAnnotation Present
on ing
Ġp or
Ġp unctuation
ĠS CHEMA
Ġh ull
ĠA sc
ĠP NG
ĠE Tag
ĠO THER
ĠH idden
Data Exception
ĠJ cr
Ġargs ort
arch ar
Sub match
ĠMessage Digest
gra der
Ġatom Container
author ize
ĠPRO JECT
ĠBuffered Writer
black list
Ġbright ness
ĠMozu Url
o ose
s olr
} $
Ġc ame
ur y
Ġb ench
Ġb race
Ġget Admin
Ġis Modified
Ġclass Path
Ġsc rolling
State Change
Block Size
IP Address
Ġbackground Color
Ġdeser ializer
Syntax Error
ĠaddPost Param
d w
tr ait
Ġin variant
id ler
ĠA x
Ġset Action
Ġfield Info
Ġop aque
Instance Name
Ġtmp Dir
API TAL
Ġexpr s
ĠIndex ed
Ġpresent ation
PRE SS
WN ER
ech n
Ġfaces Context
P assed
b irth
l ag
er ber
al le
Ġj sp
pos als
ĠList Options
Ġutil ities
Ġraw Value
Part icipant
Inter sect
Module Name
org an
Ġgp g
Real m
ndi Name
Ġescapeshell arg
GORITH M
G uid
O X
b ag
in verse
Ġget OutputStream
Ġget FilePath
Ġe id
Ġset Parameters
ĠH EL
ĠEx ist
reg isters
ET ag
PT H
Entity Type
Ġ'" %
\" ,
Channel Request
ĠElement Tree
Ġsol utions
Ġdiag nostics
Ġing ress
> ]*
m imetype
Ġf ed
un ched
Ġget Valid
Ġget Mapping
Ġh g
ĠO VER
Type Sequence
te e
Item Type
For Class
Call Context
Tra de
Ġinitial izing
comp ound
Ġconversion s
Virtual Interface
Ġjar File
SK IP
Pres ence
R ich
T bl
le aved
Ġget Rows
ĠS UM
Ġe Notify
ĠU i
order ing
Access Review
Ref Type
store d
dis trict
ether net
Ġflush ed
uts ch
Equ ivalent
P iece
ĠS sh
id Adresse
An no
ĠgetS cript
ĠgetP er
Ġretrie val
Det ected
ĠEX P
ĠgetNext Token
Ġprovision ing
fort un
I UM
Ġa udience
ĠD eregister
UserSegment Rel
Sous Quartier
( /
S DK
k lass
v ement
al ter
Ġset Token
sh ard
ĠW IDTH
Ġrem ains
Ġbuild Data
ĠRequest Builder
Start Date
ĠInvalid RequestException
RI PT
local es
EXT RA
rout ine
ĠExpress Route
1 123
] ))
j ournal
ent ions
Ġw er
iv ar
ĠP ages
Ġuser agent
Ġcurrent File
Im mediate
ĠK NX
Ġwhere In
Ġev als
Ġclear s
Ġlower Bound
spec ies
ĠImmutable Set
ĠruleJvm ParameterizedTypeReference
Break er
Subnet Group
F ork
e ig
Ġt aint
Ġk undera
Config Map
col on
Ġact s
ĠgetC ountry
trans ient
trans itions
ĠSecurity Context
Ġfinder Cache
Ġchrom osome
Ġdeserial ized
Ġexplo ded
ESCA PED
Tol erance
m its
p yp
ab il
ĠC he
Im p
Ġ6 2
ĠAn imation
Ġrece ivers
ĠOptions Resolver
Font Size
OW EL
Ġcamel ize
Ġum ask
Ġmeas ures
C LO
S PI
x n
Ġi Index
Ġoperation Name
Ġassign s
Ġsymbol Variable
Ġinspect or
Cor rupt
hist ogram
econ fig
ĠPLU GIN
} &
Ġf ut
Ġb gp
Ġget Groups
ĠC AN
RE PORT
Ġsc anned
ĠRun ner
ĠBlock s
Ġkv s
redirect s
operation al
ĠServlet Context
Ġgt k
E JB
J O
S AN
Ġ ew
Ġb k
Ġcontext ual
Ġle f
ĠObject InputStream
CT OR
Ġreal Path
System Exit
Inv ite
Ġts v
ĠWork ing
Ġ'[ ]'
sib ling
Ġ'/^ [
peak s
ĠInvok es
c map
ex posure
Re cipients
ST ATIC
Ġhead s
View port
Co upon
Ġps r
MET ADATA
S phere
d escribe
Ġf coe
Ġp st
ĠS pring
ĠC rypt
ĠC ALL
pro per
Ġtrans it
ĠGet Bucket
An g
Ġz f
Ġz en
mod s
match er
email s
Ġvisit ors
Tx sd
ĠApi SuccessResponse
Ġless on
Ġorganization Id
Cast Exception
ĠPdf Name
(. +)
Ġchron ograf
! --
b undles
i ous
ĠL AT
ĠRes olved
ĠgetAttribute Value
Ġacc um
ĠgetResource Type
ĠScript able
ĠLeg acy
. <
F un
c rypt
Ġin secure
ĠC String
file Path
ĠNew Server
Ġ<< =
Ġpayload s
ĠTem porary
ĠAd apt
Ġcost s
Pull Request
ĠBEL Script
is tries
il ot
Ġget StackTrace
ra di
ĠT RI
Ġby tecode
Property Type
ĠType Meta
Resource Definition
Instance Group
ĠMap ped
mark ers
Op code
ĠGu ard
ĠEN CODING
ĠEnc rypted
ĠSC RIPT
Ġanalys es
mav link
C rypt
N b
N avigator
in strument
Ġi id
Ġf irmware
Ġ1 15
Ġparent Type
Av g
Ġsat uration
Ġmc rypt
Ġspl ine
Basic Auth
ern ate
ĠFire wall
Ord inal
D s
E DED
M tx
P at
Ġs aml
Ġf ab
Ġ} "
Ġm ind
ĠS TE
Ġh adoop
Ġr slt
Ġstr Value
ac am
ĠEx periment
Ġregister ing
Pl ans
ĠWith Cancel
Ġqual ifiers
Ġpriv Key
= [
m ock
Ġre boot
Ġ' =='
ter eo
Ġset Filter
Ġsub Path
ST ER
Ġnext Node
Ġq p
Ġ7 8
new line
ĠgetB ucket
Ġcap able
Ġrot ated
Ġnan os
9999 99
Ġrecomm end
= #{
R o
S CHEME
j wt
ĠS PEC
Ġis Local
Ġtable Alias
Item Stream
sp in
Ġcmd line
ĠCont ainers
AB ILITY
ĠIN ST
ĠWith Timeout
Ġ19 6
ĠTIME STAMP
EE K
Deg ree
v olumes
w ildcard
z k
on us
Ġst ere
ĠM utation
ĠE r
Ġun checked
Col lab
Ġgroup id
Ġloc us
Sh aring
ĠRE FERENCE
transl ated
Sk etch
ĠCur ve
Availability Estimate
T M
c ountries
f ish
i ating
Ġs Type
Ġg n
Ġget And
end ian
Ġset Param
li us
ition ally
Ġq Name
For warded
Ġold Name
Ġwatch ing
ention ally
Ġrev oked
Ġbus es
sk y
COMP ONENT
c redential
ĠN avigation
Ġlo b
ĠL INK
Ġun d
Cont ain
sh int
Ġsupport ing
Rec ogn
Aut om
Ġinc ident
ĠProdu ces
ĠMag Rec
ĠIntegr ation
Behavi ors
} );
Ġth resh
Ġd ag
Ġan chors
us pended
Ġpath Name
ĠV T
Ġmult is
ĠHTTP Client
Expr s
ĠSIG TERM
Standard s
ĠFire fox
Ġide mpot
Ġwor st
X D
id o
Ġnew Query
Ġj uju
Ġcreate Command
Ġsc oring
Ġmax size
ĠLO CATION
ĠData Store
process ors
Ġut ter
ĠStat istics
ĠVAR IABLE
Book mark
ĠSim ilar
DAT ETIME
ĠaddField To
Ġvox el
PLO Y
M IC
O WS
Ġ: '
Ġw arm
ĠC ORS
Ġj query
Definition Inner
NAME D
Char m
Ġdevice Id
Is olation
ĠProperty Type
cap s
sim ilar
ĠFaces Config
pur pose
c rc
h param
el er
Ġex pl
Ġcreate User
Ġcurrent Element
av ers
Configuration Set
Ġinvalid ation
Ġ7 6
NUM ERIC
olid ays
Ġgom ock
CAPT URE
s ampling
Ġa io
ĠT akes
Ġset Definition
Ġset Selected
Ġj ms
Ġcheck Type
Ġmake Request
ĠFile Reader
Ġdownload s
>> >
ĠMut ex
1 50
_ {$
ed Object
Ġst ash
Ġset Formatter
ĠP sr
Ġpre m
Ġobject ID
ĠIm ages
tag ged
Ġprom otion
cr ud
plement al
ĠConst s
ĠgetMeta Data
Bracket s
Dial ect
( \"
F Q
p es
Ġt rap
or se
Ġg edcom
Ġget U
ĠP ick
ser v
Ġevent Manager
yn a
ov ers
ĠSpec ific
Ġbounding Box
!! !!
ĠInd ices
ĠCons ider
Ġx en
ĠW ildcard
com parison
Ġdocument ed
Ġrec reate
Page Id
10 7
font size
HAND LE
E c
J ms
Ġ[ -
ch ains
Ġis Same
ĠI de
Ġadd Node
From Path
Ġrecord Data
Ġmulti plication
HTTP HEADER
Ġcomparison s
UST ER
Ġexperiment al
Mock Recorder
Comm its
D urable
Ġd fa
Ġis Last
ĠI I
ĠF oo
ĠL ike
ĠG aussian
Ġitem Type
ME TRI
Ġpost ed
ram id
Ġifc Rel
LOW ER
ĠRel oad
Ġrank ing
ĠJS Type
Attempt ing
Ġaz imuth
Mon ey
P NG
al Code
Ġo v
ag ain
Ġx u
pro filer
ĠError Exception
Instance Request
pre pend
Ġtemp dir
Atom ic
}/ {$
ĠNoSuch ElementException
ĠExt ensions
Off line
ĠEND POINT
White Space
W I
Ġg ce
Ġfile Data
Ġtype Info
Request Info
Ġse gs
Open ed
SQL Exception
ĠgetUser Id
Ġcn f
Ġcontr ast
f k
z h
Ġp ract
ĠS anity
im ensions
Ġk appa
Ġset Properties
ĠF Q
Ġstring utils
Ġrequest Headers
face book
Ġfind ById
ĠQ A
ĠRem ember
ĠSc roll
Ġwatch ed
ĠEX CEPTION
Ann ounce
ĠGl ue
b gp
m elis
Ġget Out
Ġtr ig
Ġsw f
Pan ic
Cor ner
Ġsymlink s
1 64
d T
ate ur
ĠS ID
Ġto ok
Ġro b
Ġnum Of
Ġcontext Path
:// %
block ed
eric a
Ġcharacter istic
conn ector
ĠUN IX
Ġsem i
gp u
Cancel ed
Pur chase
cleot ide
ĠcreateModelElement ForParent
v iz
x fer
op h
Ġtype Of
eg g
args pec
Ġaut oc
Ġrepresent ative
ĠLe ase
Non Empty
Me as
Ġown ership
Sn iffer
Characters CharacterId
C LE
Ġc rawl
Ġex cess
IN ode
Ġmax Height
Hand led
TT OKEN
Ġover head
Ġgo a
ĠHttp Exception
SH IFT
Ġexpected Type
ĠDec ision
Ġchart s
ĠSl ot
D ie
ĠP ager
Ġcode gen
Ġ'{ }:
ĠResource Exception
ĠConnection Error
Ġsecurity Context
(?: [
ĠgetSel ection
quot a
Fore ground
E lems
m essaging
u ence
ed ir
ĠT X
Ġy axis
IN C
ĠJ an
Ġreg ression
ĠX MPP
Ġab breviated
Pre f
pre ferences
gen ome
import ant
AV AILABLE
ĠBad Request
> [
L ITERAL
ro red
Ġl ru
Ġk ick
Ġde e
and ir
ser vlet
ĠgetM ark
Ġsystem d
ĠGener ation
Direct ConnectGateway
TY PO
* }
- ]+
/ ?
T I
{ \
Ġs pect
Ġre construct
Ġd sl
Ġg andi
ĠS SM
Ġto Bytes
Ġto wards
up loaded
orm sg
Ġu ptime
pos able
Ġback slash
01 0
ĠST ANDARD
Ġchunk size
Before Call
sw agger
FIN ISH
ĠgetError Message
ĠCondition s
Ġack nowled
RGB A
Ġquer ied
Ġ( [
Ġal n
Ġcreate TextNode
Ġcl as
Response Body
Ġam qp
DB IDs
ose conds
Ġlanguage Id
Ġcommit ment
OIN TER
Ġarch ived
atter y
ĠProdu ce
Ġpro portion
Ġerror Info
Ġid Site
String To
Ġinstance ID
Ġcache Item
Ġrule Name
ĠDI STINCT
WOR DS
Ġpub sub
ASS IGN
ĠObser ver
' )"
er vations
ĠC over
ĠN an
ĠP UB
Ġdis tributions
Ġcache Path
Ġpage Y
Trans itions
Ġencode URIComponent
Ġpy plot
Ġfix tures
Ġwatch ers
Batch Size
addr s
ĠEncode d
schedule d
ĠRGB A
D ensity
Q t
q t
Ġre used
Ġl atch
Ġget Builder
Ġget Validation
Ġget Translation
ub es
ĠC a
Ġnew Type
ĠP OINTER
To Read
of fer
Ġtrans mit
Ġcl z
Ġval or
Dec re
Pr ime
ĠQ UE
16 8
PER MISSION
Ġalt itude
Print f
ĠWait ing
ĠTimeout Exception
f ork
g m
Ġc err
it a
it re
Ġget Serializer
Ġde utsch
int ro
Ġim possible
Ġcurrent Version
Work book
Sign als
UP LOAD
ocab ulary
Ġide al
Ġa ir
ent ly
Ġget Activity
ĠG arp
Ġx xx
ee Name
itch en
ĠAPI Call
End Of
Ġ>> =
Ġimport lib
Role Binding
ĠWeb Element
Validate BeforeCall
Ġside bar
Multi plier
Ġgre p
Ġinteg rate
Ġsubstit utions
ĠFlag Set
ĠEXT RA
_ $
l ot
Ġt ld
Ġl max
Ġcontext list
Ġpr imitives
mp loy
Job Id
11 3
Load B
Ġchain ing
ced ures
ĠLe af
ĠgetContext ClassLoader
abl ish
ches tr
ĠgetShort Name
resid ue
M essaging
Ġi ri
Ġp ins
Ġ' **
Ġget Account
Ġhas Text
Ġtarget Name
EN SE
field set
ĠImage Stream
ĠCON ST
Agent s
ĠStr Util
Dist inct
Ġcy an
Ġglyph s
ĠprojectId OrPath
Ġdatab ox
WIND OW
H C
T D
} ]"
Ġg am
un st
Ġget Q
Ġget Static
Ġ// ////////////////////////////////
Ġbreak points
fin ally
Ġbase Uri
Tra in
ĠgetP attern
Ġ8 4
Job Status
Ġenc losure
ĠgetF ac
ĠQt Gui
counter s
ĠgetSh ared
pub key
> )
N P
e vidence
Ġt ro
Ġd ark
Ġget Widget
ĠP ot
ĠM aterial
Ġstart time
ĠObject OutputStream
Ġlast Name
Ġbot her
Ġconnect s
ĠJson Ld
ĠAddress es
dif ference
Ġeff ort
ĠPASS WORD
+ /'
Ġget Z
Ġst ay
ĠI B
Ġcl d
ĠCom ments
Ġ"" ,
11 7
mask ed
ĠMin imum
Ġstrict ly
ĠAuthentication Exception
Ġquick ly
ĠConf lict
Appro val
Ġfrozen set
L atch
M R
g em
Ġi y
Ġis Admin
Ġe phemeral
Re act
con crete
ĠH adoop
ĠH IGH
Ġdo Privileged
Ġprint able
db s
OT A
ĠConfiguration Keys
Ġenviron s
XY Z
; &
s ensitive
Ġf gets
th an
Ġthrow Feat
Ġstr casecmp
Ġro ck
Ġformat Url
Ġitem Name
Ġ'' );
**** *
min ion
Ġover writing
Ġrec ycle
10 3
ĠDB Exception
Ġifc Structural
ĠgetConfig Param
.* ?
ĠInter ceptor
Ġeffect ively
Patch es
Ok Tst
Ġtcp ip
Ġfeat OkTst
ĠthrowFeat Missing
( {}
= :
C a
p ow
ur is
Ġto Remove
Ġset Display
ID D
ĠObject Mapper
Ġ10 8
LI GHT
ĠEntity Type
Ġfq n
Ġgor outines
Ġafp Chain
G ray
as m
Ġadd Callback
ĠG ems
ĠV OWEL
Client Id
Ġwork spaces
Ġcomm as
Par a
Ag ain
Del imit
Ġlon s
Evalu ates
ĠRout es
Fact ors
ĠVari ables
AAAA AAAA
Consum ers
T w
h ydr
n ado
Ġnew Width
Ġ1 12
ĠP M
Ġas Array
Ġj cr
Ġim plied
Ġresponse Type
Ġstart Position
ĠRe cipient
Ġjoin Table
CE D
16 6
:: $
pop ulation
Ġappro val
q os
tr unc
Ġb ump
ag ents
ĠC as
est imate
Ġar m
Con cern
ĠO SS
Ġclass Info
ĠV FS
enc er
ĠErrCode NotFoundException
Ġconsist ing
Ġclock wise
ij ack
Ġmot or
ĠRUN NING
ADI US
Ġin sets
Ġget Char
Ġw ild
as pect
Ġch apter
lock s
ĠV oice
Query Result
Ġlocal Storage
Ġlabel ed
Ġtop odata
ĠZ e
ĠIP Address
Ġreason able
Email Address
Ġfit ting
ĠMem cached
Ġec dsa
TypeEnum EEnum
Ġdeleg ation
ĠRound Trip
ĠDi adoc
Gate ways
ĠPACK AGE
Ġtopodata pb
O racle
b t
p assed
y ield
Ġnew List
Ġe viction
ĠD ense
ĠD etermin
Ġon load
Value Error
Ġdo Get
Ġcreate Response
Ġpage X
ĠType Variable
PE CTED
pre ferred
sp i
Ad vanced
ĠgetM an
Ġdisplay ing
Ġdifferent ly
2 24
l g
l ighter
Ġs ns
Ġd set
ex ion
age Maker
ĠL ow
Ġresponse Text
Ġconnection Name
ĠWe ak
Ġ10 5
Inter section
11 9
Ġpublish ing
Wait Time
AST ER
Ġaffected Rows
Ġbtc json
ĠPan el
YN AM
1 55
} }"
ĠS arl
Re ached
ĠF all
Ġsub commands
Un pack
dis count
Normal ization
ĠZip Entry
Ġdem and
ĠARG UMENT
Ġc df
Ġget Annotations
Ġr ich
com pose
Ġparse String
Ġos p
Ġfl uent
Ġwork Unit
As k
View Data
ĠCall s
Mail er
mis c
X L
de veloper
Ġb ro
ad or
ĠC ar
Ġ1 99
Ġvar y
ĠRe covery
Version ed
ĠgetC ore
Rule Token
ĠRE PLACE
11 11
ĠEntity Interface
Ġsem icolon
Drop ped
Processing Exception
ĠPRI VATE
Ġmot if
extr as
Ġc ql
Ġc URL
Type Arguments
Ġrequest Path
Ġwh ence
ole cular
sc ene
Or Expression
Ap plet
Ġpass ive
Ġ"/ \
ĠInput Source
right s
Ġpur chase
ĠMarshal er
BE AN
ĠIM achine
NC Y
Ġprovision ed
L it
S ING
b ber
f abric
h ello
n es
Ġa ver
Ġf ive
se ud
Ġg esture
Ġ" !"
ĠT C
Ġcurrent Token
Ġwork shop
Ġsearch able
Block ed
alys es
ĠAgent SIB
Pay ments
Wish List
ĠSaltCloud SystemExit
2 64
S ales
g ens
Ġv ms
ex ports
Ġset X
Ġ# :
oc al
ĠCon straints
ĠKey Event
Ġcomplet ions
ged com
Ġlat ter
Ind icates
Ġdownload ing
Ġscalar s
embed ding
Ġdeveloper guide
ĠpReq Vars
F ul
c aster
is ms
Ġb ln
Ġget Named
Ġ> '
Ġset Password
Ġnext Tick
Ġext rem
VER IFY
PO SE
ĠClient Response
Ġcannot BeEmpty
ĠSe verity
Timestamp s
ĠAnnot ated
ĠT or
ack son
type of
com pression
Ġversion added
ĠErr no
ĠRE MO
wh at
Vari ation
Ġbasic ally
PHP NAME
bas is
Aff ected
ĠReplica Set
ertaint y
) }"
N at
c ake
Ġ[ \
ĠC ach
ĠP ower
AL IAS
Start Position
Ġindent ed
off line
ĠAct ual
Ġdetermin ing
Voice Connector
Ġg son
ex clusive
Ġnew Values
ĠM essaging
Ġbe at
Ġ4 43
Ġ6 8
Sub stitution
cre ating
ĠclassName Id
Wh at
Ġesc apes
Ġman ufacturer
Ġalloc ations
FORM ATION
ĠSI ErrorException
ĠPag edList
Temporary File
Chron ology
S PE
r al
Ġadd Resource
Ġtime To
Not hing
Ġoffset Exists
DE CIMAL
Process Error
less on
Ġdes truct
Ġproduct Id
Ġdig ester
del im
ĠComp act
Sm art
Trunc ated
( {$
T RACE
s ess
x p
Ġc ouch
is p
ĠS ITE
Ġis Whitespace
Ġ// @
Ġan alytics
Ġcreate Message
Ġargs pec
Ġafter wards
Exec uted
TH RESHOLD
Ġ9 9999
ĠIP s
Ġsol ar
ĠStd Encoding
Common Modifier
arb all
accept ed
Ġn ecessarily
Ġget ters
Ġde cre
ĠM n
Config From
Ġbase path
Ġcons ul
Ġstyle able
Ġgrid x
Json Object
Ġ^ (
ĠAuthor ize
Assert s
Ġpers ister
Ġpen alty
ĠRev oke
in et
Ġm sp
Ġget Update
Ġh ouse
um ps
Re present
Con ference
Ġset Connection
ĠD FS
ĠCon cat
Ġtime Unit
UR SE
CT R
Ġinter actions
ĠForm Interface
Ġshort name
Associ ate
Ġready State
SM ALL
Ġpmag plotlib
. `
Ġ( #
Ġ' }
ĠA cl
ĠM ASK
Ġal most
Pre m
HTTP Request
ĠRel ated
PL Y
watch er
ĠgetChild Nodes
gre SQL
Duplic ates
ĠpRq Vs
1 0000
U ris
Ġs he
Ġf aker
Ġp gb
Ġb os
Ex amples
ĠA ff
Ġit m
Ġfile Extension
Ġro ugh
ĠV i
Node Data
Un safe
Ġdis position
Ġlast Char
dis cussion
Ġreport Failures
ĠStatus Text
Sign atures
ĠErrCode Too
Ġduration s
Ġps i
Ġhist orical
CRE MENT
ĠMust Compile
ĠTim ed
Ġdistingu ish
S V
s ulu
ĠS sl
Ġ< %
ĠU nt
Ġform Params
Error f
Ġmod ifies
av y
Ġquery ing
Ġbase Type
Ġab br
start up
OT HER
ĠClient Error
UM P
Ġdraw er
Day OfWeek
ĠTerm inate
inu ation
Drop down
ĠgetComponent Type
ĠComb ine
: {}
S dk
an isotropy
Ġk r
res triction
Ġbase Class
DE CL
ĠDis connect
Ġmost ly
ĠIss uer
ĠDes ired
N ecessary
] ['
re covery
Ġs ched
id ue
Ġnew Obj
ĠD ead
Type Map
Ġu d
Ġfield Data
ĠH EX
og g
With Code
Format ting
ĠCheck ed
cy cles
Ġweb pack
mult is
TL R
Ġunc on
Ġprior it
Ġplay ing
ĠLI B
ĠQU O
Syn ced
Ġgv k
I am
S ORT
p ct
Ġadd Style
Ġwith Param
Ġobject Class
valid ators
ĠGet Session
ĠSet Value
ĠDE VICE
Ġpk cs
ĠHand shake
Av atar
Ġorigin ally
Ġes pec
pass wd
Ġsyn pred
[...]
