{"<pad>":0,"<s>":1,"</s>":2,"<unk>":3,"<mask>":4,"!":5,"\"":6,"#":7,"$":8,"%":9,"&":10,"'":11,"(":12,")":13,"*":14,"+":15,",":16,"-":17,".":18,"/":19,"0":20,"1":21,"2":22,"3":23,"4":24,"5":25,"6":26,"7":27,"8":28,"9":29,":":30,";":31,"<":32,"=":33,">":34,"?":35,"@":36,"A":37,"B":38,"C":39,"D":40,"E":41,"F":42,"G":43,"H":44,"I":45,"J":46,"K":47,"L":48,"M":49,"N":50,"O":51,"P":52,"Q":53,"R":54,"S":55,"T":56,"U":57,"V":58,"W":59,"X":60,"Y":61,"Z":62,"[":63,"\\":64,"]":65,"^":66,"_":67,"`":68,"a":69,"b":70,"c":71,"d":72,"e":73,"f":74,"g":75,"h":76,"i":77,"j":78,"k":79,"l":80,"m":81,"n":82,"o":83,"p":84,"q":85,"r":86,"s":87,"t":88,"u":89,"v":90,"w":91,"x":92,"y":93,"z":94,"{":95,"|":96,"}":97,"~":98,"¡":99,"¢":100,"£":101,"¤":102,"¥":103,"¦":104,"§":105,"¨":106,"©":107,"ª":108,"«":109,"¬":110,"®":111,"¯":112,"°":113,"±":114,"²":115,"³":116,"´":117,"µ":118,"¶":119,"·":120,"¸":121,"¹":122,"º":123,"»":124,"¼":125,"½":126,"¾":127,"¿":128,"À":129,"Á":130,"Â":131,"Ã":132,"Ä":133,"Å":134,"Æ":135,"Ç":136,"È":137,"É":138,"Ê":139,"Ë":140,"Ì":141,"Í":142,"Î":143,"Ï":144,"Ð":145,"Ñ":146,"Ò":147,"Ó":148,"Ô":149,"Õ":150,"Ö":151,"×":152,"Ø":153,"Ù":154,"Ú":155,"Û":156,"Ü":157,"Ý":158,"Þ":159,"ß":160,"à":161,"á":162,"â":163,"ã":164,"ä":165,"å":166,"æ":167,"ç":168,"è":169,"é":170,"ê":171,"ë":172,"ì":173,"í":174,"î":175,"ï":176,"ð":177,"ñ":178,"ò":179,"ó":180,"ô":181,"õ":182,"ö":183,"÷":184,"ø":185,"ù":186,"ú":187,"û":188,"ü":189,"ý":190,"þ":191,"ÿ":192,"Ā":193,"ā":194,"Ă":195,"ă":196,"Ą":197,"ą":198,"Ć":199,"ć":200,"Ĉ":201,"ĉ":202,"Ċ":203,"ċ":204,"Č":205,"č":206,"Ď":207,"ď":208,"Đ":209,"đ":210,"Ē":211,"ē":212,"Ĕ":213,"ĕ":214,"Ė":215,"ė":216,"Ę":217,"ę":218,"Ě":219,"ě":220,"Ĝ":221,"ĝ":222,"Ğ":223,"ğ":224,"Ġ":225,"ġ":226,"Ģ":227,"ģ":228,"Ĥ":229,"ĥ":230,"Ħ":231,"ħ":232,"Ĩ":233,"ĩ":234,"Ī":235,"ī":236,"Ĭ":237,"ĭ":238,"Į":239,"į":240,"İ":241,"ı":242,"Ĳ":243,"ĳ":244,"Ĵ":245,"ĵ":246,"Ķ":247,"ķ":248,"ĸ":249,"Ĺ":250,"ĺ":251,"Ļ":252,"ļ":253,"Ľ":254,"ľ":255,"Ŀ":256,"ŀ":257,"Ł":258,"ł":259,"Ń":260,"Ġ(":261,"Ġ)":262,"Ġ.":263,"er":264,"on":265,"re":266,"in":267,"Ġt":268,"Ġ,":269,"at":270,"Ġ$":271,"Ġs":272,"Ġ=":273,"Ġ;":274,"en":275,"Ġc":276,"Ġi":277,"et":278,"Ġa":279,"or":280,"es":281,"ĠĠ":282,"Ġre":283,"Ġf":284,"ion":285,"Ġth":286,"al":287,"Ġ{":288,"Ġ}":289,"Ġn":290,"is":291,"el":292,"Ġp":293,"Ġ:":294,"ur":295,"Ġ'":296,"ar":297,"le":298,"ct":299,"Ġ-":300,"am":301,"Ġd":302,"ro":303,"an":304,"it":305,"Ġ[":306,"se":307,"Ġ]":308,"Ġif":309,"ing":310,"ce":311,"Ġm":312,"tr":313,"Ġg":314,"Ġ\"":315,"Ġin":316,"Ġ->":317,"un":318,"ent":319,"Ġo":320,"urn":321,"ut":322,"de":323,"Ġb":324,"Ġret":325,"Ġthe":326,"Ġreturn":327,"Ġl":328,"ed":329,"il":330,"Ġv":331,"ul":332,"Ġthis":333,"st":334,"ic":335,"Ġget":336,"pt":337,"ex":338,"ame":339,"ate":340,"Ġw":341,"Ġ/":342,"ch":343,"ue":344,"as":345,"ag":346,"pe":347,"ĠS":348,"ction":349,"id":350,"em":351,"ot":352,"Ġis":353,"ra":354,"ol":355,"Ġcon":356,"Ġsel":357,"Ġto":358,"ew":359,"ig":360,"ad":361,"om":362,"ck":363,"Ġfor":364,"Ġself":365,"Ġh":366,"ation":367,"Ġ//":368,"od":369,"err":370,"tring":371,"qu":372,"ub":373,"Ġ0":374,"ption":375,"ist":376,"ĠĠĠĠ":377,"ab":378,"um":379,"Ġ*":380,"im":381,"In":382,"lo":383,"Ġst":384,"ĠC":385,"ect":386,"ter":387,"ype":388,"Ġ_":389,"ode":390,"alue":391,"Ġan":392,"Ġerr":393,"Ġnew":394,"est":395,"ata":396,"Ġ+":397,"ile":398,"ĠT":399,"Ġres":400,"Ġ!":401,"ey":402,"ess":403,"Ġ1":404,"Ġ>":405,"ult":406,"us":407,"ext":408,"end":409,"age":410,"Ġ<":411,"pl":412,"--":413,"ers":414,"Ġel":415,"up":416,"Ġk":417,"unction":418,"Ġar":419,"ull":420,"ath":421,"Ġ==":422,"ĠN":423,"Ex":424,"Ġe":425,"Re":426,"iv":427,"ass":428,"able":429,"if":430,"Ġex":431,"ĠA":432,"Ġtr":433,"Ġof":434,"ray":435,"Ġr":436,"Ġlo":437,"ap":438,"aram":439,"ubl":440,"bj":441,"Con":442,"Ġde":443,"Ġset":444,"Ġfunction":445,"Ġnull":446,"ublic":447,"ase":448,"dd":449,"Ġpro":450,"th":451,"iz":452,"ĠP":453,"all":454,"res":455,"quest":456,"per":457,"put":458,"lass":459,"Ġvalue":460,"Name":461,"Ġch":462,"ĠD":463,"and":464,"oun":465,"Ġcont":466,"ĠI":467,"Ġ#":468,"Ġelse":469,"fig":470,"Ġand":471,"ception":472,"Ġ&":473,"int":474,"ment":475,"one":476,"our":477,"ĠF":478,"ore":479,"Ġ!=":480,"ir":481,"public":482,"ith":483,"ack":484,"art":485,"Ġnot":486,"Ġas":487,"eld":488,"bject":489,"ĠM":490,"ield":491,"row":492,"Ġ::":493,"ime":494,"ib":495,"nt":496,"ach":497,"Ġkey":498,"ort":499,"pon":500,"Ġdata":501,"ver":502,"Exception":503,"oc":504,"atch":505,"Ġbe":506,"fa":507,"Ġname":508,"Ġint":509,"St":510,"ĠL":511,"ĠE":512,"Ġap":513,"ĠString":514,"Ġnil":515,"Ġ=>":516,"ord":517,"Ġit":518,"Ġ:=":519,"rom":520,"Ġ\\":521,"vi":522,"rr":523,"Ġal":524,"Ġj":525,"Ġarray":526,"Ġadd":527,"ay":528,"name":529,"ain":530,"ĠO":531,"Ġcom":532,"Ġstring":533,"ĠR":534,"orm":535,"def":536,"ve":537,"os":538,"ang":539,"ĠĠĠĠĠĠĠĠ":540,"stan":541,"set":542,"ow":543,"alse":544,"ild":545,"eth":546,"rent":547,"Id":548,"li":549,"ser":550,"unc":551,"ource":552,"----":553,"ize":554,"Ġerror":555,"op":556,"ec":557,"ine":558,"Type":559,"ity":560,"dex":561,"Ġlen":562,"Ġresult":563,"gs":564,"ĠĠĠ":565,"ri":566,"alid":567,"rror":568,"Ġvar":569,"Ġen":570,"Ġ|":571,"ethod":572,"ptions":573,"Ġfin":574,"ponse":575,"Ġ2":576,"ire":577,"Ġor":578,"Ġparam":579,"he":580,"ak":581,"Ġu":582,"rit":583,"Ġus":584,"Ġfile":585,"fer":586,"ĠU":587,"get":588,"Ġpath":589,"Ġrequest":590,"con":591,"ount":592,"stance":593,"ure":594,"Ġapp":595,"Ġout":596,"Ġ&&":597,"Ġwith":598,"ĠNone":599,"Ġwh":600,"ok":601,"reate":602,"Ġon":603,"Ġthrow":604,"ĠB":605,"ies":606,"Res":607,"ition":608,"Ġstr":609,"Ġstat":610,"ĠG":611,"Ġid":612,"Ġlog":613,"cess":614,"essage":615,"vent":616,"fo":617,"Ġtype":618,"Ġx":619,"Value":620,"act":621,"Ġat":622,"ace":623,"ute":624,"ip":625,"Pro":626,"ery":627,"Ġfrom":628,"Ġfalse":629,"ory":630,"==":631,"Ġ@":632,"vice":633,"ans":634,"Ġby":635,"**":636,"ug":637,"Ġtrue":638,"ator":639,"Ġun":640,"ust":641,"Ġconfig":642,"fault":643,"func":644,"Ġcol":645,"Ġform":646,"ht":647,"Ġcase":648,"ial":649,"ument":650,"ax":651,"Ġfield":652,"Key":653,"ER":654,"port":655,"roup":656,"ĠIn":657,"gth":658,"out":659,"Cont":660,"Ġfil":661,"Ġcur":662,"ress":663,"En":664,"trib":665,"Ġlist":666,"Ġclass":667,"Error":668,"ost":669,"ĠH":670,"ail":671,"pert":672,"ON":673,"sh":674,"Ġpre":675,"lient":676,"Ġy":677,"ĠW":678,"Ġend":679,"uild":680,"Ġmod":681,"List":682,"pr":683,"ead":684,"pro":685,"Ar":686,"form":687,"ive":688,"ast":689,"ated":690,"Request":691,"Ġ?":692,"ger":693,"Set":694,"Ġse":695,"uf":696,"ix":697,"try":698,"Ġsh":699,"alu":700,"str":701,"Ġoptions":702,"Ġser":703,"ifi":704,"pec":705,"IN":706,"Ġmethod":707,"ener":708,"Ġim":709,"code":710,"Ġhas":711,"date":712,"00":713,"Ġappend":714,"ly":715,"Ġthat":716,"og":717,"url":718,"Ġqu":719,"Ġsub":720,"Ġro":721,"ersion":722,"type":723,"ign":724,"ule":725,"ange":726,"Ġfinal":727,"ind":728,"Ġuser":729,"sed":730,"Ġup":731,"Ġwe":732,"Ġobject":733,"ID":734,"ĠCon":735,"te":736,"ill":737,"Ġ%":738,"lock":739,"Ġformat":740,"Ġdo":741,"esc":742,"Path":743,"ber":744,"Ġcall":745,"alues":746,"Ġ||":747,"tt":748,"ler":749,"ight":750,"Data":751,"Ġcreate":752,"ames":753,"ink":754,"umn":755,"Ġnode":756,"Ġ===":757,"De":758,"//":759,"Ġstatic":760,"Ġitem":761,"eck":762,"oint":763,"ces":764,"der":765,"Ġresponse":766,"Ġra":767,"file":768,"Ġlength":769,"Ġindex":770,"cal":771,"ound":772,"ens":773,"To":774,"Ġtry":775,"ĠV":776,"Ġall":777,"ork":778,"Ġpar":779,"String":780,"ml":781,"Ch":782,"Ġcurrent":783,"ise":784,"ded":785,"Param":786,"Ġstart":787,"--------":788,"AT":789,"ole":790,"Ġinstance":791,"of":792,"ream":793,"ection":794,"uth":795,"rite":796,"Class":797,"tern":798,"Com":799,"Ġbo":800,"Ġem":801,"ence":802,"path":803,"ĠJ":804,"Ġdefault":805,"lement":806,"ache":807,"elet":808,"Config":809,"Ġinput":810,"gument":811,"File":812,"Ġtime":813,"ary":814,"ates":815,"son":816,"arent":817,"Ġnum":818,"Ġcontext":819,"ement":820,"low":821,"ere":822,"back":823,"perty":824,"pty":825,"arget":826,"Ser":827,"ected":828,"ication":829,"cl":830,"ide":831,"com":832,"Ġargs":833,"are":834,"ask":835,"ave":836,"iven":837,"..":838,"oid":839,"ĠTr":840,"ove":841,"av":842,"Ġquery":843,"ph":844,"Ġmatch":845,"Ġpr":846,"eter":847,"Ġcan":848,"Ġrem":849,"ccess":850,"eturn":851,"Ġmap":852,"uct":853,"Ġare":854,"Ġread":855,"key":856,"Ġspec":857,"By":858,"Ġparams":859,"ttp":860,"At":861,"RE":862,"Map":863,"Ġgiven":864,"face":865,"Ġcheck":866,"irect":867,"ĠRe":868,"to":869,"reak":870,"Ġevent":871,"uration":872,"abel":873,"tem":874,"Ġ''":875,"Ġoutput":876,"valid":877,"yn":878,"yp":879,"Ġurl":880,"ep":881,"ST":882,"Ġmessage":883,"Ġle":884,"oin":885,"Ġpl":886,"tribute":887,"Ġsc":888,"mand":889,"Ġ3":890,"param":891,"data":892,"ession":893,"====":894,"Ġfore":895,"read":896,"terface":897,"Ġbreak":898,"ings":899,"LE":900,"cord":901,"not":902,"Ġwill":903,"fix":904,"war":905,"Ġtrans":906,"Node":907,"ge":908,"pace":909,"Ġhead":910,"ake":911,"Ġcontain":912,"Ġcontent":913,"Col":914,"function":915,"OR":916,"pos":917,"Ġvoid":918,"Ġstate":919,"irst":920,"Object":921,"rol":922,"Ġvalid":923,"Ġvalues":924,"bug":925,"fin":926,"Ġcl":927,"Qu":928,"elete":929,"Ġelement":930,"amp":931,"ong":932,"ict":933,"ĠSt":934,"ĠTh":935,"Ġforeach":936,"ject":937,"Ġmodel":938,"ified":939,"anag":940,"vel":941,"lection":942,"Ġmax":943,"nection":944,"load":945,"Ġtok":946,"ob":947,"Ġhand":948,"Ġpos":949,"Time":950,"Of":951,"cc":952,"uilder":953,"ivate":954,"text":955,"cept":956,"time":957,"ME":958,"ms":959,"Ġreg":960,"ash":961,"uffer":962,"Ġsize":963,"place":964,"Ġ++":965,"Info":966,"Get":967,"ĠGet":968,"oken":969,"ant":970,"ĠIf":971,"__":972,"ody":973,"Field":974,"ock":975,"arsh":976,"Ġtext":977,"tx":978,"An":979,"Ġline":980,"Ġcode":981,"Ġparent":982,"iew":983,"Un":984,"AR":985,"Add":986,"ĠList":987,"fset":988,"ypes":989,"Return":990,"arch":991,"ree":992,"utes":993,"plate":994,"own":995,"atus":996,"Ġdoc":997,"Ġz":998,"Ġuse":999,"ĠSet":1000,"Ġ__":1001,"Ġraise":1002,"oul":1003,"Ġclient":1004,"Ġexist":1005,"ould":1006,"****":1007,"Ġempty":1008,"odel":1009,"mt":1010,"Ġ+=":1011,"ations":1012,"AL":1013,"Ġtable":1014,"Ġdis":1015,"Index":1016,"sc":1017,"Ġtarget":1018,"order":1019,"Ġisset":1020,"ĠThe":1021,"Ġtem":1022,"ages":1023,"Ġnext":1024,"til":1025,"Ġbase":1026,"Ġrow":1027,"press":1028,"ponent":1029,"olean":1030,"als":1031,"eters":1032,"ĠObject":1033,"Ġfilter":1034,"erm":1035,"chem":1036,"sert":1037,"imit":1038,"quire":1039,"les":1040,"Ġgroup":1041,"Context":1042,"Ġq":1043,"Ġcatch":1044,"Ġwrite":1045,"Element":1046,"Ġtag":1047,"Ġrange":1048,"ss":1049,"tected":1050,"ert":1051,"escri":1052,"ĠTrue":1053,"iss":1054,"sg":1055,"Ġcount":1056,"Ġcolumn":1057,"Ġresource":1058,"Ġ4":1059,"ard":1060,"Ġop":1061,"Ġhttp":1062,"anager":1063,"Response":1064,"par":1065,"eta":1066,"Al":1067,"ĠError":1068,"ename":1069,"Tr":1070,"Ġpublic":1071,"ann":1072,"Ġne":1073,"und":1074,"bo":1075,"Array":1076,"ac":1077,"tes":1078,"Message":1079,"string":1080,"Ġobj":1081,"ĉĉ":1082,"ĠFalse":1083,"Ġsource":1084,"Code":1085,"Ġrun":1086,"Ġpart":1087,"ilter":1088,"Ġupdate":1089,"SE":1090,"riter":1091,"pts":1092,".'":1093,"yst":1094,"word":1095,"entity":1096,"vert":1097,"list":1098,"UR":1099,"ud":1100,"opy":1101,"PI":1102,"Ġctx":1103,"Ġfind":1104,"64":1105,"class":1106,"verr":1107,"ystem":1108,"Ġparse":1109,"Ġext":1110,"Ġreq":1111,"wargs":1112,"idth":1113,"Group":1114,"ions":1115,"abled":1116,"protected":1117,"red":1118,"State":1119,"Ġ!==":1120,"ps":1121,"Ġfirst":1122,"Ġinfo":1123,"ĠRes":1124,"val":1125,"array":1126,"plit":1127,"action":1128,"heck":1129,"Ġnp":1130,"Ġmin":1131,"value":1132,"Event":1133,"ference":1134,"Ġreturns":1135,"ther":1136,"ite":1137,"Query":1138,"ĠX":1139,"Ġos":1140,"tributes":1141,"Ġlast":1142,"ader":1143,"Hand":1144,"odes":1145,"ION":1146,"Ġtoken":1147,"perties":1148,"Ġchar":1149,"Ġdat":1150,"Ġchild":1151,"private":1152,"point":1153,"min":1154,"ia":1155,"Ġservice":1156,"EN":1157,"Ġno":1158,"loat":1159,"Ġbyte":1160,"Ġcomp":1161,"Or":1162,"Ġjson":1163,"ify":1164,"ell":1165,"ĠNew":1166,"etad":1167,"ote":1168,"Ġsup":1169,"Im":1170,"ĠĠĠĠĠĠĠĠĠĠĠĠĠĠĠĠ":1171,"Ġprint":1172,"Ġ'/":1173,"ternal":1174,"etadata":1175,"ry":1176,"Ġversion":1177,"arshall":1178,"Service":1179,"Item":1180,"pect":1181,"Out":1182,"Ġfl":1183,"ook":1184,"ĠException":1185,"ĠPro":1186,"ren":1187,"print":1188,"##":1189,"With":1190,"Ġlocal":1191,"ustom":1192,"peration":1193,"Ġlogger":1194,"Ġ*/":1195,"Ġexec":1196,"verride":1197,"Ġdebug":1198,".\"":1199,"ick":1200,"ĠAr":1201,"use":1202,"Ġblock":1203,"Form":1204,"Ġkwargs":1205,"Ġremove":1206,"Ġprocess":1207,"Ġinit":1208,"ync":1209,"Input":1210,"Up":1211,"OD":1212,"cont":1213,"dir":1214,"Ġgener":1215,"Ġthrows":1216,"ql":1217,"ush":1218,"Ġclo":1219,"ĠThis":1220,"Ġmake":1221,"ft":1222,"Ġab":1223,"ner":1224,"Size":1225,"umber":1226,"Client":1227,"Stream":1228,"ector":1229,"ally":1230,"ature":1231,"link":1232,"Ġjoin":1233,"Ġmsg":1234,"ized":1235,"ld":1236,"Ġargument":1237,"annel":1238,"Ġ\\\"":1239,"Ġhave":1240,"Ġentry":1241,"ices":1242,"chema":1243,"Ġval":1244,"Ġone":1245,"vid":1246,"Ġcache":1247,"Not":1248,"ister":1249,"Ġboolean":1250,"ifier":1251,"work":1252,"Result":1253,"plication":1254,"uble":1255,"tings":1256,"Ġnames":1257,"AN":1258,"led":1259,"SS":1260,"Ġad":1261,"Ġload":1262,"Builder":1263,"md":1264,"From":1265,"rap":1266,"Ġstatus":1267,"CT":1268,"Ġspecified":1269,"ackage":1270,"----------------":1271,"Ġproperty":1272,"ape":1273,"eight":1274,"ĠSer":1275,"Ġinstanceof":1276,"inue":1277,"Ġref":1278,"Ġrel":1279,"itle":1280,"Ġany":1281,"its":1282,"ply":1283,"Ġtra":1284,"IT":1285,"ĠCom":1286,"ateg":1287,"ength":1288,"add":1289,"For":1290,"mp":1291,"irectory":1292,"col":1293,"Ap":1294,"lob":1295,"Ġcommand":1296,"Ġmust":1297,"Ġequ":1298,"User":1299,"Ġnumber":1300,"Ġaction":1301,"pend":1302,"arn":1303,"Util":1304,"Method":1305,"ope":1306,"////":1307,"Ġother":1308,"finition":1309,"rc":1310,"Ġkeys":1311,"ĠEx":1312,"ark":1313,"ugin":1314,"Th":1315,"Ġimage":1316,"ude":1317,"Manager":1318,"Ġdb":1319,"Options":1320,"rl":1321,"ĠgetS":1322,"Ġwhile":1323,"Ġcontinue":1324,"Ġfmt":1325,"Ġfunc":1326,"Ġelif":1327,"Ġact":1328,"Ġexp":1329,"log":1330,"enc":1331,"eg":1332,"Loc":1333,"Ġerrors":1334,"Ġexcept":1335,"instance":1336,"pression":1337,"Ġonly":1338,"Ġsession":1339,"ee":1340,"ags":1341,"Ġpass":1342,"Log":1343,"attern":1344,"Token":1345,"ments":1346,"Ġwhen":1347,"Ġcallback":1348,"ret":1349,"Content":1350,"ĠUn":1351,"Ġsw":1352,"Ġorder":1353,"ich":1354,"user":1355,"Returns":1356,"Ġauth":1357,"Interface":1358,"ance":1359,"ING":1360,"Ġbuild":1361,"yle":1362,"Ġpage":1363,"sum":1364,"Ġroot":1365,"Ġsend":1366,"util":1367,"Ġinto":1368,"line":1369,"Params":1370,"ool":1371,"Ġ...":1372,"actory":1373,"ĠEn":1374,"Ġ`":1375,"info":1376,"ĠĠĠĠĠ":1377,"Ġput":1378,"Argument":1379,"Count":1380,"Ġ5":1381,"ping":1382,"ors":1383,"Ġoffset":1384,"ie":1385,"Pre":1386,"ĠFile":1387,"Table":1388,"escription":1389,"Ġfiles":1390,"toc":1391,"Ġfound":1392,"Ġsy":1393,"Ġvari":1394,"ou":1395,"Property":1396,"cur":1397,"On":1398,"Ġused":1399,"Ġiter":1400,"var":1401,"quired":1402,"ff":1403,"'t":1404,"fore":1405,"tocol":1406,"Ġstream":1407,"Ġ\"\"":1408,"Ġrecord":1409,"Ġshould":1410,"iled":1411,"ĠType":1412,"SON":1413,"Head":1414,"olic":1415,"Ġsplit":1416,"Ġbody":1417,"ources":1418,"tml":1419,"Resource":1420,"ution":1421,"ccount":1422,"PE":1423,"fter":1424,"config":1425,"Ġbool":1426,"Ġso":1427,"Ġsec":1428,"Trans":1429,"Ġdelete":1430,"Ġfloat":1431,"========":1432,"Ġlabel":1433,"ond":1434,"()":1435,"ĠAdd":1436,"itch":1437,"Ġserver":1438,"ĠOverride":1439,"Ġwork":1440,"CE":1441,"Instance":1442,"Ġcal":1443,"Version":1444,"ĠValue":1445,"Ġheader":1446,"Output":1447,"TE":1448,"iles":1449,"Ġusing":1450,"ension":1451,"stant":1452,"Ġreplace":1453,"abase":1454,"ueue":1455,"Ġoption":1456,"RO":1457,"map":1458,"Ġconnection":1459,"dition":1460,"printf":1461,"ual":1462,"As":1463,"Ġdel":1464,"ines":1465,"Ġfields":1466,"size":1467,"ish":1468,"plet":1469,"TT":1470,"formation":1471,"Ġparameters":1472,"Ġback":1473,"rame":1474,"ĠK":1475,"Ġview":1476,"Call":1477,"Ġcontainer":1478,"Ġhost":1479,"ification":1480,"ous":1481,"Status":1482,"raph":1483,"pre":1484,"ript":1485,"ists":1486,"Ġconn":1487,"Model":1488,"Url":1489,"inal":1490,"ĠAPI":1491,"Ġwhich":1492,"Ġ--":1493,"Column":1494,"ML":1495,"Ġbut":1496,"vider":1497,"older":1498,"Attribute":1499,"Ġopts":1500,"Ġarg":1501,"LO":1502,"Handler":1503,"Lo":1504,"ĠDe":1505,"UL":1506,"ific":1507,"Ġthen":1508,"Ġdate":1509,"ĠArray":1510,"ample":1511,"ric":1512,"ules":1513,"Em":1514,"Ġloc":1515,"Ġitems":1516,"Ġeach":1517,"field":1518,"Ġcre":1519,"Ġexception":1520,"ainer":1521,"Ġentity":1522,"ible":1523,"Ġsort":1524,"Ġlong":1525,"Enabled":1526,"ov":1527,"Text":1528,"Ġok":1529,"omain":1530,"orage":1531,"}\"":1532,"rib":1533,"Ġper":1534,"ative":1535,"Ġapi":1536,"Var":1537,"ables":1538,"roller":1539,"ait":1540,"Sc":1541,"Ġtemplate":1542,"Ġcomm":1543,"Ġfilename":1544,"Ġ>=":1545,"=\"":1546,"Ġind":1547,"Ġ\"\\":1548,"Ġisinstance":1549,"Ġenv":1550,"Ġass":1551,"Ġdoes":1552,"Par":1553,"Ġinter":1554,"Sh":1555,"Valid":1556,"Names":1557,"ĠCol":1558,"cod":1559,"Ġinterface":1560,"az":1561,"Ġtask":1562,"angu":1563,"Check":1564,"Ġresol":1565,"Ġattribute":1566,"ĠRequest":1567,"otal":1568,"Ġparameter":1569,"Ġdest":1570,"clude":1571,"etwork":1572,"Ġsign":1573,"reg":1574,"tract":1575,"dict":1576,"Ġdir":1577,"32":1578,"ause":1579,"ont":1580,"resent":1581,"lect":1582,"erge":1583,"ET":1584,"Str":1585,"Filter":1586,"Ġ.=":1587,"ization":1588,"version":1589,"olicy":1590,"etric":1591,"Ġold":1592,"etch":1593,"io":1594,"All":1595,"entifier":1596,"Ġsu":1597,"aint":1598,"ĠID":1599,"gn":1600,"play":1601,"elper":1602,"Ġpost":1603,"Ġattr":1604,"Ġmodule":1605,"Ġequals":1606,"Ġheaders":1607,"Ġneed":1608,"Tra":1609,"Ġcopy":1610,"01":1611,"object":1612,"Ġbuffer":1613,"her":1614,"index":1615,"Pos":1616,"Reg":1617,"ĠUR":1618,"Ġcle":1619,"Ġswitch":1620,"Dir":1621,"Entry":1622,"Ġsearch":1623,"ĠY":1624,"Ġwhere":1625,"Date":1626,"mb":1627,"ntity":1628,"ava":1629,"Format":1630,"po":1631,"oot":1632,"Ġprefix":1633,"Ġpoint":1634,"ĠMap":1635,"error":1636,"by":1637,"End":1638,"DE":1639,"Ġhandle":1640,"etail":1641,"AME":1642,"over":1643,"********":1644,"Ġdouble":1645,"Ġimp":1646,"Ġorig":1647,"Ġ<=":1648,"Cache":1649,"uri":1650,"Ġhash":1651,"Ġdef":1652,"FI":1653,"Ġren":1654,"group":1655,"Ġfe":1656,"apt":1657,"Ġtim":1658,"ĠClass":1659,"ĠWe":1660,"Ġnon":1661,"Parameter":1662,"Ġmem":1663,"Ġconfiguration":1664,"ĠIO":1665,"Ġ6":1666,"iver":1667,"Ġdocument":1668,"Dis":1669,"Line":1670,"Ġ>>":1671,"ready":1672,"old":1673,"Ġoperation":1674,"Ġed":1675,"Sub":1676,"Ġattributes":1677,"Ġsets":1678,"Ġcustom":1679,"ĠCh":1680,"Ġbuf":1681,"Le":1682,"unk":1683,"Create":1684,"Start":1685,"Ġresults":1686,"ormal":1687,"cket":1688,"ĠgetP":1689,"Ġaw":1690,"rid":1691,"Ġlink":1692,"UT":1693,"Ġsp":1694,"\\\\":1695,"Ġopen":1696,"struct":1697,"xy":1698,"Ġallow":1699,"indow":1700,"anguage":1701,"Int":1702,"Ġwas":1703,"Ġexists":1704,"Ġsrc":1705,"ical":1706,"Ġstore":1707,"ailed":1708,"Ġutil":1709,"ialize":1710,"mod":1711,"Ġav":1712,"}'":1713,"ingle":1714,"Ġtc":1715,"ĠAp":1716,"sub":1717,"Ġresp":1718,"Ġjob":1719,"Ġrule":1720,"Ġac":1721,"uster":1722,"ĠgetName":1723,"posit":1724,"Ġ8":1725,"item":1726,"af":1727,"Ġ10":1728,"Ġhtml":1729,"Auth":1730,"Ġbytes":1731,"gnore":1732,"Factory":1733,"ref":1734,"ination":1735,"Ġ\\\\":1736,"Ġag":1737,"YPE":1738,"Mod":1739,"Ġax":1740,"OL":1741,"ome":1742,"Ġrender":1743,"Ġregister":1744,"content":1745,"Ġclose":1746,"attr":1747,"Ġ/*":1748,"Pl":1749,"Configuration":1750,"ailable":1751,"sp":1752,"essages":1753,"Ġposition":1754,"Ġred":1755,"Ġport":1756,"</":1757,"Ġaddress":1758,"Doc":1759,"Ġtop":1760,"Se":1761,"ĠtoString":1762,"Child":1763,"rop":1764,"Ġconvert":1765,"ik":1766,"View":1767,"Block":1768,");":1769,"ĠName":1770,"Ġprotocol":1771,"ĠContext":1772,"ayer":1773,"TTP":1774,"Ġarguments":1775,"ating":1776,"ATE":1777,"Ġmult":1778,"Ġinformation":1779,"plic":1780,"AG":1781,"Length":1782,"Ġ/**":1783,"NT":1784,"URL":1785,"sel":1786,"ting":1787,"ĠCreate":1788,"pected":1789,"Ġproperties":1790,"Ġme":1791,"CH":1792,"cre":1793,"Ġcomponent":1794,"ias":1795,"ĠJSON":1796,"Ġcmd":1797,"ported":1798,"Dec":1799,"Ġlimit":1800,"Ġlevel":1801,"ple":1802,"Action":1803,"Ġinst":1804,"Tag":1805,"ĠLO":1806,"'s":1807,"exists":1808,"ucket":1809,"let":1810,"itor":1811,"ice":1812,"teger":1813,"we":1814,"Ġassert":1815,"ĠCont":1816,"Ġpush":1817,"Ġalready":1818,"notation":1819,"lobal":1820,"UE":1821,"estamp":1822,"ures":1823,"izer":1824,"Ġco":1825,"air":1826,"ĠLog":1827,"duct":1828,"loc":1829,"Source":1830,"Ġraw":1831,"Ġ()":1832,"Ġmarshall":1833,"kip":1834,"Ġwidth":1835,"Ġexecute":1836,"Tem":1837,"Ġhandler":1838,"Ġafter":1839,"ermiss":1840,"Component":1841,"Ġtest":1842,"Ġpop":1843,"Ġph":1844,"ped":1845,"Ġyou":1846,"Ġsql":1847,"pare":1848,"Ġcollection":1849,"ĠĠĠĠĠĠĠĠĠ":1850,"Marshall":1851,"Definition":1852,"Ġtmp":1853,"Number":1854,"pository":1855,"PT":1856,"que":1857,"Ġcor":1858,"ayload":1859,"ĠIOException":1860,"ocket":1861,"Access":1862,"Gener":1863,"Header":1864,"Ġbefore":1865,"Ġconst":1866,"Ġdirectory":1867,"Default":1868,"cale":1869,">'":1870,"Ad":1871,"OM":1872,"idd":1873,"Ġprovi":1874,"Ġĉĉ":1875,"And":1876,"Sel":1877,"ArgumentException":1878,"Ġover":1879,"AD":1880,"ategory":1881,"oci":1882,"count":1883,"for":1884,"Ġmatches":1885,"default":1886,"Address":1887,"way":1888,"ility":1889,"quence":1890,"Update":1891,"Buffer":1892,"check":1893,"Ġwarn":1894,"Option":1895,"max":1896,"len":1897,"Ġmore":1898,"raw":1899,"ys":1900,"Ġdif":1901,"ribe":1902,"ĠConfig":1903,"Ġchannel":1904,"Exec":1905,"Ġtemp":1906,"pen":1907,"New":1908,"Ġplugin":1909,"ĠData":1910,"uid":1911,"gin":1912,"iron":1913,"Ġcontains":1914,"Ġthere":1915,"match":1916,"ton":1917,"with":1918,"Be":1919,"ined":1920,"Empty":1921,"ĠAn":1922,"Ġsave":1923,"Ġver":1924,"label":1925,"ĠErr":1926,"ĠgetC":1927,"undle":1928,"ĠKey":1929,"Ġimport":1930,"Ġrequired":1931,"rix":1932,"Rem":1933,"cul":1934,"leg":1935,"Ġpattern":1936,"start":1937,"mit":1938,"ĠRun":1939,"ram":1940,"Invalid":1941,"atrix":1942,"Entity":1943,"auth":1944,"view":1945,"Ġroute":1946,"Ġsettings":1947,"ĠUp":1948,"ron":1949,"Ġrec":1950,"ision":1951,"Connection":1952,"Ġtypes":1953,"Ġvalidate":1954,"resh":1955,"ĠService":1956,"Ref":1957,"Ġstruct":1958,"Ġcons":1959,"Ġgo":1960,"ities":1961,"ĠInvalid":1962,"Ġschema":1963,"Page":1964,"Ġmode":1965,"db":1966,"Ġsame":1967,"args":1968,"base":1969,"####":1970,"Rel":1971,"Values":1972,"names":1973,"OT":1974,"ĠErrorf":1975,"ĠURL":1976,"json":1977,"head":1978,"ient":1979,"edia":1980,"Ġnamespace":1981,"Ġmetadata":1982,"Ġfull":1983,"Ġproject":1984,"NAME":1985,"The":1986,"etails":1987,"Part":1988,"Utils":1989,"Spec":1990,"call":1991,"elp":1992,"Ġbind":1993,"Read":1994,"Ġ'%":1995,"Cre":1996,"Run":1997,"ging":1998,"Row":1999,"ĠReturn":2000,"ential":2001,"Ġleft":2002,"Ġuri":2003,"ached":2004,"Ġsprintf":2005,"Ġaccess":2006,"tries":2007,"lice":2008,"Cl":2009,"params":2010,"null":2011,"ayout":2012,"legal":2013,"coding":2014,"rypt":2015,"Types":2016,"Ġencode":2017,"ĠLOG":2018,"state":2019,"Ġsl":2020,"Ġtimeout":2021,"htt":2022,"Ġ'/'":2023,"QL":2024,"Ġxml":2025,"Ġmay":2026,"Ġselect":2027,"Ġcls":2028,"ĠNode":2029,"ĠDE":2030,"igh":2031,"straint":2032,"tra":2033,"lode":2034,"llegal":2035,"Ġcolor":2036,"Ġnow":2037,"bs":2038,"method":2039,"Image":2040,"Null":2041,"Local":2042,"Found":2043,"Ġstd":2044,"ater":2045,"FA":2046,"If":2047,"so":2048,"ched":2049,"Pr":2050,"wer":2051,"imple":2052,"LI":2053,"anges":2054,"sure":2055,"ED":2056,"Ġinvalid":2057,"Marshaller":2058,"Ġaut":2059,"Match":2060,"lose":2061,"Ġexisting":2062,"Ġdatabase":2063,"Ġstrings":2064,"Ġdict":2065,"ume":2066,"Ġidx":2067,"ĠValueError":2068,"sl":2069,"Ġ'_":2070,"Ġrep":2071,"Ġheight":2072,"ĠCheck":2073,"py":2074,"ency":2075,"Ġword":2076,"Ġtitle":2077,"Ġtotal":2078,"replace":2079,"from":2080,"Server":2081,"Ġparser":2082,"Function":2083,"vious":2084,"ower":2085,"escript":2086,"stants":2087,"result":2088,"Ġbuilder":2089,"AB":2090,"ear":2091,"ied":2092,"ning":2093,"vices":2094,"nown":2095,"ounter":2096,"Ġits":2097,"Link":2098,"Ġelseif":2099,"river":2100,"inary":2101,"ics":2102,"Ġgenerate":2103,"enu":2104,"////////":2105,"Ġreturned":2106,"num":2107,"ĠgetM":2108,"Ġdec":2109,"Ġstack":2110,"andom":2111,"Ġprovided":2112,"Ġev":2113,"Ġreference":2114,"Record":2115,"options":2116,"Ġlocation":2117,"Ġbeen":2118,"Ġ'\"":2119,"ĠIN":2120,"table":2121,"->":2122,"SER":2123,"UN":2124,"Ġam":2125,"atic":2126,"ugh":2127,"istry":2128,"mbol":2129,"Ġ100":2130,"cle":2131,"Ġstop":2132,"Ġextend":2133,"Next":2134,"no":2135,"ift":2136,"fg":2137,"12":2138,"format":2139,"Ġparts":2140,"ĠIllegal":2141,"Ġsum":2142,"cs":2143,"ĠInteger":2144,"Ġright":2145,"Ġscope":2146,"box":2147,"Point":2148,"ĠCms":2149,"message":2150,"Ġtree":2151,"onth":2152,"Ġopt":2153,"Ġstyle":2154,"ved":2155,"Char":2156,"Session":2157,"Ġfetch":2158,"node":2159,"Bytes":2160,"ique":2161,"Ġtransl":2162,"10":2163,"ĠSee":2164,"iter":2165,"Ġupd":2166,"ĠDate":2167,"Ġcolumns":2168,"issing":2169,"Container":2170,"Base":2171,"Ġinitial":2172,"Per":2173,"Task":2174,"Rule":2175,"Ġlock":2176,"ĠUser":2177,"defined":2178,"Ġshape":2179,"df":2180,"Ġpackage":2181,"Ġthem":2182,"cel":2183,"Ġobjects":2184,"assed":2185,"Ġelements":2186,"',":2187,"filter":2188,"Command":2189,"Ġvariable":2190,"Ġmeta":2191,"AM":2192,"Ġwrap":2193,"Sec":2194,"Ġconf":2195,"be":2196,"ĠTra":2197,"Ġinv":2198,"Ġnodes":2199,"ĠCollection":2200,"Ġpassword":2201,"Ġsingle":2202,"AP":2203,"VER":2204,"Ġsecond":2205,"Ġ\"/":2206,"://":2207,"idget":2208,"Ġtrim":2209,"bers":2210,"this":2211,"Ġnormal":2212,"Ġ\"%":2213,"iable":2214,"escribe":2215,"Ġsuccess":2216,"Ġdefin":2217,"='":2218,"aw":2219,"Ġdefer":2220,"ĠIm":2221,"ENT":2222,"Listener":2223,"Label":2224,")\"":2225,"AC":2226,"Process":2227,"iction":2228,"Ġtx":2229,"Ġapply":2230,"Ġlet":2231,"ids":2232,"store":2233,"assword":2234,"Ġstep":2235,"Ġaccount":2236,"arshal":2237,"ĠQ":2238,"ĠHTTP":2239,"Ġsuper":2240,"uture":2241,"fl":2242,"Ġinsert":2243,"Prefix":2244,"Ġresolve":2245,"FF":2246,"EL":2247,"CON":2248,"Provider":2249,"Body":2250,"dis":2251,"Ġjava":2252,"ten":2253,"Ġuint":2254,"Ġoper":2255,"ĠDo":2256,"Store":2257,"ared":2258,"RI":2259,"round":2260,"Package":2261,"ĠAl":2262,"escriptor":2263,"ironment":2264,"Ġ',":2265,"bser":2266,"Ġmark":2267,"uple":2268,"Ġcondition":2269,"Ġprop":2270,"query":2271,"patch":2272,"any":2273,"ULT":2274,"Ġpassed":2275,"Helper":2276,"Metadata":2277,"Job":2278,"No":2279,"ĠPar":2280,"Ġvis":2281,"Ġoriginal":2282,"Template":2283,"model":2284,"ĠZ":2285,"ĠField":2286,"Ġaws":2287,"ĠNot":2288,"Writer":2289,"DB":2290,"Ġseg":2291,"Ġ'{":2292,"request":2293,"EX":2294,"Ġfn":2295,"Ġ<<":2296,"Properties":2297,"Ġpack":2298,"Ġpreg":2299,"Expression":2300,"ĠPr":2301,"Ġcomplet":2302,"ertific":2303,"ank":2304,"Ġignore":2305,"ĠResponse":2306,"aces":2307,"Ġalias":2308,"Mode":2309,"Hash":2310,"ODO":2311,"SC":2312,"16":2313,"Fields":2314,"ĠUpdate":2315,"token":2316,"olume":2317,"igger":2318,"Ġavailable":2319,"SI":2320,"Ġfail":2321,"nap":2322,"ats":2323,"Ġlook":2324,"Ġchildren":2325,"Target":2326,"status":2327,"enter":2328,"gress":2329,"anged":2330,"redential":2331,"ĠSystem":2332,"Ġhttps":2333,"ensions":2334,"Offset":2335,"urity":2336,"Ġ'\\":2337,"trans":2338,"Ġtw":2339,"Fl":2340,"Ġinclude":2341,"Ġtags":2342,"ĠgetD":2343,"ted":2344,"ender":2345,"Ġdevice":2346,"ĠST":2347,"Ġimplement":2348,"hand":2349,"ĠMessage":2350,"ta":2351,"types":2352,"Ġthan":2353,"files":2354,"Level":2355,"IND":2356,"ely":2357,"Ġorg":2358,"Ġip":2359,"Iter":2360,"ĠMath":2361,"Ġlines":2362,"Ġgot":2363,"ĠValid":2364,"Ġpk":2365,"ĠgetValue":2366,"Ġcharact":2367,"Ġ'<":2368,"ences":2369,"ln":2370,"Ġ7":2371,"values":2372,"Ġsubstr":2373,"etime":2374,"Root":2375,"Ġbegin":2376,"ds":2377,"down":2378,"Ġdefinition":2379,"ĠAt":2380,"ĠgetMessage":2381,"ĠprotocolMarshaller":2382,"ĠDB":2383,"Width":2384,"Ġpayload":2385,"iod":2386,"ns":2387,"gine":2388,"Ġqueue":2389,"alt":2390,"imary":2391,"ollow":2392,"Ġsb":2393,"ublish":2394,"Ġpy":2395,"Keys":2396,"pth":2397,"ĠĠĠĠĠĠĠĠĠĠĠĠ":2398,"TYPE":2399,"Ġ'-":2400,"ories":2401,"Parameters":2402,"Ġatt":2403,"Reference":2404,"Ġshow":2405,"Ġrepresent":2406,"ĠArrayList":2407,"Cur":2408,"ox":2409,"ince":2410,"Ġdist":2411,"\\\"":2412,"ets":2413,"da":2414,"shot":2415,"Ġprevious":2416,"Ġabs":2417,"Ġ'.":2418,"PO":2419,"ses":2420,"Work":2421,"imum":2422,"ged":2423,"Ġclear":2424,"api":2425,"flow":2426,"Ġexit":2427,"Callback":2428,"================":2429,"Ġtokens":2430,"cy":2431,"rior":2432,"page":2433,"doc":2434,"aded":2435,"pc":2436,"ether":2437,"ĠRE":2438,"ero":2439,"aster":2440,"Ġchunk":2441,"Ġsection":2442,"--------------------------------":2443,"iple":2444,"ĠClient":2445,"Ġenc":2446,"Ġdepend":2447,"Order":2448,"Case":2449,"ran":2450,"atabase":2451,"keys":2452,"ier":2453,"Ġarr":2454,"TH":2455,"ling":2456,"ĠFor":2457,"rag":2458,"Act":2459,"wise":2460,"Ġdomain":2461,"ersist":2462,"return":2463,"Ġdim":2464,"Inter":2465,"loy":2466,"sor":2467,"Ġ9":2468,"length":2469,"sing":2470,"Tree":2471,"context":2472,"/'":2473,"ĠHash":2474,"ampl":2475,"verse":2476,"Ġdescription":2477,"Ġrole":2478,"ĠSend":2479,"ointer":2480,"Ġterm":2481,"Ext":2482,"Ġnetwork":2483,"Ġcell":2484,"headers":2485,"ade":2486,"apter":2487,"Ġskip":2488,"Ġbound":2489,"ular":2490,"Ġ\"'":2491,"Ġtransaction":2492,"cache":2493,"Ġendpoint":2494,"Ġdecode":2495,"vers":2496,":'":2497,"Attributes":2498,"11":2499,"HP":2500,"AX":2501,"Ġstorage":2502,"This":2503,"ĠDelete":2504,"http":2505,")'":2506,"pute":2507,"lease":2508,"ĠRuntime":2509,"Ġtransform":2510,"Ġbased":2511,"Ġbot":2512,"afe":2513,"Reader":2514,"ynch":2515,"Ġlat":2516,"nect":2517,"Ġwrit":2518,"Document":2519,"Is":2520,"Ġapplication":2521,"Ġcreated":2522,"Ġow":2523,"Err":2524,"ĠBy":2525,"ĠReg":2526,"Ġio":2527,"parator":2528,"Ġwait":2529,"riteria":2530,"Lock":2531,"Collection":2532,"Ġrelation":2533,"LA":2534,"Ġfailed":2535,"amb":2536,"Ġjust":2537,"ookie":2538,"55":2539,"ma":2540,"ĠHttp":2541,"Ġstarts":2542,"ertificate":2543,"du":2544,"Ġwant":2545,"Ġalso":2546,"ike":2547,"Ġday":2548,"Ġchange":2549,"ilename":2550,"napshot":2551,"Ġglobal":2552,"Ġdefined":2553,"azon":2554,"Position":2555,"fs":2556,"API":2557,"ember":2558,"etry":2559,"TER":2560,"Ġlib":2561,"Ġdisplay":2562,"Load":2563,"host":2564,"DI":2565,"Ġcalled":2566,"process":2567,"Can":2568,"Ġstrip":2569,"Init":2570,"oute":2571,"Ġfeature":2572,"Ġlocale":2573,"cat":2574,"event":2575,"Ġassoci":2576,"Ag":2577,"Num":2578,"IP":2579,"Ġbas":2580,"Ġbatch":2581,"Policy":2582,"Ġrequire":2583,"ose":2584,"ĠIs":2585,"mon":2586,"ĠEvent":2587,"Ġdown":2588,"Ġsys":2589,"Ġmethods":2590,"ĠResource":2591,"ĠSub":2592,"Ġ12":2593,"Host":2594,"Ġrows":2595,"Ġcontroller":2596,"ĠIt":2597,"ĠWrite":2598,"cho":2599,"ynchron":2600,"oolean":2601,"EY":2602,"obj":2603,"ĠTrans":2604,"Ġreport":2605,"Ġtrace":2606,"rect":2607,"Ġextract":2608,"uffix":2609,"Ass":2610,"Ġ'.'":2611,"Ġlower":2612,"Delete":2613,"scri":2614,"Args":2615,"ux":2616,"Port":2617,"Ġ{}":2618,"Ġsystem":2619,"html":2620,"Ġsee":2621,"Func":2622,"Ġframe":2623,"Stack":2624,"client":2625,"write":2626,"IL":2627,"Settings":2628,"block":2629,"input":2630,"ĠNo":2631,"Ġremote":2632,"Ġwriter":2633,"ĠgetId":2634,"ermission":2635,"FAULT":2636,"Ġrece":2637,"ĠSh":2638,"stances":2639,"create":2640,"Ġevents":2641,"rough":2642,"18":2643,"utton":2644,"ranch":2645,"Ġunset":2646,"ĠTime":2647,"uch":2648,"title":2649,"Ġthread":2650,"WS":2651,"Ġexpression":2652,"Ġlanguage":2653,"Ġaxis":2654,"Range":2655,"less":2656,"Ġdirect":2657,"ĠclassName":2658,"icate":2659,"ĠTODO":2660,"eep":2661,"Ġfs":2662,"ĠRem":2663,"SH":2664,"Ġexpected":2665,"ĠPath":2666,"Ġgraph":2667,"('":2668,"VAL":2669,"parse":2670,"Ed":2671,"ĠUse":2672,"Ids":2673,"Ġhere":2674,"Obj":2675,"mary":2676,"ĠTrace":2677,"Parser":2678,"ins":2679,"part":2680,"run":2681,"etrics":2682,"Ġassign":2683,"php":2684,"ĠStatus":2685,"Height":2686,"Ġchain":2687,"Ġencoding":2688,"ATION":2689,"Ġsome":2690,"Ġmerge":2691,"tag":2692,"roll":2693,"Timeout":2694,"Ġactive":2695,"number":2696,"Files":2697,"ĠOption":2698,"Ġemail":2699,"cause":2700,"Ġbet":2701,"merge":2702,"Ġresources":2703,"new":2704,"ULL":2705,"ful":2706,"Ġparsed":2707,"BIND":2708,"ĠisEmpty":2709,"Ġextension":2710,"Back":2711,"ODE":2712,"Ġinternal":2713,"irt":2714,"Ġreset":2715,"Ġtypeof":2716,"ween":2717,"Ġusername":2718,"Ġaddition":2719,"ĠRead":2720,"Ġclean":2721,"last":2722,"Convert":2723,"Ġbecause":2724,"update":2725,"ware":2726,"Ġdon":2727,"Ġscript":2728,"Creates":2729,"image":2730,"Ġdone":2731,"structor":2732,"99":2733,"Ġserial":2734,"Location":2735,"sible":2736,"ambda":2737,"init":2738,"BINDING":2739,"response":2740,"ĠInput":2741,"Ġwindow":2742,"Ġmessages":2743,"Ġrandom":2744,"Ġcoord":2745,"{$":2746,"Max":2747,"ĠForm":2748,"exp":2749,"cer":2750,"****************":2751,"gra":2752,"ason":2753,"ĠIllegalArgumentException":2754,"ĠOn":2755,"Ġidentifier":2756,"igr":2757,"net":2758,"aset":2759,"loud":2760,"inter":2761,"pha":2762,"Ġins":2763,"rem":2764,"erce":2765,"Sign":2766,"post":2767,"NotFound":2768,"irection":2769,"ĠQuery":2770,"Async":2771,"lias":2772,":\"":2773,"Ġmain":2774,"Ġiterator":2775,"Ġcfg":2776,"...":2777,"PAR":2778,"ian":2779,"Ġcannot":2780,"Meta":2781,"ABLE":2782,"Ġbucket":2783,"ROR":2784,"Sets":2785,"ĠDescribe":2786,"0000":2787,"Ġslice":2788,"curs":2789,"atures":2790,"Ġaccept":2791,"Ġenum":2792,"spec":2793,"idden":2794,"Ġtwo":2795,"imestamp":2796,"Ġremov":2797,"Ġloop":2798,"UM":2799,"Ġpan":2800,"ump":2801,"Unit":2802,"ccur":2803,"Ġpe":2804,"Ġfollow":2805,"oice":2806,"Ġprev":2807,"amed":2808,"Ġhelp":2809,"greg":2810,"Ġbl":2811,"ĠgetF":2812,"Ġ<>":2813,"ires":2814,"level":2815,"hash":2816,"ploy":2817,"ivity":2818,"width":2819,"vision":2820,"fields":2821,"cing":2822,"Ġincl":2823,"Ġyield":2824,"uccess":2825,"Ġ**":2826,"column":2827,"Impl":2828,"Debug":2829,"eded":2830,"Ġbit":2831,"Ġdes":2832,"AGE":2833,"Ġsite":2834,"ii":2835,"Ġunit":2836,"Del":2837,"TML":2838,"ĠSprintf":2839,"imal":2840,"ĠHand":2841,"reen":2842,"endar":2843,"output":2844,"Ġpool":2845,"ending":2846,"chedule":2847,"br":2848,"RA":2849,"ĠSc":2850,"ĠLoc":2851,"ges":2852,"Directory":2853,"full":2854,"Ġcluster":2855,"Ġwhether":2856,"Inner":2857,"Ġtimestamp":2858,"sup":2859,"ĠReturns":2860,"atform":2861,"ured":2862,"Ġreal":2863,"Pool":2864,"Ġsupport":2865,"::":2866,"address":2867,"ĠĠĠĠĠĠĠĠĠĠĠĠĠ":2868,"Ġauthor":2869,"Ġextra":2870,"IC":2871,"Ġ16":2872,"Ġcs":2873,"Ġmapping":2874,"Ġcb":2875,"stract":2876,"istory":2877,"rel":2878,"Ġcomment":2879,"eom":2880,"day":2881,"ĠgetB":2882,"dk":2883,"ĠParse":2884,"Style":2885,"Loader":2886,"Ġwithout":2887,"Wh":2888,"Ġproxy":2889,"self":2890,"Len":2891,"div":2892,"Ġprovider":2893,"co":2894,"iler":2895,"do":2896,"Ġgoto":2897,"Ġthey":2898,"ĠPHP":2899,"ĠgetClass":2900,"Ġnet":2901,"xml":2902,"Resol":2903,"Ġesc":2904,"cheme":2905,"ll":2906,"Ġlogging":2907,"ND":2908,"Channel":2909,"app":2910,"Ġprepare":2911,"sumer":2912,"ward":2913,"irtual":2914,"ground":2915,"{}":2916,"Ġfix":2917,"Constants":2918,"comp":2919,"pack":2920,"ired":2921,"Ġcore":2922,"Ġspecific":2923,"js":2924,"Failed":2925,"redentials":2926,"ither":2927,"ĠLA":2928,"Ġdestination":2929,"Min":2930,"Ġrules":2931,"(\"":2932,"Controller":2933,").":2934,"Ġallowed":2935,"Alias":2936,"med":2937,"parent":2938,"Ġcontents":2939,"Http":2940,"lib":2941,"ym":2942,"Ġflags":2943,"Ġforce":2944,"Comp":2945,"Ġ'#":2946,"25":2947,"ulti":2948,"Ġreader":2949,"ived":2950,"Copy":2951,"Ġpol":2952,"Ġpaths":2953,"Fe":2954,"ayment":2955,"element":2956,"Color":2957,"andard":2958,"riority":2959,"alk":2960,"Any":2961,"ĠPre":2962,"heet":2963,"Wrap":2964,"ĠOr":2965,"Exp":2966,"ability":2967,"ogle":2968,"etri":2969,"ĠAs":2970,"ĠIP":2971,"current":2972,"Ġabout":2973,"ĠTo":2974,"Ġcommon":2975,"ĠOut":2976,"sign":2977,"module":2978,"Search":2979,"ferences":2980,"space":2981,"Ġflag":2982,"Ġconsole":2983,">\"":2984,"ĠMethod":2985,"JSON":2986,"Ġsocket":2987,"Operation":2988,"ĠDefault":2989,"Ġutils":2990,"Ġlistener":2991,"bed":2992,"eleted":2993,"known":2994,"amples":2995,"Role":2996,"ites":2997,"cent":2998,"ĠWeb":2999,"BU":3000,"char":3001,"Gets":3002,"uto":3003,"Identifier":3004,"Cal":3005,"Uri":3006,"Ġlike":3007,"ĠPl":3008,"Ġfolder":3009,"ĠElement":3010,"other":3011,"Ġprom":3012,"Ġdf":3013,"ĠParam":3014,"encode":3015,"ĠIter":3016,"Ġproduct":3017,"Ġlayer":3018,"Ġsubstring":3019,"Ġregion":3020,"Ġstatement":3021,"gor":3022,"Ġdet":3023,"Last":3024,"Ġshort":3025,"Ġcalcul":3026,"eline":3027,"04":3028,"Ġsm":3029,"fe":3030,"entication":3031,"Account":3032,"AS":3033,"eger":3034,"ĠDis":3035,"eric":3036,"Ġreflect":3037,"ĠPrint":3038,"Limit":3039,"rency":3040,"thon":3041,"Ġprofile":3042,"Change":3043,"Ġdesc":3044,"LS":3045,"Ġdst":3046,"IG":3047,"iff":3048,"ĠCall":3049,"utable":3050,"trie":3051,"ways":3052,"Val":3053,"Parent":3054,"ĠGener":3055,"oke":3056,"rice":3057,"Ġgu":3058,"Ġthrough":3059,"UID":3060,"Internal":3061,"ators":3062,"ĠSQL":3063,"Api":3064,"Ġexpr":3065,"Ġmask":3066,"Write":3067,"Ġgrid":3068,"dr":3069,"lv":3070,"Ġsure":3071,"search":3072,"Ġperform":3073,"env":3074,"Att":3075,"command":3076,"Ġconnect":3077,"Schema":3078,"UP":3079,"Ġtrigger":3080,"mine":3081,"Ġpair":3082,"bl":3083,"nel":3084,"root":3085,"Ġbetween":3086,"Ġgra":3087,"Sup":3088,"Ġunique":3089,"gorith":3090,"Ġaddr":3091,"Variable":3092,"achine":3093,"ĠInt":3094,"Ġfinally":3095,"Ġadded":3096,"Ġdig":3097,"URI":3098,"Ġruntime":3099,"scription":3100,"GER":3101,"Ġsequence":3102,"02":3103,"Ġ\",":3104,"miss":3105,"CTION":3106,"ww":3107,"marshal":3108,"Ġundefined":3109,"plied":3110,"pond":3111,"Ġbinary":3112,"\",":3113,"IME":3114,"Ġsorted":3115,"Build":3116,"ourse":3117,"SP":3118,"Ġweight":3119,"Module":3120,"Headers":3121,"Ġdiff":3122,"ĠAuth":3123,"ĠId":3124,"Find":3125,"Items":3126,"Ġrest":3127,"izes":3128,"Ġoptional":3129,"ĠgetType":3130,"ategy":3131,"iddle":3132,"ĠindexOf":3133,"Ġour":3134,"lers":3135,"Ġredirect":3136,"Ġprob":3137,"Ġmonth":3138,"eners":3139,"Ġmember":3140,"OK":3141,"Ġsim":3142,"Ġpoints":3143,"Ġzip":3144,"atal":3145,"resource":3146,"bserv":3147,"Ġmatrix":3148,"ested":3149,"Ġcategory":3150,"ipe":3151,"Ġvariables":3152,"Ġns":3153,"etermine":3154,"ĠToken":3155,"NS":3156,"Ġgen":3157,"utf":3158,"Ġscale":3159,"Warn":3160,"Ġman":3161,"Ġimplode":3162,"System":3163,"ĠModel":3164,"cover":3165,"Ġplace":3166,"ĠXML":3167,"source":3168,"lip":3169,"Ġselected":3170,"ermissions":3171,"Ġexplode":3172,"Ġvert":3173,"ĠSE":3174,"arg":3175,"ĠLo":3176,"Ġstats":3177,"Addr":3178,"Ġatom":3179,"Ġuntil":3180,"ĠgetT":3181,"Ġdtype":3182,"Queue":3183,"session":3184,"Json":3185,"ĠInternal":3186,"Descriptor":3187,"mode":3188,"Ġdetails":3189,"open":3190,"DO":3191,"ictionary":3192,"Ġtuple":3193,"PER":3194,"Ġlambda":3195,"Ġĉ":3196,"gr":3197,"Iterator":3198,"vlet":3199,"ateway":3200,"Parse":3201,"template":3202,"Ġstrlen":3203,"Ġannotation":3204,"Nodes":3205,"ĠNULL":3206,"Ġplot":3207,"Application":3208,"encies":3209,"Execution":3210,"di":3211,"MENT":3212,"gle":3213,"Ġactual":3214,"bar":3215,"Byte":3216,"INT":3217,"We":3218,"Frame":3219,"ily":3220,"Ġsubject":3221,"Ġentries":3222,"akes":3223,"ĠServer":3224,"ĠStringBuilder":3225,"ĠInvalidArgumentException":3226,"Ġretrie":3227,"########":3228,"Ġmultiple":3229,"straints":3230,"Ġextends":3231,"ĠSec":3232,"Mapping":3233,"Pattern":3234,"ĠRuntimeException":3235,"Ġclone":3236,"Ġrout":3237,"Ġprivate":3238,"prefix":3239,"go":3240,"Ġsince":3241,"very":3242,"verter":3243,"Do":3244,"Storage":3245,"Ġtab":3246,"24":3247,"Ġsynchron":3248,"Ġlabels":3249,"rok":3250,"ls":3251,"Ġgroups":3252,"Ġtf":3253,"olute":3254,"Route":3255,"stream":3256,"Annotation":3257,"Ġids":3258,"Handle":3259,"Ġsupported":3260,"ship":3261,"Def":3262,"ced":3263,"GET":3264,"ĠSe":3265,"color":3266,"Ġsegment":3267,"gorithm":3268,"lem":3269,"Ġdocs":3270,"Ġsent":3271,"Ġfactory":3272,"Ġsymbol":3273,"Ġcollect":3274,"ATH":3275,"position":3276,"notations":3277,"service":3278,"ĠAWS":3279,"aining":3280,"Ġent":3281,"Vis":3282,"Ġcp":3283,"ymbol":3284,"Ġrequests":3285,"Ġyear":3286,"ĠState":3287,"Remove":3288,"Seg":3289,"Ġ<-":3290,"Description":3291,"['":3292,"Endpoint":3293,"Ġcommit":3294,"gram":3295,"Ġsample":3296,"KEY":3297,"Ġtrack":3298,"target":3299,"Ġretry":3300,"Ġmanager":3301,"Ġdoesn":3302,"Ġlang":3303,"ases":3304,"Repository":3305,"Ġattach":3306,"tot":3307,"Ġunless":3308,"Ġmulti":3309,"Ġasset":3310,"Ġweb":3311,"Ġadditional":3312,"FO":3313,"Ġdatetime":3314,"Ġmissing":3315,"Ġ','":3316,"eek":3317,"Ġclasses":3318,"items":3319,"Ġcert":3320,"sec":3321,"inate":3322,"Ġpossible":3323,"ves":3324,"Ġcontrol":3325,"ountry":3326,"card":3327,"Logger":3328,"Ġpolicy":3329,"Ġenvironment":3330,"ĠDEFAULT":3331,"Msg":3332,"etrie":3333,"Ġoccur":3334,"One":3335,"bstract":3336,"istr":3337,"now":3338,"andid":3339,"ĠIndex":3340,"org":3341,"Transaction":3342,"ynam":3343,"Ġeither":3344,"rary":3345,"bose":3346,"Ġcursor":3347,"offset":3348,"Post":3349,"wh":3350,"Ġcharacter":3351,"Ġrepository":3352,"cr":3353,"Ġprimary":3354,"mark":3355,"ĠCode":3356,"Bind":3357,"rowser":3358,"Ġexport":3359,"ĠBase":3360,"50":3361,"actor":3362,"Ġcurl":3363,"Ġast":3364,"Ġ'$":3365,"record":3366,"Control":3367,"ng":3368,"qual":3369,"Unable":3370,"App":3371,"Ġsignature":3372,"PRO":3373,"header":3374,"EM":3375,"Ġecho":3376,"Ġcould":3377,"US":3378,"Ġvalidation":3379,"Columns":3380,"Bean":3381,"Ġagain":3382,"ifiers":3383,"description":3384,"Ġiss":3385,"Only":3386,"Ġensure":3387,"ANG":3388,"Sp":3389,"Ġident":3390,"Select":3391,"ese":3392,"Ġet":3393,"callback":3394,"ha":3395,"coder":3396,"Ġoff":3397,"DK":3398,"Ġmy":3399,"Ġcompare":3400,"Top":3401,"Namespace":3402,"Tracing":3403,"dat":3404,"Bundle":3405,"Statement":3406,"ĠLong":3407,"utor":3408,"ycle":3409,"Ġowner":3410,"ĠBoolean":3411,"VE":3412,"tree":3413,"Ġcreates":3414,"Ġfilters":3415,"ĠDec":3416,"NO":3417,"Condition":3418,"Ġdriver":3419,"Render":3420,"ĠImage":3421,"Ġattrs":3422,"ĠWith":3423,"ĠJson":3424,"ĠSup":3425,"ĠSdk":3426,"change":3427,"ts":3428,"stall":3429,"Ġpresent":3430,"ĠMod":3431,"body":3432,"Ġyour":3433,"Ġcorrect":3434,"Ġdispatch":3435,"Ġwarning":3436,"13":3437,"ĠResult":3438,"adding":3439,"Ġbundle":3440,"gener":3441,"Each":3442,"Ġinner":3443,"reshold":3444,"IM":3445,"argument":3446,"Results":3447,"Trace":3448,"cip":3449,"aly":3450,"Ġselector":3451,"ually":3452,"Tags":3453,"Ġexample":3454,"Ġkeep":3455,"Decl":3456,"UB":3457,"Ġprops":3458,"filename":3459,"ĠPage":3460,"14":3461,"20":3462,"ĠTYPE":3463,"section":3464,"idx":3465,"ORM":3466,"Ġdefaults":3467,"TracingEnabled":3468,"comment":3469,"Ġwithin":3470,"Elements":3471,"Ġcached":3472,"calar":3473,"Ġca":3474,"Ġpkg":3475,"Ġspace":3476,"Us":3477,"Ġchanges":3478,"Ġpred":3479,"Ġstmt":3480,"Ġmd":3481,"option":3482,"plates":3483,"ĠisAny":3484,"ores":3485,"zone":3486,"icode":3487,"ĠLock":3488,"vm":3489,"tol":3490,"Env":3491,"ĠCON":3492,"fact":3493,"Ow":3494,"Sum":3495,"Ġdecl":3496,"ĠWh":3497,"ĠCommand":3498,"Bound":3499,"QU":3500,"me":3501,"ĠOpen":3502,"illis":3503,"Ġindent":3504,"acy":3505,"ĠByte":3506,"CK":3507,"ĠisAnyTracingEnabled":3508,"dim":3509,"build":3510,"Ġlayout":3511,"Ġfont":3512,"PC":3513,"Box":3514,"ignment":3515,"vis":3516,"////////////////":3517,"ferent":3518,"ĠLe":3519,"ragment":3520,"ĠDoc":3521,"aml":3522,"Ġcap":3523,"Upd":3524,"ĠBuffer":3525,"Ġupdated":3526,"ĠClose":3527,"ols":3528,"ialog":3529,"copy":3530,"Ġ${":3531,"Ġ\"<":3532,"Ġexc":3533,"Ġ'--":3534,"active":3535,"Ġ\"\"\"":3536,"MS":3537,"Ġrepo":3538,"Ġmedia":3539,"itude":3540,"Ġotherwise":3541,"Oper":3542,"Conn":3543,"plete":3544,"Mem":3545,"']":3546,"Ġattem":3547,"lines":3548,"Ġrunning":3549,"Ġchanged":3550,"Ġhigh":3551,"Ġ\".":3552,"Ġsig":3553,"ĠValidate":3554,"ĠTable":3555,"ixel":3556,"Ġenumer":3557,"ense":3558,"Ġstrpos":3559,"Ġinstead":3560,"plicit":3561,"location":3562,"Ġfuture":3563,"ĠUtil":3564,"erson":3565,"ĠLocal":3566,"server":3567,"Ġbutton":3568,"Ġflat":3569,"ĠgetPro":3570,"Ġinteger":3571,"Enum":3572,"okens":3573,"Ġtt":3574,"ATOR":3575,"msg":3576,"Ġneeded":3577,"ernel":3578,"ĠgetKey":3579,"ĠTypeError":3580,"ĠRemove":3581,"Ġcriteria":3582,"ĠErrCode":3583,"SO":3584,"ider":3585,"eometry":3586,"CA":3587,"ĠNumber":3588,"ERROR":3589,"Ġpartition":3590,"Ġedge":3591,"umb":3592,"case":3593,"Author":3594,"limit":3595,"ĠCal":3596,"Ġrs":3597,"Ġdepth":3598,"tom":3599,"15":3600,"ĠAttribute":3601,"Ġ^":3602,"ĠStart":3603,"Ġwidget":3604,"Inv":3605,"ives":3606,"Ġmatching":3607,"Ġfilepath":3608,"ĠNote":3609,"ues":3610,"Wrapper":3611,"connect":3612,"Ġunder":3613,"Ġevery":3614,"ĠTraceComponent":3615,"Button":3616,"Ġupload":3617,"book":3618,"asure":3619,"chive":3620,"Groups":3621,"Ġdelta":3622,"wd":3623,"child":3624,"Extension":3625,"Ġemit":3626,"Ġassociated":3627,"ibility":3628,"Cluster":3629,"Agent":3630,"),":3631,"Ġrelative":3632,"ĠOutput":3633,"Ġzero":3634,"Ġmove":3635,"Ġfill":3636,"Ġsetting":3637,"azz":3638,"ĠĠĠĠĠĠĠ":3639,"Ġdrop":3640,"Atom":3641,"#{":3642,"Ġround":3643,"core":3644,"first":3645,"alys":3646,"Ġonce":3647,"upt":3648,"ACK":3649,"Ġpopul":3650,"Script":3651,"email":3652,"bound":3653,"Device":3654,"Adds":3655,"Ġauto":3656,"19":3657,"req":3658,"Ġelem":3659,"\"\"":3660,"Ġhow":3661,"custom":3662,"Ġflush":3663,"password":3664,"OP":3665,"admin":3666,"ĠHead":3667,"used":3668,"top":3669,"PRE":3670,"Ġcompute":3671,"80":3672,"Ġinterval":3673,"off":3674,"Ġtheir":3675,"range":3676,"Ġusers":3677,"Open":3678,"Ġmodels":3679,"(?":3680,"Ġdt":3681,"bit":3682,"acity":3683,"mar":3684,"application":3685,"SION":3686,"uded":3687,"Ġart":3688,"Ġlookup":3689,"ĠDI":3690,"asc":3691,"cessed":3692,"HTTP":3693,"ĠgetInstance":3694,"Ġstructure":3695,"Ġenabled":3696,"ĠContent":3697,"ĠDouble":3698,"ĠURI":3699,"only":3700,"Ġ\"-":3701,"crement":3702,"ĠChar":3703,"Ġsol":3704,"Required":3705,"ATA":3706,"33":3707,"Long":3708,"Ġdataset":3709,"jection":3710,"icle":3711,"Ġalways":3712,"Ġpod":3713,"ault":3714,"Red":3715,"ĠDateTime":3716,"iteral":3717,"Ġ'\\\\":3718,"))":3719,"itive":3720,"herit":3721,"Ġmean":3722,"Ġremoved":3723,"Ġdraw":3724,"PTION":3725,"Ġoperator":3726,"Use":3727,"Ġ{}\"":3728,"local":3729,"\\'":3730,"Ph":3731,"just":3732,"delete":3733,"Ġduration":3734,"Ġ#{":3735,"ffect":3736,"]+":3737,"Sl":3738,"Ġdiv":3739,"INE":3740,"ĠNO":3741,"Ġts":3742,"ĠThrow":3743,"Layout":3744,"bservable":3745,"Ġrelated":3746,"Ġcss":3747,"Domain":3748,"Ġencoded":3749,"Ġamazon":3750,"Ġfollowing":3751,"board":3752,"words":3753,"Fail":3754,"Ġcancel":3755,"ĠGroup":3756,"Ġvisit":3757,"Ġsuffix":3758,"First":3759,"Ġproto":3760,"urrent":3761,"lap":3762,"ĠinvalidParams":3763,"Ġrequested":3764,"Ġevalu":3765,"ural":3766,"true":3767,"Ġob":3768,"Av":3769,"Ġalt":3770,"del":3771,"stack":3772,"Plugin":3773,"Ġimg":3774,"Ġdifferent":3775,"FILE":3776,"Ignore":3777,"Ġmemory":3778,"Language":3779,"Ġds":3780,"ClientException":3781,"container":3782,"Events":3783,"000":3784,"Ġprintln":3785,"Ġ201":3786,"22":3787,"lowed":3788,"frame":3789,"Details":3790,"ntax":3791,"Ġsync":3792,"ouse":3793,"ZE":3794,"ĠforEach":3795,"Ġbest":3796,"rt":3797,"POST":3798,"Ġinstall":3799,"roy":3800,"cursive":3801,"Custom":3802,"Ġbranch":3803,"sort":3804,"Resources":3805,"Ġvector":3806,"ĠInfo":3807,"Ġpublish":3808,"uff":3809,"async":3810,"ifest":3811,"Ġfr":3812,"test":3813,"ĠUnmarshal":3814,"Ġtyp":3815,"([":3816,"Op":3817,"anner":3818,"Space":3819,"eam":3820,"Ġgr":3821,"Ġuuid":3822,"Struct":3823,"Ġmenu":3824,"expected":3825,"Send":3826,"Ġhex":3827,"Ġjs":3828,"Window":3829,"Thread":3830,"por":3831,"Ġbeing":3832,"Ġseq":3833,"ClassName":3834,"Ġconcat":3835,"totype":3836,"ĠTask":3837,"opt":3838,"ek":3839,"iate":3840,"ĠEntry":3841,"ipeline":3842,"Attr":3843,"Ġamount":3844,"static":3845,"Ġkind":3846,"Ġ32":3847,"Retrie":3848,"Ġoverride":3849,"cor":3850,"Ġnotification":3851,"Ġsynchronized":3852,"Ġrecords":3853,"Ġupper":3854,"cell":3855,"estination":3856,"ĠFl":3857,"ĠNon":3858,"Ġhasattr":3859,"access":3860,"Ġchan":3861,"Ġquote":3862,"Ġphp":3863,"]'":3864,"CO":3865,"Ind":3866,"ĠText":3867,"uplic":3868,"Ġgetattr":3869,"rows":3870,"ORT":3871,"yles":3872,"Transl":3873,"Ġedit":3874,"Ġsetup":3875,"Scope":3876,"ĠSession":3877,"Ġcookie":3878,"Ġperiod":3879,"Ġdictionary":3880,"ĠSDK":3881,"Mark":3882,"Ġnormalize":3883,"Ġinstances":3884,"Ġconstructor":3885,"Proxy":3886,"ĠEntity":3887,"Ġdistance":3888,"ĠExec":3889,"bytes":3890,"HER":3891,"ithub":3892,"Chain":3893,"Ġcomb":3894,"Ġcounter":3895,"Active":3896,"Ġhref":3897,"Ġpersist":3898,"Folder":3899,"HE":3900,"meta":3901,"STR":3902,"Ġexternal":3903,"Ġhe":3904,"ĠCl":3905,"Network":3906,"ayers":3907,"Generator":3908,"Ġstdout":3909,"Left":3910,"ĠgetProperty":3911,"Ġcomplete":3912,"Password":3913,"ĠBlock":3914,"pol":3915,"Locale":3916,"mem":3917,"LECT":3918,"Ġbox":3919,"ynamic":3920,"Ġ':'":3921,"decode":3922,"conf":3923,"eries":3924,"Ġlogin":3925,"ializer":3926,"rec":3927,"Ġdot":3928,"Ġverify":3929,"Ġends":3930,"Ġbean":3931,"OF":3932,"Ġpanic":3933,"ended":3934,"Current":3935,"Ġregex":3936,"Ġboth":3937,"tolower":3938,"ĠPAR":3939,"Ġvolume":3940,"ĠRef":3941,"ROM":3942,"GroupName":3943,"Word":3944,"Ver":3945,"acter":3946,"Ġ-=":3947,"DS":3948,"Ġcharacters":3949,"icon":3950,"mission":3951,"Ġbel":3952,"Ġhook":3953,"amily":3954,"ĠTem":3955,"ĠJob":3956,"ecess":3957,"Ġtopic":3958,"Ġequal":3959,"ixed":3960,"ĠStream":3961,"havi":3962,"Relation":3963,"ORY":3964,"uce":3965,"olog":3966,"ĠUnlock":3967,"ĠfileName":3968,"span":3969,"Ġvia":3970,"Ġreason":3971,"Ġnumpy":3972,"Ġcorres":3973,"Ġseconds":3974,"ensor":3975,"Conf":3976,"parameters":3977,"ĠStr":3978,"LASS":3979,"contents":3980,"Ġadmin":3981,"ĠHTML":3982,"XT":3983,"ross":3984,"irm":3985,"ĠAm":3986,"ifact":3987,"Ġverbose":3988,"Non":3989,"NotFoundException":3990,"ES":3991,"Ġrelease":3992,"NON":3993,"grade":3994,"ven":3995,"Register":3996,"SQL":3997,"ĠBuild":3998,"Ġmetric":3999,"queue":4000,"Ġsecret":4001,"Exists":4002,"Ġclazz":4003,"}/":4004,"OST":4005,"Interval":4006,"Ġprogress":4007,"ĠFilter":4008,"ene":4009,"Ġifc":4010,"ĠFI":4011,"shift":4012,"anization":4013,"Ġ'-'":4014,"ĠDebug":4015,"Ġ\"/\"":4016,"uring":4017,"hing":4018,"ĠDep":4019,"Cell":4020,"Sequence":4021,"ĠisDebug":4022,"Ġregistry":4023,"Ġtick":4024,"select":4025,"Ġorigin":4026,"tribution":4027,"Ġservices":4028,"Profile":4029,"ategories":4030,"Ġway":4031,"plot":4032,"17":4033,"ĠTag":4034,"*'":4035,"prec":4036,"ĠConvert":4037,"ĠSdkClientException":4038,"ĠContainer":4039,"Ġagent":4040,"Ġstored":4041,"Ġanother":4042,"SET":4043,"Ġ200":4044,"Ġmer":4045,"Ġinitialize":4046,"Sync":4047,"ĠLink":4048,"ĠVersion":4049,"ĠConnection":4050,"VALUE":4051,"ĠAd":4052,"Ġwrapper":4053,"iddleware":4054,"ĠOptional":4055,"Ġdisable":4056,"cp":4057,"Ġlogic":4058,"Transform":4059,"style":4060,"ĠgetAttribute":4061,"uction":4062,"oper":4063,"exception":4064,"Term":4065,"PA":4066,"QUE":4067,"Ġdirection":4068,"Pan":4069,"Lower":4070,"connection":4071,"Ġplatform":4072,"Ġengine":4073,"Ġcompile":4074,"Ġpres":4075,"Ġfinish":4076,"ĠFormat":4077,"Ġacc":4078,"Web":4079,"Ġ>>>":4080,"Checks":4081,"Clo":4082,"right":4083,"Ġusage":4084,"Ġcomponents":4085,"Ġms":4086,"Ġsav":4087,"Ġloader":4088,"onitor":4089,"EntryEnabled":4090,"scrib":4091,"Ġdom":4092,"vari":4093,"plugin":4094,"fully":4095,"onds":4096,"Ġcalls":4097,"ty":4098,"entry":4099,"ĠisEntryEnabled":4100,"track":4101,"Ġwould":4102,"Bucket":4103,"Ġregistered":4104,"Ġconversion":4105,"buffer":4106,"ITY":4107,"romise":4108,"Project":4109,"handle":4110,"Ġinclud":4111,"ĠNull":4112,"wrap":4113,"Ġescape":4114,"ĠAbstract":4115,"ĠAND":4116,"Arg":4117,"Future":4118,"step":4119,"ployment":4120,"Ġwhat":4121,"alysis":4122,"Ġsuch":4123,"Ġtimes":4124,"Ġbits":4125,"Ġicon":4126,"supported":4127,"ecessary":4128,"Ġmu":4129,"LOW":4130,"Segment":4131,"Ġpermission":4132,"Product":4133,"Email":4134,"Ġscan":4135,"VI":4136,"Graph":4137,"quires":4138,"points":4139,"Ġcallable":4140,"Ġnamed":4141,"EXT":4142,"Ġsimple":4143,"Ġ\"{":4144,"ĠLOGGER":4145,"task":4146,"ĠWork":4147,"debug":4148,"lex":4149,"pose":4150,"sume":4151,"Ġans":4152,"Ġvars":4153,"Pair":4154,"cast":4155,"tags":4156,"Ġzone":4157,"Ġbin":4158,"Ġfall":4159,"Step":4160,"author":4161,"alth":4162,"ĠFind":4163,"Down":4164,"metadata":4165,"Ġseries":4166,"ains":4167,"Ġrot":4168,"can":4169,"ĠgetR":4170,"Ġmaster":4171,"cmd":4172,"question":4173,"inates":4174,"condition":4175,"handler":4176,"exec":4177,"Ġgp":4178,"DER":4179,"Ġstrtolower":4180,"manager":4181,"Ġseparator":4182,"Ġsafe":4183,"anaged":4184,"ĠSpec":4185,"Ġfunctions":4186,"utdown":4187,"Tx":4188,"ĠOperation":4189,"Ġalpha":4190,"Ġcontaining":4191,"Ġ\"_":4192,"ferred":4193,"ĠHE":4194,"Stats":4195,"Ġmigr":4196,"atio":4197,"ogn":4198,"Ġdetermine":4199,"Ġ20":4200,"XML":4201,"ĠĠĠĠĠĠ":4202,"Ġloaded":4203,"Ġtranslate":4204,"Vari":4205,"ĠThrowable":4206,"Ġmaximum":4207,"COM":4208,"Ġactions":4209,"height":4210,"PATH":4211,"Children":4212,"Ġvalidator":4213,"ĠJoin":4214,"Ġidentity":4215,"Adapter":4216,"Desc":4217,"istration":4218,"Ġreverse":4219,"ĠGo":4220,"Ġbackend":4221,"Ġhelper":4222,"Idx":4223,"Ġdownload":4224,"Ġcandid":4225,"Zone":4226,"vc":4227,"ĠisDebugEnabled":4228,"Errors":4229,"loaded":4230,"Ġpid":4231,"ĠER":4232,"Ġmath":4233,"Ġdisk":4234,"ĠTR":4235,"Display":4236,"Ġenable":4237,"ĠMax":4238,"ECT":4239,"inator":4240,"Ġenumerate":4241,"ĠLogger":4242,"Registry":4243,"Ġstartswith":4244,"Day":4245,"strap":4246,"Title":4247,"Ġ24":4248,"Co":4249,"Ġps":4250,"Ġneg":4251,"oom":4252,"Ġfp":4253,"Database":4254,"PARATOR":4255,"site":4256,"ĠApplication":4257,"CP":4258,"Ġthese":4259,"Ġneeds":4260,"Ġpeer":4261,"Ġpag":4262,"script":4263,"Ġnb":4264,"leep":4265,"ĠWrap":4266,"Ġwatch":4267,"Ġvm":4268,"ĠNOT":4269,"Validate":4270,"Ġchecks":4271,"settings":4272,"Ġawait":4273,"thing":4274,"ĠRel":4275,"ĠProperty":4276,"Ġsignal":4277,"':":4278,"]\"":4279,"Enc":4280,"Ġlon":4281,"Ġdeleted":4282,"Ġdirname":4283,"ĠFunction":4284,"next":4285,"Ġsalt":4286,"istics":4287,"parser":4288,"ĠfieldName":4289,"Ġ':":4290,"Ġfig":4291,"chedul":4292,"fn":4293,"IO":4294,"Ġindices":4295,"TO":4296,"ĠBack":4297,"HERE":4298,"system":4299,"Rows":4300,"Resolver":4301,"aration":4302,"ĠgetData":4303,"ĠHeader":4304,"Parts":4305,"Ġcurr":4306,"AND":4307,"domain":4308,"Ġmetrics":4309,"ĠObservable":4310,"LETE":4311,"Warnings":4312,"56":4313,"Ġdi":4314,"cd":4315,"alan":4316,"ĠHashMap":4317,"Ġmut":4318,"ĠDocument":4319,"Selector":4320,"ĠSib":4321,"Ġworker":4322,"ĠvalueOf":4323,"errors":4324,"Ġcorrespond":4325,"Ġasync":4326,"channel":4327,"ĠgetRequest":4328,"Ġ//$":4329,"plement":4330,"Db":4331,"Ġreply":4332,"kwargs":4333,"Identity":4334,"Ġrepresentation":4335,"Ġ1000":4336,"ipher":4337,"yg":4338,"ĠgetPath":4339,"imiter":4340,"angle":4341,"ĠItem":4342,"Ġsk":4343,"ĠMake":4344,"eros":4345,"ryption":4346,"ĠOrder":4347,"InputStream":4348,"TR":4349,"attributes":4350,"Ġconfigured":4351,"ĠSel":4352,"Html":4353,"Validation":4354,"Ġscheme":4355,"Ġinvoke":4356,"Ġ'</":4357,"Ġmodified":4358,";'":4359,"ĠPh":4360,"eo":4361,"Ġcourse":4362,"ports":4363,"Ġcommands":4364,"aj":4365,"23":4366,"ĠgetConfig":4367,"Security":4368,"ides":4369,"SERVER":4370,"Ġpermissions":4371,"($":4372,"Ġsecurity":4373,"Ġgenerated":4374,"Ġclosed":4375,"bind":4376,"Ġaggreg":4377,"ĠInit":4378,"ĠCache":4379,"ighb":4380,"Ġmodules":4381,"ĠAction":4382,"ĠSign":4383,"unch":4384,"buf":4385,"Notification":4386,"Ġest":4387,"ants":4388,"ĠProcess":4389,"ours":4390,"ARN":4391,"atalog":4392,"ĠHas":4393,"Ġpriority":4394,"Ġattempt":4395,"ĠCloud":4396,"olt":4397,"Ġblocks":4398,"ĠPut":4399,"NOT":4400,"oft":4401,"Track":4402,"ĠEnd":4403,"ĠSibTr":4404,"Ġĉĉĉĉ":4405,"project":4406,"Ġpointer":4407,"mail":4408,"Ġprototype":4409,"Engine":4410,"Art":4411,"close":4412,"dist":4413,"Ġpacket":4414,"END":4415,"Sort":4416,"imer":4417,"Ġextensions":4418,"Member":4419,"Pack":4420,"Ġselection":4421,"Ġcr":4422,"vas":4423,"sets":4424,"Ġcommerce":4425,"Ġdefine":4426,"Ġ'_'":4427,"================================":4428,"ASE":4429,"px":4430,"ocation":4431,"Xml":4432,"Ġexclude":4433,"ĠtoArray":4434,"Initial":4435,"After":4436,"ĠIS":4437,"><":4438,"Ġsnapshot":4439,"Ġcalling":4440,"ĠView":4441,"!\"":4442,"etermin":4443,"ĠLoad":4444,"Could":4445,"Admin":4446,"Ġmag":4447,"Ġcredentials":4448,"63":4449,"zip":4450,"Ġ{$":4451,"Ġfire":4452,"Ġformatter":4453,"ĠBig":4454,"mask":4455,"Ġgenerator":4456,"Category":4457,"ĠApi":4458,"ĠcharAt":4459,"Ġrefresh":4460,"Ġdev":4461,"Ġscore":4462,"Ġremaining":4463,"FT":4464,"td":4465,"Paths":4466,"Ġfeatures":4467,"property":4468,"Comment":4469,"ĠServiceResponse":4470,"Ġimplementation":4471,"Ġserialize":4472,"ops":4473,"ccept":4474,"SSION":4475,"hook":4476,"ĠSimple":4477,"Rules":4478,"remove":4479,"ĠCan":4480,"paths":4481,"left":4482,"errupt":4483,"udio":4484,"imes":4485,"Ġmost":4486,"hs":4487,"FC":4488,"Ġexpect":4489,"gb":4490,"ke":4491,"ively":4492,"ffic":4493,"ĠNow":4494,"ĠAmazon":4495,"ness":4496,"Batch":4497,"ĠIterator":4498,"entic":4499,"show":4500,"Ġli":4501,"alled":4502,"LL":4503,"ideo":4504,"holder":4505,"ĠgetA":4506,"gen":4507,"Ġcoll":4508,".*":4509,"Success":4510,"Ġwords":4511,"RECT":4512,"Ġchr":4513,"Ġstderr":4514,"Cannot":4515,"Ġadapter":4516,"Ġlif":4517,"ĠET":4518,"Ġrc":4519,"Ġleast":4520,"gt":4521,"Integer":4522,"requ":4523,"vals":4524,"Strategy":4525,"ilt":4526,"mag":4527,"https":4528,"Ġstandard":4529,"ison":4530,"valu":4531,"checked":4532,"Ġupdates":4533,"Socket":4534,"ivery":4535,"asic":4536,"DIR":4537,"timeout":4538,"adoc":4539,"Ġinputs":4540,"Ġindic":4541,"Ġexpand":4542,"Ġavoid":4543,"Ġqual":4544,"Volume":4545,"Ġmatcher":4546,"ĠProtocol":4547,"Ġspan":4548,"struction":4549,"SEPARATOR":4550,"Ġcurrently":4551,"ĠMAX":4552,"Ġleg":4553,"ĠYou":4554,"Ġuid":4555,"Ġsn":4556,"ĠLevel":4557,"att":4558,"SL":4559,"ocus":4560,"Ġ255":4561,"ĠVar":4562,"FIX":4563,"ĠhasNext":4564,"'re":4565,"MP":4566,"rypted":4567,"Snapshot":4568,"Ġdum":4569,"Ifc":4570,"ĠFROM":4571,"Join":4572,"Ġnecessary":4573,"SIZE":4574,"Modified":4575,"Layer":4576,"DF":4577,"ecycle":4578,"Remov":4579,"Ġsupplied":4580,"aim":4581,"Ġspecial":4582,"Rout":4583,"Depend":4584,"Ġ\".\"":4585,"ĠCore":4586,"Ġlow":4587,"Ġexecution":4588,"attribute":4589,"Ġinject":4590,"Ġwere":4591,"Ġtasks":4592,"ĠdefaultValue":4593,"DATE":4594,"Feature":4595,"CS":4596,"Mapper":4597,"ĠSuppress":4598,"Menu":4599,"Insert":4600,"faces":4601,"Ġimages":4602,"ĠAct":4603,"Ġcalculate":4604,"Close":4605,"Ġtables":4606,"esh":4607,"Ġdeep":4608,"Widget":4609,"arm":4610,"ĠSchema":4611,"ĠfilePath":4612,"incip":4613,"Ġretrieve":4614,"role":4615,"icro":4616,"Ġcenter":4617,"OS":4618,"edit":4619,"Ġcause":4620,"ĠRed":4621,"Ġ'@":4622,"_'":4623,"Ġdelay":4624,"Generate":4625,"safe":4626,"Ġpad":4627,"Arguments":4628,"ĠPRO":4629,"03":4630,"account":4631,"OutputStream":4632,"Ġrouter":4633,"Ġpending":4634,"Matrix":4635,"Ġconditions":4636,"bro":4637,"ressed":4638,"ĠMatch":4639,"Ġresolved":4640,"Ġperm":4641,"Ġord":4642,"cording":4643,"ne":4644,"ĠresourceGroupName":4645,"conn":4646,"alyz":4647,"Ġ11":4648,"Before":4649,"groups":4650,"Ġnorm":4651,"component":4652,"Ġbar":4653,"Ġshift":4654,"ĠPARAM":4655,"Ġcorresponding":4656,"Ġdump":4657,"Prop":4658,"ĠConfiguration":4659,"graph":4660,"send":4661,"Ġ\"$":4662,"ĠHandler":4663,"Cap":4664,"olders":4665,"Edit":4666,"Me":4667,"Driver":4668,"sql":4669,"Core":4670,"Ġyet":4671,"):":4672,"ĠOther":4673,"Ġiv":4674,"pings":4675,"ology":4676,"ĠApp":4677,"Flag":4678,"Ġlisteners":4679,"ALSE":4680,"Ġdays":4681,"Ġclick":4682,"resources":4683,"TIME":4684,"ALL":4685,"ĠPoint":4686,"Ġexcl":4687,"job":4688,"Ġpages":4689,"nodes":4690,"Ġtrain":4691,"Ġuses":4692,"Ġflow":4693,"Ġslot":4694,"></":4695,"Ġmeans":4696,"Ġĉĉĉ":4697,"eme":4698,"vars":4699,"77":4700,"classes":4701,"Ġpartial":4702,"ĠDOM":4703,"Are":4704,"Encoding":4705,"ĠCUR":4706,"ĠPy":4707,"onom":4708,"Test":4709,"Objects":4710,"Ġ15":4711,"Methods":4712,"(\\":4713,"USER":4714,"Ġglob":4715,"Ġlinks":4716,"results":4717,"required":4718,"Certificate":4719,"find":4720,"Ġnote":4721,"ANCE":4722,"Float":4723,"Ġembed":4724,"ĠAss":4725,"Right":4726,"Rate":4727,"man":4728,"Ġpatch":4729,"ĠsetAttribute":4730,"ygon":4731,"ĠUT":4732,"Summary":4733,"parison":4734,"ĠgetUser":4735,"Ġtransport":4736,"Ġsom":4737,"properties":4738,"Ġlin":4739,"QUEST":4740,"Orig":4741,"Expr":4742,"category":4743,"Ġsq":4744,"Servlet":4745,"Ġfeed":4746,"Cms":4747,"Ġbrowser":4748,"ws":4749,"Ġprotected":4750,"oding":4751,"Ġ60":4752,"ĠColumn":4753,"Ġ'\"'":4754,"Save":4755,"Cle":4756,"bin":4757,"emon":4758,"helper":4759,"aunch":4760,"Attach":4761,"PUT":4762,"35":4763,"Ġnested":4764,"Ġconsumer":4765,"ĠĠĠĠĠĠĠĠĠĠĠĠĠĠĠĠĠĠĠĠĠĠĠĠĠĠĠĠĠĠĠĠ":4766,"Ġalloc":4767,"success":4768,"Ġtile":4769,"onical":4770,"FileName":4771,"WithContext":4772,"ood":4773,"ĠgetE":4774,"ĠtableName":4775,"allel":4776,"Upload":4777,"mount":4778,"Rece":4779,"peat":4780,"ĠSuppressWarnings":4781,"Public":4782,"ĠQu":4783,"egate":4784,"merce":4785,"Exist":4786,"lector":4787,"Ġschedule":4788,"Counter":4789,"Ġpi":4790,"Ġmail":4791,"Ġimplements":4792,"addr":4793,"Ġtranslation":4794,"Ġblob":4795,"Ġcompat":4796,"Ġfast":4797,"Ġexceptions":4798,"Ġplugins":4799,"Ġspecify":4800,"lat":4801,"Bl":4802,"SELECT":4803,"ĠNext":4804,"avadoc":4805,"ather":4806,"ares":4807,"sm":4808,"Raw":4809,"Ġprodu":4810,"my":4811,"Ġcast":4812,"covery":4813,"Millis":4814,"dius":4815,"src":4816,"uted":4817,"Classes":4818,"bot":4819,"Report":4820,"schema":4821,"ĠDuration":4822,"ĠBe":4823,"created":4824,"Ġmight":4825,"ĠAll":4826,"BUG":4827,"Vert":4828,"ĠgetDefault":4829,"URE":4830,"Ġadds":4831,"Ġinside":4832,"Ġmembers":4833,"Ġmat":4834,"Ġboot":4835,"udit":4836,"sole":4837,"ĠMessages":4838,"Ġdecor":4839,"fr":4840,"Missing":4841,"LOG":4842,"Ġfree":4843,"Calcul":4844,"Ġfit":4845,"Ġknown":4846,"Ġmatched":4847,"60":4848,"ponses":4849,"havior":4850,"Over":4851,"ĠWHERE":4852,"uilt":4853,"Ġder":4854,"Ġhy":4855,"Ġcharset":4856,"cli":4857,"Ġeditor":4858,"Ġstill":4859,"Ġweek":4860,"register":4861,"Ġtake":4862,"Ġpd":4863,"Ġsing":4864,"weight":4865,"ĠIfc":4866,"shape":4867,";\"":4868,"ĠOR":4869,"HTML":4870,"Ġ~":4871,"Ġconstruct":4872,"unit":4873,"Unknown":4874,"web":4875,"caling":4876,"ents":4877,"Constraints":4878,"Ġsubmit":4879,"nd":4880,"ui":4881,"Ġbasename":4882,"DATA":4883,"ĠThread":4884,"Ġtoo":4885,"Ġalgorithm":4886,"scope":4887,"Ġaccording":4888,"Ġside":4889,"axis":4890,"Ġlatest":4891,"Ġmime":4892,"ĠHost":4893,"Ġcaller":4894,"ube":4895,"conv":4896,"Short":4897,"/\"":4898,"?'":4899,"Ġroles":4900,"logger":4901,"ĠTree":4902,"Ġmb":4903,"Ġdependency":4904,"actions":4905,"Ġmany":4906,"Dig":4907,"ĠisValid":4908,"ookup":4909,"Assign":4910,"avig":4911,"Ġroutes":4912,"Writ":4913,"Ġquot":4914,"Ġsubscription":4915,"Ġsummary":4916,"Ġrect":4917,"ĠmethodName":4918,"Ġhandlers":4919,"erved":4920,"Timestamp":4921,"Ġzeros":4922,"language":4923,"dec":4924,"Ġreject":4925,"Pointer":4926,"Ġhistory":4927,"ART":4928,"Ġprocessing":4929,"alias":4930,"FS":4931,"Ġkeyword":4932,"ĠYii":4933,"ĠFALSE":4934,"COL":4935,"lang":4936,"namespace":4937,"/{":4938,"split":4939,"Ġ'__":4940,"omatic":4941,"Ġcli":4942,"eer":4943,"Ġcertificate":4944,"Ġws":4945,"Ġcc":4946,"Stop":4947,"ĠGP":4948,"orig":4949,"Ġdescriptor":4950,"pattern":4951,"opts":4952,"Ġown":4953,"Ġconstraint":4954,"Ġformatted":4955,"Site":4956,"Ġpixel":4957,"El":4958,"Ġslug":4959,"NG":4960,"cheduler":4961,"rv":4962,"total":4963,"chor":4964,"Auto":4965,"ough":4966,"Ġabsolute":4967,"Ġdimension":4968,"ĠstartsWith":4969,"'\"":4970,"Ġunits":4971,"Ġbounds":4972,"iling":4973,"posite":4974,"orter":4975,"Extract":4976,"Ġduplic":4977,"ĠGET":4978,"Ġcreating":4979,"Ġchart":4980,"Ġscalar":4981,"Ġduring":4982,"FORM":4983,"Rol":4984,"Ġsuccessfully":4985,"Det":4986,"Ġcos":4987,"imate":4988,"scribe":4989,"Perform":4990,"Ġrequires":4991,"Ġpadding":4992,"Ġrate":4993,"ĠStore":4994,"Ġplan":4995,"paces":4996,"ĠgetString":4997,"ĠSource":4998,"ĠKeyError":4999,"Stat":5000,"Ġes":5001,"Multi":5002,"Ġcm":5003,"ĠHandle":5004,"Fetch":5005,"Ġtheme":5006,"CHE":5007,"ĠBuilder":5008,"Ġseed":5009,"Import":5010,"Ġcho":5011,"pressions":5012,"Bag":5013,"Dict":5014,"raft":5015,"ĠAccess":5016,"CL":5017,"Vector":5018,"ĠUN":5019,"shop":5020,"********************************":5021,"egin":5022,"Ġstarting":5023,"Ġvirtual":5024,"imitive":5025,"34":5026,"Period":5027,"Ġmk":5028,"itions":5029,"Ġdependencies":5030,"ĠgetField":5031,"ifies":5032,"Changed":5033,"256":5034,"ĠTemplate":5035,"area":5036,"ĠInputStream":5037,"azy":5038,"Ġresolver":5039,"profile":5040,"Permission":5041,"Allowed":5042,"Ġele":5043,"erms":5044,"Ġ14":5045,"Arn":5046,"Props":5047,"Ins":5048,"Mult":5049,"Ġsix":5050,"Ġcloud":5051,"Ġarchive":5052,"username":5053,"ention":5054,"Ġknow":5055,"Ġsur":5056,"Ġhandling":5057,"Messages":5058,"ĠRecord":5059,"StateException":5060,"Ġdid":5061,"HT":5062,"VALID":5063,"ĠcontentType":5064,"cade":5065,"Ġnotify":5066,"ĠArgument":5067,"Ġconfigure":5068,"OUT":5069,"ĠgetResource":5070,"Ġgit":5071,"Converter":5072,"Ġquestion":5073,"Formatter":5074,"fos":5075,"ilities":5076,"ium":5077,"incipal":5078,"Ġreceived":5079,"Full":5080,"Ġdr":5081,"30":5082,"Ġnothing":5083,"std":5084,"Ġbinding":5085,"policy":5086,"ĠOptions":5087,"tn":5088,"ĠgetParent":5089,"ĠExample":5090,"Ġarea":5091,"eletes":5092,"CR":5093,"Flags":5094,"=%":5095,"DateTime":5096,"Sep":5097,"ĠOnly":5098,"light":5099,"Ġmet":5100,"Sql":5101,"Ġsepar":5102,"IDs":5103,"Ġforward":5104,"Ġfiltered":5105,"NLS":5106,"Ġauthentication":5107,"Print":5108,"Ġpromise":5109,"ĠJava":5110,"tc":5111,"columns":5112,"abs":5113,"Ġbackup":5114,"imation":5115,"Ġshared":5116,"olicies":5117,"Ġgl":5118,"CESS":5119,"pop":5120,"Updates":5121,"Ġdirectly":5122,"Ġrepresenting":5123,"!'":5124,"Associ":5125,"Validator":5126,"IS":5127,"ĠNetwork":5128,"trace":5129,"ĠDatabase":5130,"ĠStop":5131,"ById":5132,"Dist":5133,"ATUS":5134,"LOPT":5135,"precated":5136,"Ġlater":5137,"apture":5138,"Dat":5139,"Ġentities":5140,"rate":5141,"icense":5142,"ĠVAL":5143,"Ġtempor":5144,"Ġapprop":5145,"mutable":5146,"Price":5147,"ierarch":5148,"directory":5149,"cut":5150,"TEXT":5151,"Ġjav":5152,")\\":5153,"ĠgetContent":5154,"Ġsegments":5155,"cision":5156,"Tokens":5157,"Ġ\"[":5158,"UTF":5159,"Global":5160,"oo":5161,"ival":5162,"methods":5163,"Processor":5164,"Region":5165,"Ġfailure":5166,"ĠSearch":5167,"Ġpartic":5168,"Remote":5169,"trl":5170,"lict":5171,"Ġappropri":5172,"ately":5173,"Ġgre":5174,"ĠgetCurrent":5175,"dn":5176,"Ġisn":5177,"Ġ64":5178,"ĠRoute":5179,"ĠInstance":5180,"ĠCP":5181,"leton":5182,"Ġ'&":5183,"Ġpayment":5184,"network":5185,"Ġbr":5186,"\"'":5187,"Rest":5188,"=\\\"":5189,"Bar":5190,"alancer":5191,"ELD":5192,"84":5193,"Ġfd":5194,"ĠJavadoc":5195,"Ġ30":5196,"Gateway":5197,"Ġsaved":5198,"Ġhostname":5199,"Ġgoogle":5200,"help":5201,"Ġss":5202,"ĠWhen":5203,"Ġprocessed":5204,"after":5205,"dev":5206,"Secret":5207,"ething":5208,"Ġprovid":5209,"Ġgeneric":5210,"itespace":5211,"css":5212,"Ġoptim":5213,"Ġ'='":5214,"Connect":5215,"Ġsamples":5216,"Ġrestore":5217,"Ġut":5218,"ĠNOTE":5219,"RECTORY":5220,"Ġretval":5221,"grid":5222,"stit":5223,"Ġminimum":5224,"Dim":5225,"Ġtool":5226,"endor":5227,"Ġmachine":5228,"brocade":5229,"Ġchars":5230,"Ġedges":5231,"Ġrelationship":5232,"SA":5233,"Watch":5234,"ĠStorage":5235,"FIG":5236,"CLASS":5237,"Ġ\"--":5238,"opes":5239,"UND":5240,"anit":5241,"Ġless":5242,"argin":5243,"Ġversions":5244,"ĠConstants":5245,"numeric":5246,"Failure":5247,"Ġda":5248,"Flow":5249,"Binding":5250,"Ġcountry":5251,"Ġunicode":5252,"Ġvertex":5253,"main":5254,"AY":5255,"He":5256,"ulk":5257,"/%":5258,"plies":5259,"Ġconsider":5260,"Ġargv":5261,"Where":5262,"Ptr":5263,"Ġsmall":5264,"Double":5265,"ĠEnv":5266,"ĠAddress":5267,"Available":5268,"Total":5269,"Ġcard":5270,"Ġ'[":5271,"ĠOtherwise":5272,"Ip":5273,"Ġcompiler":5274,"Ġlex":5275,"ĠNames":5276,"METH":5277,"ĠorderBy":5278,"xx":5279,"DEFAULT":5280,"Single":5281,"Ġ'\\\\'":5282,"umul":5283,"AA":5284,"Section":5285,"uc":5286,"ĠLabel":5287,"ceed":5288,"Execute":5289,"trim":5290,"Ġangle":5291,"86":5292,"secon":5293,"ĠInter":5294,"Ġoperations":5295,"stats":5296,"xff":5297,"ĠCURLOPT":5298,"Ġfname":5299,"=\"'":5300,"Ġuseful":5301,"Ġeval":5302,"batch":5303,"JECT":5304,"Ġcomput":5305,"Ġ'*'":5306,"ĠChannel":5307,"ysql":5308,"Ġprevent":5309,"hip":5310,"ĠKEY":5311,"rees":5312,"Ġlibrary":5313,"Ġagainst":5314,"BO":5315,"Ġgeometry":5316,"Ġ??":5317,"Ġmac":5318,":%":5319,"Ġtax":5320,"UNT":5321,"ones":5322,"Ġkw":5323,"27":5324,"Dispatch":5325,"Duration":5326,"METHOD":5327,"sw":5328,"Ġsleep":5329,"acing":5330,"oriz":5331,"has":5332,">\\":5333,"Ġinspect":5334,"Symbol":5335,"labels":5336,"Ġbasic":5337,"Ġproper":5338,"aving":5339,"21":5340,"Ġflatten":5341,"Ġ19":5342,"Ġserialized":5343,"Ġmount":5344,"rule":5345,"Ġnd":5346,"Ġcols":5347,"Ġthose":5348,"ale":5349,"oder":5350,"Ġreferences":5351,"Ġarrays":5352,"ca":5353,"IVE":5354,"ĠAS":5355,"Ġhist":5356,"Usage":5357,"Login":5358,"Filename":5359,"Ġallows":5360,"Instances":5361,"Ġlv":5362,"writ":5363,"ĠeZ":5364,"Plan":5365,"Ġ$$":5366,"Ġsin":5367,"Direct":5368,"Information":5369,"UI":5370,"ĠExpression":5371,"Fn":5372,"Ġmarker":5373,"Signature":5374,"ĠĠĠĠĠĠĠĠĠĠĠĠĠĠĠĠĠ":5375,"Ġweights":5376,"ĠLine":5377,"Ġ[]":5378,"transl":5379,"ĠLE":5380,"Ġconstant":5381,"Ġsym":5382,"ĠTRUE":5383,"Ġmerged":5384,"ĠSplit":5385,"Ġdatas":5386,"invalid":5387,"Ġcontact":5388,"ookies":5389,"olve":5390,"button":5391,"yntax":5392,"ĠReader":5393,"Hook":5394,"ĠparseInt":5395,"Metric":5396,"ĠĠĠĠĠĠĠĠĠĠĠĠĠĠĠĠĠĠĠĠ":5397,"ITE":5398,"arr":5399,"Entries":5400,"Coord":5401,"Ġprogram":5402,"Ġdigest":5403,"ridge":5404,"Ġpur":5405,"ampa":5406,"NE":5407,"ales":5408,"ongo":5409,"Ġfact":5410,"ĠĠĠĠĠĠĠĠĠĠĠ":5411,"Ġbackground":5412,"diff":5413,"menu":5414,"ampaign":5415,"Ġmock":5416,"display":5417,"Ġproc":5418,"Media":5419,"ĠProject":5420,"mult":5421,"Filters":5422,"ĠCOM":5423,"rong":5424,"install":5425,"Ġeffect":5426,"ĠComp":5427,"ĠaddAll":5428,"alpha":5429,"ĠHtml":5430,"Ġsending":5431,"ters":5432,"ĠRegister":5433,"ĠSw":5434,"ĠComponent":5435,"seq":5436,"Ġvariant":5437,"ĠRegistry":5438,"ĠisArray":5439,"ease":5440,"Ġtimer":5441,"Ġwalk":5442,"anguages":5443,"ĠMin":5444,"Month":5445,"Ġbig":5446,"iration":5447,"icker":5448,"elist":5449,"ĠFloat":5450,"Ġplt":5451,"ĠAssert":5452,"rs":5453,"ĠInv":5454,"Ġignored":5455,"Ġeven":5456,"document":5457,"CRE":5458,"Ġreduce":5459,"Own":5460,"Cert":5461,"Ġcurrency":5462,"Ġreflection":5463,"Such":5464,"pk":5465,"pass":5466,"ĠDO":5467,"ĠScope":5468,"Ġbottom":5469,"ĠpropertyName":5470,"utils":5471,"ĠPrintln":5472,"Ġenviron":5473,"Ġawserr":5474,"ĠERROR":5475,"Opts":5476,"ĠIllegalStateException":5477,"Ġsep":5478,"ĠSubElement":5479,"Wait":5480,"Ġfragment":5481,"88":5482,"ADER":5483,"Area":5484,"ĠPOST":5485,"rypto":5486,"Uint":5487,"relation":5488,"des":5489,"Ġstrict":5490,"Progress":5491,"Ġwell":5492,"Ġstates":5493,"Environment":5494,"ĠAg":5495,"}.":5496,"ĠWriter":5497,"ĠParameter":5498,"Ġfixed":5499,"Ġcandidate":5500,"IF":5501,"ĠAny":5502,"Buf":5503,"Ġincrement":5504,"Ġappropriate":5505,"Normal":5506,"Boolean":5507,"timestamp":5508,"Encode":5509,"True":5510,"IST":5511,"tty":5512,"Ġcoordinates":5513,"ĠgetAll":5514,"Ġexplicit":5515,"################":5516,"ServiceResponse":5517,"Ġscreen":5518,"REQUEST":5519,"39":5520,"Split":5521,"coming":5522,"Ġforeign":5523,"ĠsetValue":5524,"Ġmapped":5525,"roker":5526,"Ġetc":5527,"DC":5528,"Ġep":5529,"Ġtakes":5530,"empty":5531,"Ġscroll":5532,"upd":5533,"ĠApply":5534,"MA":5535,"Ġkernel":5536,"Panel":5537,"TY":5538,"Ġtemplates":5539,"29":5540,"Owner":5541,"ĠCalendar":5542,"redicate":5543,"lay":5544,"Ġden":5545,"Ġdestroy":5546,"route":5547,"collection":5548,"*/":5549,"Ġsources":5550,"Ġpercent":5551,"ula":5552,"ogram":5553,"Icon":5554,"Vars":5555,"IgnoreCase":5556,"idual":5557,"26":5558,"Comparator":5559,"roid":5560,"ĠgetRe":5561,"UUID":5562,"ĠColor":5563,"side":5564,"Ġexact":5565,"course":5566,"uss":5567,"Setting":5568,"desc":5569,"Ġbad":5570,"Ġgets":5571,"CODE":5572,"Ġthreshold":5573,"Ġpairs":5574,"ĠgetParameter":5575,"Runtime":5576,"users":5577,"Ġfactor":5578,"Chunk":5579,"Commit":5580,":\\":5581,"Has":5582,"Listeners":5583,"ĠCluster":5584,"epCopy":5585,"<!":5586,"Scale":5587,"Ġrev":5588,"ĠVector":5589,"Ġcover":5590,"www":5591,"Operator":5592,"Year":5593,"Many":5594,"ULE":5595,"Ġindexes":5596,"ĠCOL":5597,"FilePath":5598,"Ġwarnings":5599,"Ġnumbers":5600,"ĠGraph":5601,"WithServiceResponse":5602,"WithServiceResponseAsync":5603,"Ġlar":5604,"Ġrand":5605,"dig":5606,"poser":5607,"74":5608,"folder":5609,"package":5610,"ilar":5611,"Ġmodify":5612,"WOR":5613,"'ll":5614,"Ġprovide":5615,"ĠPost":5616,"Ġannotations":5617,"lt":5618,"XX":5619,"Ġdeser":5620,"();":5621,"Ġhap":5622,"History":5623,"come":5624,"like":5625,"Ġ|=":5626,"rammar":5627,"Qual":5628,"agent":5629,"LowerCase":5630,"ĠCopy":5631,"velope":5632,"Ġrv":5633,"Ġpub":5634,"ĠHEAP":5635,"Points":5636,"anagement":5637,"ĠgetTable":5638,"chain":5639,"Ġnormalized":5640,"Ġpredicate":5641,"stat":5642,"Ġmanifest":5643,"identifier":5644,"tmp":5645,"aries":5646,"ĠArrays":5647,"rase":5648,"defin":5649,"Rec":5650,"ĠgetOption":5651,"ĠBody":5652,"Metrics":5653,"Ġdelimiter":5654,"Annotations":5655,"proxy":5656,"Ġwin":5657,"ĠCommon":5658,"float":5659,"medi":5660,"Tab":5661,"validate":5662,"requency":5663,"Lib":5664,"WN":5665,"import":5666,"matrix":5667,"window":5668,"Man":5669,"iment":5670,"lint":5671,"Ġissue":5672,"Ġdisabled":5673,"xis":5674,"ĠEX":5675,"Services":5676,"Kind":5677,"Ġcomments":5678,"signed":5679,"seg":5680,"stop":5681,"verage":5682,"Destination":5683,"ĠValidation":5684,"ĠReflection":5685,"Ġcalendar":5686,"Ġstyles":5687,"save":5688,"Ġalign":5689,"Ġrenderer":5690,"Ġct":5691,"Converts":5692,"center":5693,"Bounds":5694,"Ġready":5695,"ugg":5696,"storage":5697,"DD":5698,"available":5699,"Ġsqrt":5700,"join":5701,"comm":5702,"STANCE":5703,"OB":5704,"ĠSI":5705,"Show":5706,"ĠDIRECTORY":5707,"ands":5708,"sect":5709,"cest":5710,"Font":5711,"Ġbelow":5712,"Ġoverr":5713,"ĠXml":5714,"Arr":5715,"Pages":5716,"])":5717,"36":5718,"Ġ<!":5719,"EClass":5720,"Ġabove":5721,"ĠPer":5722,"controller":5723,"ĠcontainsKey":5724,"Ġradius":5725,"Implement":5726,"URCE":5727,"Ġactivity":5728,"Replace":5729,"Ġmov":5730,"Ġshutdown":5731,"coord":5732,"pb":5733,"force":5734,"ctr":5735,"Append":5736,"ĠCollections":5737,"raction":5738,"ĠPDO":5739,"Ġcolors":5740,"Go":5741,"plier":5742,"false":5743,"empt":5744,"enabled":5745,"Ġstarted":5746,"semb":5747,"long":5748,"Decimal":5749,"Ġchannels":5750,"sv":5751,"Protocol":5752,"Ġ\",\"":5753,"fetch":5754,"aging":5755,"abilities":5756,"VERSION":5757,"beta":5758,"salt":5759,"Ġstrconv":5760,"dl":5761,"ipart":5762,"Lines":5763,"eno":5764,"Ġadjust":5765,"Ġbus":5766,"Retrieve":5767,"inv":5768,"Ġdimensions":5769,"Ġinvok":5770,"before":5771,"]*":5772,"Ġvals":5773,"Ġtargets":5774,"Bit":5775,"font":5776,"Ġ')'":5777,"ĠStringUtils":5778,"},":5779,"Ġinteg":5780,"Ġcontexts":5781,"ĠFe":5782,"ĠFirst":5783,"Simple":5784,"Ġreturning":5785,"Locator":5786,"the":5787,"Static":5788,"illing":5789,"Ġpython":5790,"Suffix":5791,"trict":5792,"Ġsender":5793,"IFI":5794,"Ġborder":5795,"Mask":5796,"upper":5797,"Ġtail":5798,"ĠCre":5799,"Pod":5800,"usive":5801,"----------------------------------------------------------------":5802,"Ġanswer":5803,"STRING":5804,"Ġwrapped":5805,"Constraint":5806,"loor":5807,"ToString":5808,"rf":5809,"ildcard":5810,"Ġparsing":5811,"Equal":5812,"Ġredis":5813,"temp":5814,"Ġmapper":5815,"ceeded":5816,"depend":5817,"Ġpt":5818,"login":5819,"Ġshard":5820,"mac":5821,"Ġdock":5822,"ĠNoSuch":5823,"Ġroll":5824,"(...":5825,"Ġcomparison":5826,"Ġmiddleware":5827,"ients":5828,"media":5829,"txt":5830,"interface":5831,"Ġssl":5832,"ĠappendChild":5833,"\\.":5834,"ĠPromise":5835,"non":5836,"wig":5837,"ĠWait":5838,"ends":5839,"Ġconnected":5840,"xf":5841,"EOL":5842,"Ġdeg":5843,"UTH":5844,"bsolute":5845,"istic":5846,"unchecked":5847,"ĠVALUE":5848,"Ġincluded":5849,"Pol":5850,"ĠKind":5851,"Java":5852,"Ġfac":5853,"aut":5854,"Ġadapt":5855,"AV":5856,"PS":5857,"ATCH":5858,"Ġautomatic":5859,"anded":5860,"Ġcam":5861,"Ġ\"'\"":5862,"Ġrecip":5863,"scale":5864,"Ġhappen":5865,"ĠUUID":5866,"Ġcipher":5867,"peed":5868,"Consumer":5869,"ĠgetStatus":5870,"Ġlead":5871,"etype":5872,"Ġpipeline":5873,"Ġmt":5874,"secret":5875,"Ġinstalled":5876,"75":5877,"ĠSp":5878,"RED":5879,"arator":5880,"Ġseen":5881,"vance":5882,"aterial":5883,"ĠMarshal":5884,"Ġattrib":5885,"Ġcir":5886,"GB":5887,"Labels":5888,"olution":5889,"ĠMem":5890,"scriber":5891,"ĠWebAPI":5892,"Ġsv":5893,"antity":5894,"Ab":5895,"product":5896,"Uuid":5897,"Ġce":5898,"={":5899,"ctx":5900,"Ġordered":5901,"render":5902,"Ġnever":5903,"Ġrecursive":5904,"Binary":5905,"children":5906,"Ġpackages":5907,"09":5908,"cap":5909,"Ġrecover":5910,"ByName":5911,"Transfer":5912,"ars":5913,"ĠtoLowerCase":5914,"Ġui":5915,"ĠTarget":5916,"Ġunknown":5917,"ised":5918,"losure":5919,"ĠInfof":5920,"Ġconnections":5921,"Ġfallback":5922,"INFO":5923,"ĠModule":5924,"Sk":5925,"Ġcar":5926,"Ġteam":5927,"ĠSort":5928,"tle":5929,"thread":5930,"Cmd":5931,"ĠOS":5932,"Accept":5933,"Ġinstant":5934,"fill":5935,"Ġobser":5936,"REG":5937,"Diff":5938,"ĠequalsIgnoreCase":5939,"Versions":5940,"Ġwritten":5941,"Ġsat":5942,"Ġsomething":5943,"sers":5944,"Ġones":5945,"see":5946,"ĠTransaction":5947,"BE":5948,"Ġhidden":5949,"Ġchecked":5950,"Ġcompleted":5951,"Into":5952,"Ġcanvas":5953,"errupted":5954,"Ġneighb":5955,"Ġevaluate":5956,"ued":5957,"Ġ13":5958,"Slice":5959,"Ġworking":5960,"Redirect":5961,"NotNull":5962,"Ġlogs":5963,"device":5964,"allow":5965,"Ġdetect":5966,"TL":5967,"aring":5968,"[^":5969,"Ġconverted":5970,"Ġreceiver":5971,"Ġshell":5972,"ĠgetNode":5973,"Ġpot":5974,"road":5975,"Ġdynamic":5976,"tain":5977,"undefined":5978,"depth":5979,"MO":5980,"Ġactiv":5981,"ĠBatch":5982,"Ġcells":5983,"ĠnewInstance":5984,"ĠBytes":5985,"prop":5986,"ĠBuffered":5987,"Upper":5988,"events":5989,"member":5990,"ĠMulti":5991,"ished":5992,"Ġdep":5993,"aped":5994,"509":5995,"UST":5996,"LINE":5997,"ONE":5998,"encoding":5999,"ierarchy":6000,"Org":6001,"Ġpick":6002,"Ġworkspace":6003,"Ġwritel":6004,"ĠNamespace":6005,"report":6006,"Ġtransition":6007,"ĠPort":6008,"Ġstage":6009,"Ġpipe":6010,"pool":6011,"rad":6012,"Ġactually":6013,"Private":6014,"Ġpriv":6015,"Ġtz":6016,"pair":6017,"inherit":6018,"parts":6019,"ĠAtt":6020,"Ġvisible":6021,"Ġ{}'":6022,"Ġchoice":6023,"Publish":6024,"nail":6025,"Ġgenerates":6026,"Ġconverter":6027,"66":6028,"Place":6029,"28":6030,"Memory":6031,"Payment":6032,"ao":6033,"ĠgetFile":6034,"Ġlists":6035,"ĠSecurity":6036,"onomy":6037,"LOB":6038,"Ġprecision":6039,"ĠWarn":6040,"ĠgetQuery":6041,"Ġattachment":6042,"ARY":6043,"sib":6044,"isters":6045,"wt":6046,"Ġkv":6047,"ĠNAME":6048,"Ġdesired":6049,"Sw":6050,"where":6051,"ĠAR":6052,"oring":6053,"common":6054,"Ġchunks":6055,"Ġsha":6056,"ĠEnum":6057,"Ġgrad":6058,"jected":6059,"Ġreplacement":6060,"Schedule":6061,"---":6062,"Authorization":6063,"Holder":6064,"LIC":6065,"ĠOp":6066,"CONT":6067,"MIT":6068,"NUM":6069,"era":6070,"Jvm":6071,"Ġii":6072,"bre":6073,"Ġcoords":6074,"Ġsteps":6075,"ĠWindow":6076,"ĠDevice":6077,"Aggreg":6078,"auto":6079,"Ġcf":6080,"img":6081,"ĠCustom":6082,"Given":6083,"ever":6084,"Ġtol":6085,"SSAGE":6086,"Ġiterable":6087,"Ġcases":6088,"ples":6089,"ĠAnnotation":6090,"ĠUtils":6091,"Ġnegative":6092,"Ġauthorization":6093,"Declaration":6094,"Ġworkflow":6095,"enticated":6096,"Ġyaml":6097,"Edge":6098,"Gu":6099,"Actions":6100,"Ġcsv":6101,"none":6102,"Ġenter":6103,"Ġincludes":6104,"variable":6105,"Ident":6106,"ĠBad":6107,"Ġmc":6108,"Detail":6109,"Payload":6110,"Ġsem":6111,"alance":6112,"Req":6113,"xb":6114,"lan":6115,"Ġ..":6116,"uses":6117,"Ġtm":6118,"Created":6119,"Rect":6120,"Ġspl":6121,"ĠSH":6122,"ĠCF":6123,"ĠGoogle":6124,"Ġpc":6125,"Ġhour":6126,"poch":6127,"ĠMedia":6128,"ĠnewValue":6129,"normal":6130,"ĠNewErr":6131,"itter":6132,"Ġgithub":6133,"')":6134,"ĠgetTime":6135,"Ġwriteln":6136,"ĠINT":6137,"Ġaddresses":6138,"Ġbuff":6139,"yped":6140,"ises":6141,"Ġ(%":6142,"Ġcy":6143,"Export":6144,"assign":6145,"Ġsupports":6146,"oreign":6147,"Depth":6148,"ĠThere":6149,"reat":6150,"Cookie":6151,"MT":6152,"Ġ\":\"":6153,"returns":6154,"ĠSo":6155,"Ġoverwrite":6156,"orizont":6157,"Variables":6158,"aking":6159,"ĠVer":6160,"ĠTry":6161,"59":6162,"Credentials":6163,"ĠImport":6164,"ĠFunc":6165,"Ġcms":6166,"Ġunpack":6167,"ĠDat":6168,"iki":6169,"utions":6170,"Ġrank":6171,"tl":6172,"(...)\"":6173,"Ġitself":6174,"Ġperson":6175,"Ġdialog":6176,"Literal":6177,"sequence":6178,"Opt":6179,"reference":6180,"ĠAppend":6181,"quare":6182,"ĠProperties":6183,"ĠProtocolMarshaller":6184,"ignore":6185,"alf":6186,"Fin":6187,"MD":6188,"oad":6189,"ĠNewErrParam":6190,"Ġvideo":6191,"triction":6192,"Activity":6193,"Ġsyn":6194,"Ġvs":6195,"umbnail":6196,"Ġcred":6197,"Ġcodes":6198,"Ġproblem":6199,"clean":6200,"allet":6201,"Ġsheet":6202,"ocker":6203,"ĠRole":6204,"Ġprice":6205,"push":6206,"Visible":6207,"reset":6208,"ĠDecode":6209,"Warning":6210,"uer":6211,"xid":6212,"iet":6213,"ctrine":6214,"gers":6215,"../":6216,"Cor":6217,"Ġqueries":6218,"ashboard":6219,"Removes":6220,"estroy":6221,"Ġcatalog":6222,"dap":6223,"ĠfindBy":6224,"You":6225,"complete":6226,"Ġcn":6227,"ism":6228,"ĠON":6229,"Cloud":6230,"database":6231,"Ġuc":6232,"Selection":6233,"ulation":6234,"cursively":6235,"MIN":6236,"Ġconstraints":6237,"alog":6238,"OKEN":6239,"ĠEncode":6240,"TODO":6241,"iol":6242,"ulate":6243,"OLLOW":6244,"orld":6245,"ĠIM":6246,"Disk":6247,"Backup":6248,"ĠuserId":6249,"Ġ1024":6250,"Tri":6251,"Ġstrategy":6252,"PL":6253,"ience":6254,"Chan":6255,"Ġcoe":6256,"ĠCle":6257,"ĠPlugin":6258,"Ġrh":6259,"05":6260,"ially":6261,"Proto":6262,"Ġabort":6263,"Tick":6264,"....":6265,"OIN":6266,"Ġdocker":6267,"ĠReference":6268,"Ġtemporary":6269,"unique":6270,"BER":6271,"ĠgetMethod":6272,"DataType":6273,"elements":6274,"Amount":6275,"ĠStd":6276,"Ġloads":6277,"racket":6278,"Ġsyntax":6279,"}\\":6280,"ĠRepository":6281,"ving":6282,"convert":6283,"ajor":6284,"Ġanalysis":6285,"Matcher":6286,"Ġassum":6287,"serialize":6288,"Support":6289,"java":6290,"lying":6291,"Ġconv":6292,"Constructor":6293,"veloper":6294,"Codes":6295,"ĠentrySet":6296,"Complet":6297,"Ġparents":6298,"writer":6299,"Ġfilled":6300,"Ġunc":6301,"oto":6302,"Unique":6303,"ĠRemote":6304,"Des":6305,"Serializer":6306,"PREFIX":6307,"adow":6308,"''":6309,"ĠcreateElement":6310,"oj":6311,"ACE":6312,"Grid":6313,"Ġdeployment":6314,"._":6315,"Ġtog":6316,"Ġstatements":6317,"ensity":6318,"cu":6319,"ĠRest":6320,"ĠSize":6321,"Complete":6322,"Contents":6323,"Ġevt":6324,"Executor":6325,"usters":6326,"upload":6327,"Ġdetermin":6328,"changes":6329,"Ġworks":6330,"DR":6331,"StackTrace":6332,"Ġmigration":6333,"44":6334,"Ġindiv":6335,"iness":6336,"Ġttl":6337,"ĠFrom":6338,"locale":6339,"Ġserializer":6340,"ĠPrintf":6341,"Serial":6342,"ARNING":6343,"ATED":6344,"hidden":6345,"Ġfloor":6346,"global":6347,"filters":6348,"cas":6349,"Ġrevision":6350,"Present":6351,"ĠgetEntity":6352,"Dialog":6353,"PORT":6354,"score":6355,"xFF":6356,"Ġwp":6357,"sample":6358,"orizontal":6359,"quals":6360,"atype":6361,"][":6362,"layer":6363,"Tool":6364,"IAL":6365,"otes":6366,"UNCTION":6367,"Skip":6368,"ĠDEBUG":6369,"Ġinline":6370,"Ġtimezone":6371,"etailed":6372,"ĠgetService":6373,"Ġlogical":6374,"ĠNullable":6375,"Main":6376,"Ġdefinitions":6377,"zz":6378,"ITH":6379,"ĠUTF":6380,"conditions":6381,"Ġhome":6382,"Ġdecoded":6383,"Ġassociation":6384,"final":6385,"Ġpb":6386,"insert":6387,"aker":6388,"Ġnumeric":6389,"Ġouter":6390,"Ġcut":6391,"ident":6392,"ĠPart":6393,"ĠAttributeError":6394,"details":6395,"Ġsingleton":6396,"wards":6397,"Ġ\":":6398,"ango":6399,"modules":6400,"Ġdescribe":6401,"Ġdirectories":6402,"gp":6403,"TED":6404,"Ġverb":6405,"strip":6406,"ascript":6407,"term":6408,"periment":6409,"Install":6410,"umes":6411,"Esc":6412,"Ġ*=":6413,"Ġctrl":6414,"Card":6415,"Ġaltern":6416,"avigation":6417,"37":6418,"ĠExt":6419,"flag":6420,"Requests":6421,"ĠVER":6422,"nb":6423,"ĠTx":6424,"ĠCA":6425,"Put":6426,"sd":6427,"ĠcaseIfc":6428,"cls":6429,"bool":6430,"ĠEOF":6431,"Ġprior":6432,"Pass":6433,"Bad":6434,"onym":6435,"slug":6436,"Ġ50":6437,"Ġmonitor":6438,"ĠCommerce":6439,"tracking":6440,"\">":6441,"Ctx":6442,"Defin":6443,"Balancer":6444,"Ġer":6445,"png":6446,"extension":6447,"Ġnative":6448,"Ġformats":6449,"Blocks":6450,"lyph":6451,"Loop":6452,"Ġreading":6453,"Ġinitialized":6454,"ĠgetObject":6455,"-%":6456,"itional":6457,"ĠLocale":6458,"void":6459,"DELETE":6460,"////////////////////////////////":6461,"Ġartifact":6462,"Ġtxt":6463,"Make":6464,"VENT":6465,"Virtual":6466,"ĠGu":6467,"Ġnan":6468,"ĠCH":6469,"tick":6470,"ĠFiles":6471,"Ġrename":6472,"Ġgrammar":6473,"ĠgetContext":6474,"Vertex":6475,"ĠgetResponse":6476,"Ġcategories":6477,"ically":6478,"JS":6479,"aug":6480,"Ġmicro":6481,"jax":6482,"ĠSQLException":6483,"ĠUI":6484,"Series":6485,"BY":6486,"],":6487,"ĠPod":6488,"Ġte":6489,"Ġpopulate":6490,"aN":6491,"Authentication":6492,"Draw":6493,"boolean":6494,"Bits":6495,"Ġfilesystem":6496,"Utility":6497,"loop":6498,"Records":6499,"udes":6500,"Ġ'#'":6501,"PERTY":6502,"(?:":6503,"ailability":6504,"ivalent":6505,"udo":6506,"ĠDescription":6507,"Ġincluding":6508,"versation":6509,"pred":6510,"xc":6511,"ĠFF":6512,"ripts":6513,"Ġlisten":6514,"Ġaxes":6515,"ele":6516,"Common":6517,"Trigger":6518,"TERN":6519,"Ġseek":6520,"Permissions":6521,"Bot":6522,"Ġ&#":6523,"ersistence":6524,"ĠRO":6525,"ACT":6526,"erve":6527,"require":6528,"Ġcop":6529,"export":6530,"ĠFOLLOW":6531,"Ġiteration":6532,"Ġbc":6533,"Ġadding":6534,"Ġmkdir":6535,"ensitive":6536,"SOURCE":6537,"ĠgetX":6538,"ĠBit":6539,"make":6540,"Ġdue":6541,"Optional":6542,"publish":6543,"Weight":6544,"Ġannot":6545,"ĠLinked":6546,"transform":6547,"Ġterms":6548,"Ġ18":6549,"Ġjobs":6550,"chunk":6551,"LAG":6552,"FER":6553,"xe":6554,"Ġnone":6555,"ĠRow":6556,"Ġec":6557,"Axis":6558,"enticate":6559,"hape":6560,"ourn":6561,"ĠCurrent":6562,"Click":6563,"54":6564,"ĠMeta":6565,"TRI":6566,"Contact":6567,"Transport":6568,"culate":6569,"quences":6570,"Ġptr":6571,"ersistent":6572,"Ġcat":6573,"igration":6574,"AIL":6575,"ĠRaw":6576,"ĠCharacter":6577,"Ġdelet":6578,"Ġll":6579,"Ġ36":6580,"Separator":6581,"na":6582,"ĠgetCode":6583,"PP":6584,"datetime":6585,"Ne":6586,"widget":6587,"Users":6588,"LOCK":6589,"ĠAccount":6590,"Ġclause":6591,"mer":6592,"ĠstatusCode":6593,"Ġpanel":6594,"ĠgetProc":6595,"Ġlifecycle":6596,"Ġque":6597,"ony":6598,"Ġplay":6599,"ĠPython":6600,"Ġexecutor":6601,"enant":6602,"ĠDel":6603,"Ġ500":6604,"Ġdns":6605,"aves":6606,"Lat":6607,"roadcast":6608,"Lookup":6609,"pid":6610,"ĠSkip":6611,"ĠgroupId":6612,"ilation":6613,"Ġ'/^":6614,"Decode":6615,"SPACE":6616,"Ġappro":6617,"Override":6618,"Ġ\"#":6619,"short":6620,"Rad":6621,"ĠMark":6622,"Ġlayers":6623,"interval":6624,"100":6625,"Ġvol":6626,"-'":6627,"Regex":6628,"ĠController":6629,"Week":6630,"ĠgetProcAddr":6631,"tf":6632,"Ġdx":6633,"ĠArgs":6634,"Ġautomatically":6635,"Ġwire":6636,"Ġarch":6637,"Subject":6638,"SU":6639,"ifications":6640,"Ġfront":6641,"tools":6642,"Ġdiag":6643,"Evalu":6644,"Fac":6645,"ĠGit":6646,"ĠĠĠĠĠĠĠĠĠĠ":6647,"ĠDomain":6648,"Ġmeasure":6649,"Ġbuilt":6650,"ĠEd":6651,"Ġsubprocess":6652,"Generates":6653,"ĠGenerate":6654,"Ġtd":6655,"Parses":6656,"Topic":6657,"inger":6658,"Ġprocessor":6659,"ĠCertificate":6660,"Ġassignment":6661,"github":6662,"Subscription":6663,"ez":6664,"slice":6665,"Ġcustomer":6666,"Packet":6667,"Used":6668,"76":6669,"Ġwebs":6670,"Worker":6671,"Asset":6672,"plib":6673,"ĠStringBuffer":6674,"89":6675,"setopt":6676,"ĠNonnull":6677,"ntities":6678,"aps":6679,"ĠcurrentTime":6680,"Dispatcher":6681,"ĠInterface":6682,"ĠConn":6683,"Ġfails":6684,"Tasks":6685,"Ġcleanup":6686,"LED":6687,"Cursor":6688,"Ġcallbacks":6689,"ĠsetParameter":6690,"Cancel":6691,"Ġrm":6692,"ĠEN":6693,"MAX":6694,"Ġplaceholder":6695,"Help":6696,"Ġchecksum":6697,"ĠLen":6698,"Ġ'|":6699,"\\/":6700,"ĠgetText":6701,"include":6702,"changed":6703,"SCRI":6704,"Es":6705,"present":6706,"Ġrele":6707,"Ġfinished":6708,"Ġuserid":6709,"Ġcreation":6710,"Ġdumps":6711,"ĠAuthor":6712,"}:":6713,"loader":6714,"csv":6715,"ĠgetColumn":6716,"Translation":6717,"Ġthrown":6718,"Ġrad":6719,"MOD":6720,"OwnProperty":6721,"RAY":6722,"ptr":6723,"Ġrpc":6724,"ĠIterable":6725,"Ġsigned":6726,"Ġops":6727,"Ġchecking":6728,"Ġoutputs":6729,"ĠPol":6730,"rb":6731,"ĠCR":6732,"Deployment":6733,"201":6734,"Ġmed":6735,"Ġregular":6736,"Ġpopulated":6737,"tool":6738,"Ġcompact":6739,"Ġaround":6740,"layout":6741,"ĠgetConnection":6742,"CC":6743,"Ġdc":6744,"SSL":6745,"correct":6746,"Renderer":6747,"Ġxpath":6748,"Ġmp":6749,"Ġassume":6750,"Ġduplicate":6751,"Ġrotation":6752,"ĠMust":6753,"Ġapplied":6754,"Ġfamily":6755,"ĠJS":6756,"ceptor":6757,"Ġorganization":6758,"Mail":6759,"ivers":6760,"ĠCS":6761,"Seconds":6762,"Delay":6763,"Ġsanit":6764,"ĠCSS":6765,"ĠSelect":6766,"Exit":6767,"vide":6768,"initial":6769,"mapping":6770,"ipping":6771,"Ġyang":6772,"ĠserviceName":6773,"aler":6774,"parameter":6775,"FIELD":6776,"Timer":6777,"provider":6778,"arb":6779,"ocab":6780,"ĠRule":6781,"np":6782,"ĠParser":6783,"Ġconfigs":6784,"mediate":6785,"Merge":6786,"Ġ'?'":6787,"ĠsetName":6788,"bits":6789,"Ġpa":6790,"ĠMET":6791,"})":6792,"Primary":6793,"ders":6794,"yy":6795,"Ġbeta":6796,"+'":6797,"Ġreceive":6798,"AF":6799,"Ġhit":6800,"Algorithm":6801,"Ġgreater":6802,"Attachment":6803,"enar":6804,"ĠNum":6805,"Scroll":6806,"Ġclip":6807,"Ġunderlying":6808,"enames":6809,"Ġconstants":6810,"Ġinherit":6811,"factor":6812,"Peer":6813,"Conversion":6814,"Ġdigits":6815,"ĠUrl":6816,"ager":6817,"ĠPos":6818,"ROUP":6819,"ĠTerm":6820,"ado":6821,"roke":6822,"Ġ\"</":6823,"Ġminutes":6824,"ĠLast":6825,"Ġparticular":6826,"Ġask":6827,"Ġcross":6828,"VICE":6829,"ĠPattern":6830,"Ġrepl":6831,"DEX":6832,"messages":6833,"tp":6834,"Ġcontract":6835,"indices":6836,"Factor":6837,"Ġreads":6838,"Ġhparams":6839,"08":6840,"External":6841,"cols":6842,"Ġmix":6843,"TableMap":6844,"git":6845,"Ġrespond":6846,"ĠHashSet":6847,"factory":6848,"Ġdeprecated":6849,"aws":6850,"cms":6851,"BagConstraints":6852,"Ġhide":6853,"iform":6854,"Ġphase":6855,"ANT":6856,"cellation":6857,"region":6858,"KE":6859,"inu":6860,"Expected":6861,"ĉĉĉĉ":6862,"Ġjavax":6863,"Ġdetailed":6864,"Ġpositions":6865,"Ġprompt":6866,"IZ":6867,"estion":6868,"Matches":6869,"fail":6870,"Ġtls":6871,"ances":6872,"Ġsuccessful":6873,"year":6874,"Ġff":6875,"ĠValues":6876,"\":":6877,"Ġgateway":6878,"Ġendswith":6879,"Ġcounts":6880,"Ġalert":6881,"Ġtri":6882,"crete":6883,"Ġpatterns":6884,"Ġbehavior":6885,"ibling":6886,"Ġhold":6887,"Ġbacktracking":6888,"quote":6889,"rant":6890,"gu":6891,"Ġpull":6892,"alyzer":6893,"izing":6894,"Ġpositive":6895,"Ġini":6896,"Ġear":6897,"Roles":6898,"metric":6899,"Ġaliases":6900,"Ġencrypted":6901,"Constant":6902,"Ġurls":6903,"vs":6904,"Tables":6905,"ably":6906,"definition":6907,"period":6908,"ird":6909,"ĠReplace":6910,"objects":6911,"ĠMetadata":6912,"iry":6913,"nable":6914,"PTY":6915,"Ġotherlv":6916,"Ġrgb":6917,"Members":6918,"Handlers":6919,"Ġtouch":6920,"Ġmon":6921,"Ġlocales":6922,"append":6923,"Ġoauth":6924,"uman":6925,"Seq":6926,"ĠgetNext":6927,"Ġvertices":6928,"Lif":6929,"Ġexpire":6930,"unct":6931,"Ġconfirm":6932,"wo":6933,"izable":6934,"Ġincoming":6935,"ĠBind":6936,"ĠINSTANCE":6937,"31":6938,"escape":6939,"Ġtpl":6940,"Ġcond":6941,"ĠOne":6942,"-\\":6943,"Ġmaybe":6944,"ĠErrInvalid":6945,"Editor":6946,"Ms":6947,"lastic":6948,"READ":6949,"WE":6950,"pet":6951,"Span":6952,"ĠBY":6953,"II":6954,"Real":6955,"Ġtrunc":6956,"Ġdd":6957,"Ġassigned":6958,"Ġsolution":6959,"Retrieves":6960,"ĠEndpoint":6961,"Ġerrs":6962,"Ġsever":6963,"AIN":6964,"Ġox":6965,"ĠfeatureID":6966,"Ġanything":6967,"ots":6968,"Ġ25":6969,"Ġdecimal":6970,"ASK":6971,"Ġasc":6972,"ros":6973,"ĠCount":6974,"+)":6975,"200":6976,"Ġ\"{$":6977,"Ġbook":6978,"quent":6979,"Ġcollections":6980,"Machine":6981,"pad":6982,"Ġctypes":6983,"Ġanchor":6984,"Ġreshape":6985,"Ġmesh":6986,"ĠRender":6987,"ĠVoid":6988,"ĠMIN":6989,"LOBAL":6990,"Ġcost":6991,"Ġ'`":6992,"ĠgetLocal":6993,"agraph":6994,"xa":6995,"plica":6996,"GR":6997,"MetaData":6998,"Structure":6999,"codes":7000,"Apply":7001,"Hint":7002,"Partition":7003,"ĠSIG":7004,"Ġturn":7005,"Ġdistribution":7006,"updated":7007,"ons":7008,"Allow":7009,"ĠĊ":7010,"LENG":7011,"ĠParameters":7012,"Reset":7013,"Generic":7014,"found":7015,"Ġmanaged":7016,"pection":7017,"Compute":7018,"Defaults":7019,"mm":7020,"Ġextended":7021,"ITION":7022,"Ġ\"\\\"":7023,"ĠPI":7024,"configuration":7025,"ĠAf":7026,"multi":7027,"rout":7028,"Ġcalc":7029,"Xbase":7030,"RES":7031,"tab":7032,"Ġincre":7033,"ration":7034,"Ġcart":7035,"None":7036,"Hex":7037,"MODE":7038,"attrs":7039,"ĠgetSub":7040,"Ġresize":7041,"SESSION":7042,"gl":7043,"Clause":7044,"Ġdeferred":7045,"ysical":7046,"Ġaggregate":7047,"wait":7048,"Pop":7049,"ĠLocation":7050,"Running":7051,"Ġblank":7052,"ital":7053,"ĠNotFound":7054,"Ret":7055,"Ġssh":7056,"POS":7057,"ĠDeepCopy":7058,"Ġ\"#{":7059,"Ġgetter":7060,"views":7061,"Ġvec":7062,"usion":7063,"asket":7064,"Ġbootstrap":7065,"cfg":7066,"eration":7067,"ĠSY":7068,"Character":7069,"...\"":7070,"ĠPRE":7071,"iation":7072,"]{":7073,"ĠSave":7074,"Ġwx":7075,"LY":7076,"Ġstringify":7077,"Marker":7078,"mean":7079,"uuid":7080,"Ġbs":7081,"riterion":7082,"Fault":7083,"Ġservers":7084,"LIST":7085,"Bus":7086,"Unlock":7087,"plan":7088,"izations":7089,"ĠRequests":7090,"lim":7091,"Ġpin":7092,"Ġkeywords":7093,"records":7094,"currency":7095,"LENGTH":7096,"cached":7097,"control":7098,"arguments":7099,"Links":7100,"mediately":7101,"amma":7102,"Ġaff":7103,"ĠhasOwnProperty":7104,"ĠTrim":7105,"obile":7106,"ĠPointer":7107,"Branch":7108,"Download":7109,"ĠVariable":7110,"Ġconsist":7111,"vation":7112,"GE":7113,"Ġdifference":7114,"ĠIDs":7115,"ournal":7116,"olang":7117,"hex":7118,"ble":7119,"Ġexecuted":7120,"ynchronous":7121,"Ġcach":7122,"Ġability":7123,"zero":7124,"Ġla":7125,"edge":7126,"Ġunsafe":7127,"ĠSTR":7128,"Ġbb":7129,"Definitions":7130,"AUTH":7131,"40":7132,"flags":7133,"Collector":7134,"links":7135,"ĠSTATUS":7136,"boot":7137,"Ġrb":7138,"features":7139,"85":7140,"ĠEM":7141,"fc":7142,"strument":7143,"Ġlonger":7144,"ĠGrid":7145,"ips":7146,"TableName":7147,"Addresses":7148,"ĠAtom":7149,"Aut":7150,"ĠReset":7151,"Ġdelegate":7152,"Ġloading":7153,"Ġpolygon":7154,"Ġfocus":7155,"ĠgetLogger":7156,"Ġremoves":7157,"Ġliteral":7158,"PHP":7159,"Ġobs":7160,"Ġobtain":7161,"ĠgetG":7162,"generate":7163,"Ġ\\'":7164,"Ġmade":7165,"Ġdevices":7166,"Fr":7167,"Ġstub":7168,"Ġratio":7169,"Zero":7170,"Components":7171,"Backend":7172,"Changes":7173,"Association":7174,"symbol":7175,"Ġassets":7176,"Excel":7177,"Ġsections":7178,"plex":7179,"Ġls":7180,"WR":7181,"Ġzoom":7182,"ĠgetSession":7183,"Ġpg":7184,"Temp":7185,"Ġunlock":7186,"Monitor":7187,"ittle":7188,"Shop":7189,"ĠFields":7190,"Ġassoc":7191,"BR":7192,"It":7193,"Ġwrong":7194,"Ġregexp":7195,"ĠtagName":7196,"Measure":7197,"____":7198,"catalog":7199,"Distance":7200,"dc":7201,"ĠTop":7202,"CONFIG":7203,"Encoder":7204,"direct":7205,"Ġhosts":7206,"ĠDataFrame":7207,"former":7208,"ootstrap":7209,"Off":7210,"Ġln":7211,"Ġpower":7212,"Ġclosure":7213,"ĠLimit":7214,"APP":7215,"fit":7216,"Ġdeepcopy":7217,"Ġcompletes":7218,"Ġmysql":7219,"Ġresponses":7220,"ĠUnsupported":7221,"remote":7222,"Supported":7223,"ĠPublic":7224,"?\"":7225,"Ġappe":7226,"Ġoverlap":7227,"EC":7228,"byte":7229,"Ġparallel":7230,"Criteria":7231,"Ġremain":7232,"Ġcomplex":7233,"ĠparentNode":7234,"79":7235,"internal":7236,"Ġcookies":7237,"feature":7238,"Ġcwd":7239,"COUNT":7240,"Ġlegend":7241,"bucket":7242,"Ġpreviously":7243,"Div":7244,"EW":7245,"Ġchoices":7246,"ĠOP":7247,"cestor":7248,"Construct":7249,"__'":7250,"ĠCur":7251,"ĠImmutable":7252,"ooter":7253,"FORMAT":7254,"ĠClosure":7255,"hr":7256,"ĠTuple":7257,"ĠHttpServlet":7258,"pi":7259,"ongs":7260,"Ġencoder":7261,"Ġwrites":7262,"FIN":7263,"Ġeas":7264,"ĠRuntimeError":7265,"CI":7266,"pages":7267,"Ġclock":7268,"ĠVirtual":7269,"ĠOAuth":7270,"ĠRout":7271,"Ġcancellation":7272,"ĠEND":7273,"Ġguess":7274,"Lang":7275,"Jobs":7276,"cloud":7277,"Ġentire":7278,"ĠMetric":7279,"oauth":7280,"Ġsimilar":7281,"ka":7282,"ĠStack":7283,"ĠAfplib":7284,"drop":7285,"Ġdeploy":7286,"FieldName":7287,"ĠgetMax":7288,"ĠAfplibPackage":7289,"Ġinc":7290,"Ġplayer":7291,"Ġspaces":7292,"callable":7293,"aper":7294,"Score":7295,"TES":7296,"Ġmakes":7297,"ĠMatrix":7298,"Ġsigma":7299,"missions":7300,"70":7301,"Ġsrv":7302,"SM":7303,"Ġenough":7304,"CHAR":7305,"OW":7306,"failed":7307,"Net":7308,"ouch":7309,"Ġ\")\"":7310,"Ġqb":7311,"formed":7312,"Ġsock":7313,"Ġfi":7314,"apes":7315,"CCESS":7316,"ĠRelation":7317,"Ġcompatible":7318,"samples":7319,"ĠUint":7320,"Ġ'('":7321,"Ġranges":7322,"Ġdocumentation":7323,"Ġgrade":7324,"arty":7325,"Ġinterpol":7326,"Ġindividual":7327,"usted":7328,"aff":7329,"look":7330,"attach":7331,"Patch":7332,"Ġmargin":7333,"Ġjar":7334,"Calendar":7335,"Ġwaiting":7336,"missing":7337,"Ġtheta":7338,"Ġwhole":7339,"sig":7340,"Ġtrailing":7341,"modified":7342,"Ġguide":7343,"Ġmo":7344,"xidEs":7345,"xidEsales":7346,"Ġencrypt":7347,"Ġsid":7348,"Ġinterfaces":7349,"ĠInterrupted":7350,"Ġplain":7351,"Ġklass":7352,"Ġphone":7353,"ĠQt":7354,"pan":7355,"rott":7356,"validator":7357,"cb":7358,"Css":7359,"ĠAfter":7360,"Ġviews":7361,"ĠStruct":7362,"Words":7363,"Ġgeom":7364,"Setup":7365,"ĠSerial":7366,"Ġdecorator":7367,"Ġexpires":7368,"images":7369,"odo":7370,"commit":7371,"Ġhandles":7372,"mat":7373,"binding":7374,"EventListener":7375,"ĠUP":7376,"ĠEm":7377,"Ġcanonical":7378,"brevi":7379,"Ġhint":7380,"Updated":7381,"ench":7382,"ĠCLASS":7383,"ĠaddChild":7384,"erator":7385,"ARL":7386,"Done":7387,"*\"":7388,"Ġconsum":7389,"ONG":7390,"Release":7391,"ih":7392,"Ġdispatcher":7393,"Ġbindings":7394,"Closed":7395,"isf":7396,"VM":7397,"exist":7398,"Ġconsidered":7399,"ĠByteBuffer":7400,"Ġiterate":7401,"ĠruleJvm":7402,"Ġthreads":7403,"ĠVolume":7404,"mlink":7405,"ĠDeploy":7406,"driver":7407,"ĠBucket":7408,"Ġ400":7409,"Ġwriting":7410,"lab":7411,"Ġtransfer":7412,"Visitor":7413,"38":7414,"secur":7415,"Selected":7416,"More":7417,"Ġfully":7418,"ĠSSL":7419,"Mut":7420,"Ġ\"{}":7421,"repo":7422,"posed":7423,"ems":7424,"OPTION":7425,"ĠgetElement":7426,"Ġgolang":7427,"ĠnewRequest":7428,"Ġdocuments":7429,"Ġpm":7430,"ĠJAX":7431,"Lists":7432,"Ġshare":7433,"Ġtests":7434,"ĠoptParams":7435,"ĠPolicy":7436,"Capacity":7437,"[\\":7438,"irr":7439,"ĠProto":7440,"ios":7441,"ĠSTATE":7442,"ĠUSER":7443,"(.*":7444,"vant":7445,"plain":7446,"Ġaudio":7447,"Ġnonce":7448,"pn":7449,"ĠRoot":7450,"ĠChild":7451,"rpc":7452,"sid":7453,"ĠgetModel":7454,"ĠNe":7455,"Fragment":7456,"skip":7457,"inated":7458,"ding":7459,"ĠSO":7460,"Ġsubstit":7461,"security":7462,"urable":7463,"Bool":7464,"Archive":7465,"atom":7466,"Ġrelations":7467,"ĠZend":7468,"Abstract":7469,"Ġgeneral":7470,"Ġreadable":7471,"chan":7472,"FOR":7473,"SY":7474,"click":7475,"counter":7476,"Ġcapture":7477,"shake":7478,"Ġclassname":7479,"RENT":7480,"Ġ'>'":7481,"rules":7482,"Reads":7483,"rollers":7484,"Ġ'{}'":7485,"ĠsetProperty":7486,"Connector":7487,"Ġembedded":7488,"enerated":7489,"Ġspecification":7490,"Ġtimed":7491,"MI":7492,"Ġul":7493,"Ġgood":7494,"Ġattached":7495,"month":7496,"ĠOxidEsales":7497,"Elem":7498,"ĠMe":7499,"branch":7500,"Ġmid":7501,"Ġrouting":7502,"Functions":7503,"Ġcid":7504,"Fixed":7505,"raps":7506,"Ġhours":7507,"ĠPackage":7508,"CUR":7509,"dt":7510,"lin":7511,"ivot":7512,"Extensions":7513,"Ġ\"-\"":7514,"Ġsentence":7515,"Ġclaim":7516,"Ġpretty":7517,"ĠEnvironment":7518,"Ġcapacity":7519,"Initialize":7520,"ĠgetFirst":7521,"riend":7522,"itelist":7523,"Ġmis":7524,"master":7525,"single":7526,"ĠFILE":7527,"variables":7528,"Ġgene":7529,"ĠQueue":7530,"Ġattempts":7531,"Ġfinder":7532,"Ġsi":7533,"TypeReference":7534,"ENCE":7535,"ĠlastIndex":7536,"Units":7537,"Ġsvc":7538,"Retry":7539,"fil":7540,"Ġ##":7541,"Ġcontained":7542,"Prepare":7543,"Drop":7544,"Ġlogged":7545,"Ġconflict":7546,"href":7547,"versed":7548,"chars":7549,"clo":7550,"Deletes":7551,"Ġbounding":7552,"ĠnodeName":7553,"Ġ';'":7554,"Ġeq":7555,"une":7556,"HEADER":7557,"ĠInterruptedException":7558,"Ġarticle":7559,"Ġweekday":7560,"ĠProvider":7561,"scriptions":7562,"Ġalong":7563,"ĠWalk":7564,"Ġmaps":7565,"Ġ(\"":7566,"ĠTABLE":7567,"Iss":7568,"sent":7569,"START":7570,"Origin":7571,"seconds":7572,"Ġpoly":7573,"ĠuserAgent":7574,"Ġlevels":7575,"ĠChange":7576,"ĠCFG":7577,"ĠcolumnName":7578,"ĠqueryBuilder":7579,"ĠnextPage":7580,"Artifact":7581,"Ġextr":7582,"Endian":7583,"regex":7584,"watch":7585,"Ġlineno":7586,"ĠgetBody":7587,"qa":7588,"enable":7589,"redirect":7590,"ĠFFDC":7591,"Ġinstruction":7592,"cert":7593,"agger":7594,"ĠgetLast":7595,"rain":7596,"Ġruns":7597,"aa":7598,"Ġcnt":7599,"Ġfw":7600,"Ġpylint":7601,"Ġpow":7602,"Ġang":7603,"Named":7604,"Clean":7605,"defaults":7606,"Move":7607,"Ġautog":7608,"Ġdial":7609,"ĠEshop":7610,"Ġbg":7611,"ĠisNull":7612,"resse":7613,"Threshold":7614,"ĠDon":7615,"49":7616,"Old":7617,"LEMENT":7618,"Ġintersection":7619,"------------":7620,"Push":7621,"ĠruleX":7622,"Currency":7623,"operation":7624,"Ġfh":7625,"essment":7626,"structure":7627,"ĠgetH":7628,"States":7629,"ĠCmsResource":7630,"ĠSecond":7631,"Ġepoch":7632,"ĠendsWith":7633,"Break":7634,"ĠgetClient":7635,"Ġimmediately":7636,"ette":7637,"aven":7638,"ampling":7639,"members":7640,"cuss":7641,"Gen":7642,"Promise":7643,"Ġmouse":7644,"ĠJOIN":7645,"artbe":7646,"Ġclosing":7647,"payload":7648,"ĠWS":7649,"~~":7650,"ĠBasic":7651,"note":7652,"ored":7653,"ester":7654,"Infos":7655,"ĠgetRoot":7656,"orph":7657,"ĠTypes":7658,"ĠProxy":7659,"DED":7660,"ĠJAXB":7661,"ĠTH":7662,"undles":7663,"Ġdetail":7664,"models":7665,"Ġrepeat":7666,"Fld":7667,"Ġxy":7668,"xd":7669,"cm":7670,"Ġcare":7671,"Ġpoll":7672,"Ġdeserialize":7673,"Ġiteritems":7674,"().":7675,"Ġleading":7676,"06":7677,"Quot":7678,"Ġboundary":7679,"Ġequivalent":7680,"Ġhandled":7681,"ĠĠĠĠĠĠĠĠĠĠĠĠĠĠĠĠĠĠĠĠĠĠĠĠ":7682,"Ġscanner":7683,"Ġfreq":7684,"ĠkeySet":7685,"Ġexpiration":7686,"summary":7687,"real":7688,"Ġmiddle":7689,"ashes":7690,"Ġstatistics":7691,"ĠOper":7692,"ĠEnsure":7693,"inct":7694,"ĠCo":7695,"ertificates":7696,"CLI":7697,"PRI":7698,"pdf":7699,"IGHT":7700,"Ġmv":7701,"GIN":7702,"Comput":7703,"ĠBean":7704,"units":7705,"Ġphi":7706,"Ġ('":7707,"Ġexpired":7708,"Ġ404":7709,"illisec":7710,"Ġrhs":7711,"Ġclients":7712,"ĠnotNull":7713,"gmt":7714,"uples":7715,"VAR":7716,"Ġdirs":7717,"Ġutf":7718,"Sur":7719,"Ġswap":7720,"Ġblack":7721,"si":7722,"Ġhdr":7723,"ĠPag":7724,"Ġroom":7725,"ainten":7726,"ĠContexts":7727,"Ġnamespaces":7728,"Assignment":7729,"ĠPrepare":7730,"Tax":7731,"Ġdy":7732,"ĠME":7733,"ĠĠĠĠĠĠĠĠĠĠĠĠĠĠĠ":7734,"Logging":7735,"Using":7736,"vector":7737,"Ġuni":7738,"ĠScript":7739,"Src":7740,"Ġnl":7741,"Mappings":7742,"Ġcompiled":7743,"Attempt":7744,"integer":7745,"Builds":7746,"Ġ'(":7747,"prob":7748,"Ġreload":7749,"ĠreturnValue":7750,"Ġ\"(":7751,"Ġable":7752,"chemas":7753,"enario":7754,"pm":7755,"Ġeverything":7756,"Ġthing":7757,"ĠSER":7758,"Ġconverts":7759,"Ġupdater":7760,"Ġnn":7761,"Unexpected":7762,"extra":7763,"Ġoid":7764,"Ġ</":7765,"ĠTest":7766,"ĠPATH":7767,"toupper":7768,"Ġtesting":7769,"aintenance":7770,"sk":7771,"aming":7772,"ĠEC":7773,"roles":7774,"TABLE":7775,"ĠRec":7776,"Logs":7777,"ĠMult":7778,"ĠGLOBAL":7779,"ĠSte":7780,"sest":7781,"Modules":7782,"LOAD":7783,"ĠExp":7784,"Ġeps":7785,"Master":7786,"Dependency":7787,"FUNCTION":7788,"Pk":7789,"Indent":7790,"ĠOK":7791,"ventory":7792,"Ġframes":7793,"Ġsetter":7794,"scall":7795,"Blank":7796,"gy":7797,"Processing":7798,"Ġcoordinate":7799,"Extra":7800,"ĠPlease":7801,"Health":7802,"Chars":7803,"ĠTimeout":7804,"ClassLoader":7805,"complet":7806,"ĠAdmin":7807,"ĠIdentity":7808,"ĠSetContext":7809,"Ġpredict":7810,"Ġdates":7811,"Ġunion":7812,"download":7813,"socket":7814,"arrow":7815,"Foreign":7816,"Reply":7817,"resol":7818,"sha":7819,"Ġassertions":7820,"...'":7821,"ĠFactory":7822,"Generated":7823,"ĠChain":7824,"orth":7825,"Ġmixed":7826,"Ġtxn":7827,"Sent":7828,"Ġexchange":7829,"Ġ\"&":7830,"Ġlb":7831,"pod":7832,"Try":7833,"alyt":7834,"ĠAnd":7835,"associ":7836,"Ġfigure":7837,"Ġlocations":7838,"Ġleaf":7839,"Ġautogenerated":7840,"Ġoccurred":7841,"Ġels":7842,"Registration":7843,"Ġbetter":7844,"ĠOPTION":7845,"ĠResponseWriter":7846,"commands":7847,"feed":7848,"Ġlooking":7849,"finity":7850,"Ġ)?":7851,"ĠAllow":7852,"ĠIPv":7853,"ĠgetIn":7854,"ĠSET":7855,"Ġgeo":7856,"subject":7857,"memory":7858,"Decor":7859,"tokens":7860,"Ġresolution":7861,"allen":7862,"Ġtranslations":7863,"Ġsa":7864,"Ġconsume":7865,".%":7866,"ĠMock":7867,"LAY":7868,"ĠNonNull":7869,"Ġrestart":7870,"Ġphpcs":7871,"inner":7872,"loss":7873,"Ġdescrib":7874,"ĠSecret":7875,"Ġlarge":7876,"Ġhard":7877,"ĠqPath":7878,"ĠWriteString":7879,"Article":7880,"ĠFeature":7881,"avel":7882,"ĠsetText":7883,"rand":7884,"rence":7885,"Ġdeclared":7886,"Shared":7887,"Ġmajor":7888,"ĠgetSource":7889,"oodle":7890,"Ġorient":7891,"aren":7892,"ĠDebugf":7893,"Encryption":7894,"Ġacl":7895,"ĠBinary":7896,"ĠSince":7897,"ingerprint":7898,"Ġrespon":7899,"VEL":7900,"lar":7901,"Ġendpoints":7902,"ĠExecute":7903,"ks":7904,"Ġklog":7905,"Ġlik":7906,"ĠATT":7907,"cluded":7908,"ognition":7909,"ĠCO":7910,"ĠgetHeader":7911,"Ġdelivery":7912,"CAL":7913,"Ġregistration":7914,"thes":7915,"Ġchat":7916,"Ġmeth":7917,"\">'":7918,"ality":7919,"Ġgame":7920,"Ġcrit":7921,"ĠnumberOf":7922,"\")":7923,"enum":7924,"ĠShort":7925,"ĠgetError":7926,"TAG":7927,"ĠGeneric":7928,"ĠsetData":7929,"ĠPack":7930,"Ġsubset":7931,"ĠgetSh":7932,"ĠeventName":7933,"Ġbug":7934,"Ġrendered":7935,"Ġgrant":7936,"IR":7937,"Ġmx":7938,"Revision":7939,"aken":7940,"]+)":7941,"ĠApplyOptions":7942,"etic":7943,"fp":7944,"Ġface":7945,"Segments":7946,"TypeName":7947,"mitted":7948,"ĠCondition":7949,"45":7950,"Final":7951,"WORD":7952,"olid":7953,"ORDER":7954,"Ġjcas":7955,"Screen":7956,"Strings":7957,"transaction":7958,"norm":7959,"Ġatomic":7960,"Assignable":7961,"Ġlazy":7962,"Ġsymbols":7963,"ĠByteArray":7964,"Ġcandidates":7965,"Ġvt":7966,"cluster":7967,"Loads":7968,"MB":7969,"oment":7970,"ĠServlet":7971,"Scan":7972,"ĠprintStackTrace":7973,"ante":7974,"Decoder":7975,"Ġcd":7976,"Deleted":7977,"Ġplural":7978,"viders":7979,"ĠDeprec":7980,"ĠAL":7981,"AML":7982,"Ġwhitespace":7983,"Chart":7984,"Ġrw":7985,"allback":7986,"Ġcrop":7987,"porter":7988,"align":7989,"Ġmappings":7990,"9999":7991,"states":7992,"Sim":7993,"flux":7994,"HO":7995,"blocks":7996,"theme":7997,"STATE":7998,"Ġhaving":7999,"Ġvisitor":8000,"USE":8001,"ĠSuch":8002,"endpoint":8003,"extract":8004,"ĠMy":8005,"Ġrollback":8006,"cue":8007,"counts":8008,"].":8009,"rus":8010,"Cols":8011,"Ġez":8012,"Ġformula":8013,"ĠJSONObject":8014,"Ġ\\$":8015,"posal":8016,"Related":8017,"Cost":8018,"wall":8019,"ĠCONT":8020,"onymous":8021,"ring":8022,"Ġmform":8023,"Ġblue":8024,"PR":8025,"Fill":8026,"Ġrecipient":8027,"Ġarc":8028,"EObject":8029,"Ġ'|'":8030,"ĠOf":8031,"Ġpeek":8032,"eeded":8033,"SARL":8034,"Ġdigit":8035,"Ġfc":8036,"Ġlaunch":8037,"Ġ128":8038,"Ġmass":8039,"ĠInsert":8040,"Ġexpressions":8041,"Ġreferenced":8042,"Ġ17":8043,"Ġminute":8044,"ĠReturned":8045,"ContentType":8046,"TS":8047,"ĠisIn":8048,"ĠIgnore":8049,"ĠNotification":8050,"Super":8051,"tuple":8052,"Dependencies":8053,"Ġnoqa":8054,"UMN":8055,"ĠStatement":8056,"plugins":8057,"ĠFrame":8058,"Ġestim":8059,"iggers":8060,"ĠALL":8061,"Configs":8062,"Ġ40":8063,"ĠAuto":8064,"ĠFetch":8065,"tax":8066,"Note":8067,"Ġom":8068,"ĠBl":8069,"Syntax":8070,"Ġtp":8071,"ĠRandom":8072,"Without":8073,"ĠExpr":8074,"coe":8075,"fast":8076,"ĠVis":8077,"cuit":8078,"Ġldap":8079,"ĠAlso":8080,"'ve":8081,"win":8082,"ĠDet":8083,"Cover":8084,"ARD":8085,"ĠRange":8086,"RPC":8087,"ĠgetIndex":8088,"Ġreplaced":8089,"FE":8090,"ĠEObject":8091,"AsString":8092,"ĠnewLine":8093,"ĠProduct":8094,"Ġexports":8095,"Ġintval":8096,"Verify":8097,"ĠTLS":8098,"Ġcompress":8099,"Ġservlet":8100,"egative":8101,"ĠcurrentTimeMillis":8102,"python":8103,"Ġaccepts":8104,"Marshal":8105,"Ġprojection":8106,"Border":8107,"Entities":8108,"selected":8109,"Routes":8110,"kernel":8111,"Ġrecur":8112,"Organization":8113,"artbeat":8114,"Require":8115,"Defined":8116,"sym":8117,"sheet":8118,"components":8119,"ĠgetSimple":8120,"Ġprovides":8121,"Ġexplicitly":8122,"Ġchrom":8123,"Ġscopes":8124,"ilent":8125,"ĠMode":8126,"pli":8127,"ĠResources":8128,"Ġscheduler":8129,"lide":8130,"Ġdaemon":8131,"Ops":8132,"phab":8133,"sn":8134,"Tracker":8135,"ĠscalarNode":8136,"ĠconvertTo":8137,"ipt":8138,"ĠStrings":8139,"tended":8140,"Feed":8141,"Country":8142,"ĠgetItem":8143,"Ġappends":8144,"ĠgetInt":8145,"Ġmagic":8146,"Ġstrtoupper":8147,"69":8148,"Begin":8149,"ĠBigDecimal":8150,"allowed":8151,"ĠExtract":8152,"cedure":8153,"ĠgetChild":8154,"ĠCompute":8155,"Ġresulting":8156,"ssl":8157,"aved":8158,"ĠTimestamp":8159,"astic":8160,"atible":8161,"going":8162,"atable":8163,"Ġaverage":8164,"AMETER":8165,"ĠEmail":8166,"lower":8167,"DOM":8168,"Ġpdf":8169,"Ġcrypto":8170,"Ġtensor":8171,"unknown":8172,"ĠtypeName":8173,"Ġinterp":8174,"ĠAN":8175,"Original":8176,"Ġsecure":8177,"([^":8178,"Ġstructs":8179,"Relationship":8180,"Ġlimits":8181,"Hub":8182,"Priority":8183,"oned":8184,"Called":8185,"ĠserviceCallback":8186,"Ġinvoked":8187,"IV":8188,"history":8189,"ster":8190,"Ġlanguages":8191,"ools":8192,"ĠTransl":8193,"Ġnc":8194,"signature":8195,"ENER":8196,"ĠisN":8197,"Cfg":8198,"Background":8199,"Ġputs":8200,"Platform":8201,"ĠWindows":8202,"ivile":8203,"58":8204,"Ġstreams":8205,"MM":8206,"Flush":8207,"Ġprepared":8208,"Ġucfirst":8209,"ĠOUT":8210,"Second":8211,"Direction":8212,"Assert":8213,"Ġproperly":8214,"Ġaudit":8215,"Ġintern":8216,"UPDATE":8217,"Templates":8218,"entries":8219,"Ġoutside":8220,"References":8221,"println":8222,"Ġrescue":8223,"Ġcombined":8224,"Ġprimitive":8225,"Ġann":8226,"ĠĠĠĠĠĠĠĠĠĠĠĠĠĠĠĠĠĠĠĠĠ":8227,"Ġpp":8228,"Sheet":8229,"entr":8230,"Ġ31":8231,"Ġtar":8232,"ĠEClass":8233,"ainers":8234,"Accessor":8235,"example":8236,"Ġawt":8237,"det":8238,"Ġprediction":8239,"otion":8240,"Workspace":8241,"icates":8242,"once":8243,"Ġge":8244,"ĠHTTPMethod":8245,"alformed":8246,"Ġ[\"":8247,"ĠgetPr":8248,"Ġimplemented":8249,"velop":8250,"ĠVM":8251,"Basic":8252,"Ġrt":8253,"Ġprepend":8254,"Ġunlink":8255,"outil":8256,"Ġframework":8257,"primary":8258,"Router":8259,"Ġmux":8260,"ĠgetRepository":8261,"Attrs":8262,"ĠStandard":8263,"ĠHe":8264,"nost":8265,"Ġdeclaration":8266,"Sig":8267,"allery":8268,"ĠStat":8269,"leet":8270,"ays":8271,"Ġwhose":8272,"Ġencounter":8273,"erance":8274,"Ġpo":8275,"ĠCLI":8276,"Ġtraining":8277,"ĠphpcsFile":8278,"Ġapps":8279,"Ġbulk":8280,"Ġdesign":8281,"Throw":8282,"LIMIT":8283,"');":8284,"78":8285,"Ġinf":8286,"ClientExecution":8287,"Ġix":8288,"ĠConnect":8289,"Other":8290,"dirs":8291,"Ġscal":8292,"times":8293,"Ġkub":8294,"ĠRPC":8295,"Ġissues":8296,"ĠgetBase":8297,"progress":8298,"irror":8299,"yper":8300,"Ġcent":8301,"ij":8302,"Ġ256":8303,"Ġndarray":8304,"auge":8305,"zure":8306,"Ġadj":8307,"ĠbeforeClientExecution":8308,"Replication":8309,"ĠASC":8310,"Ġconcaten":8311,"Ġadvance":8312,"fd":8313,"'\\":8314,"ĠEach":8315,"Ġdetected":8316,"Enable":8317,"GN":8318,"Transformer":8319,"Ġdecoder":8320,"Even":8321,"Ġinverse":8322,"Refresh":8323,"Ġloss":8324,"SHA":8325,"Ġcpu":8326,"Ġactor":8327,"Follow":8328,"Leg":8329,"Ġfraction":8330,"ĠgrammarAccess":8331,"Ġtl":8332,"Ġtranslator":8333,"readcr":8334,"Theme":8335,"Standard":8336,"Ġbases":8337,"`.":8338,"userid":8339,"ĠIOError":8340,"Ġpip":8341,"rot":8342,"ĠgetVersion":8343,"ĠGeometry":8344,"Ġescaped":8345,"Person":8346,"ĠCodes":8347,"ĠENT":8348,"Ġsd":8349,"ĠVAR":8350,"Previous":8351,"MAP":8352,"Ġdepending":8353,"Ġrr":8354,"ADD":8355,"ĠCriteria":8356,"ANGE":8357,"ĠTAG":8358,"ĠComplet":8359,"Ġtransformer":8360,"ĠScan":8361,"SUB":8362,"Ġdead":8363,"Ġcompletion":8364,"pg":8365,"\"`":8366,"Ready":8367,"Writes":8368,"BASE":8369,"ĠSequence":8370,"ational":8371,"ĠRFC":8372,"protocol":8373,"Ġtrying":8374,"Ġ'['":8375,"wrapper":8376,"au":8377,"ĠHTTPPath":8378,"escriptors":8379,"ĠUnit":8380,"False":8381,"Js":8382,"icles":8383,"ius":8384,"Reason":8385,"ounce":8386,"services":8387,"PARAM":8388,"sync":8389,"Produ":8390,"Ġcommun":8391,"ĠREST":8392,"Ġioutil":8393,"disable":8394,"\"\"\"":8395,"zen":8396,"Ġwg":8397,"ĠContains":8398,"Ġrecent":8399,"Ġupgrade":8400,"setup":8401,"Ġerrno":8402,".\\":8403,"ERY":8404,"ropy":8405,"Ġexpanded":8406,"ĠInternalSARL":8407,"ĠDb":8408,"SERT":8409,"Percent":8410,"Ġastype":8411,"TOKEN":8412,"Ġnullable":8413,"iece":8414,"ĠServiceFuture":8415,"Ġceil":8416,"cookie":8417,"NotExist":8418,"Ġrunner":8419,"Ġdecrypt":8420,"sures":8421,"Ġ\"\\\\":8422,"ASS":8423,"ifiable":8424,"ĠgetBytes":8425,"izers":8426,"Ġbond":8427,"Shard":8428,"Ġlive":8429,"Models":8430,"Ġfoo":8431,"ĠRUnlock":8432,"Ġrequirements":8433,"authorized":8434,"Ġbeginning":8435,"matches":8436,"Ġhealth":8437,"Multiple":8438,"Ġminor":8439,"oltip":8440,"Finder":8441,"Ġnm":8442,"owner":8443,"ĠCallback":8444,"ĠFIL":8445,"ĠDir":8446,"Ġcredential":8447,"Escape":8448,"Center":8449,"ci":8450,"Ġsess":8451,"atory":8452,"Ġsizes":8453,"lems":8454,"gable":8455,"ĠVERSION":8456,"priority":8457,"etween":8458,"Ġlinked":8459,"Resolve":8460,"Getter":8461,"Ġwon":8462,"Ġsequences":8463,"oss":8464,"Setter":8465,"Ġtenant":8466,"Angle":8467,"GROUP":8468,"ĠgetAbsolute":8469,"Ġcomputed":8470,"Scaling":8471,"Ġbbox":8472,"ĠnextPageLink":8473,"Ġscores":8474,"Ġcontainers":8475,"INK":8476,"suffix":8477,"Mer":8478,"Ġack":8479,"Ġrepr":8480,"dump":8481,"ivation":8482,"embed":8483,"Workflow":8484,"Pane":8485,"ĠIFC":8486,"ĠObjects":8487,"Ġprocesses":8488,"ze":8489,"uting":8490,"tegr":8491,"Ġgive":8492,"ĠTO":8493,"Ġaccepted":8494,"CACHE":8495,"Please":8496,"ĠAnnot":8497,"ĠtheEObject":8498,"Ġlhs":8499,"Shape":8500,"move":8501,"templates":8502,"ĠNet":8503,"Sample":8504,"ĠRedis":8505,"CATION":8506,"clear":8507,"Ġfq":8508,"ĠPermission":8509,"ĠGlobal":8510,"ĠJAXBElement":8511,"Ġlexer":8512,"Ġtools":8513,"Forward":8514,"Ġsubmission":8515,"ColumnName":8516,"Den":8517,"UMENT":8518,"Determine":8519,"TagName":8520,"URN":8521,"cf":8522,"Errs":8523,"ĠOrdered":8524,"allenge":8525,"[]":8526,"Ġindicates":8527,"ĠasList":8528,"Random":8529,"\\\"\"":8530,"Ġwildcard":8531,"docs":8532,"ĠOrg":8533,"Ġrotate":8534,"?)":8535,"Ġrecursively":8536,"connected":8537,"second":8538,"ĠBundle":8539,"ĠisAssignable":8540,"Ratio":8541,"alytics":8542,"Ġcollector":8543,"Unsupported":8544,"Conditions":8545,"XY":8546,"ĠPush":8547,"!!":8548,"ĠBox":8549,"dims":8550,"warning":8551,"ARRAY":8552,"ĠVerify":8553,"Ġgoing":8554,"Ġpotential":8555,"Ġvendor":8556,"ĠgetWidth":8557,"ĠManager":8558,"cons":8559,"NULL":8560,"Ġcomposer":8561,"udget":8562,"ĠFIX":8563,"unnel":8564,"ĠSymbol":8565,"Ġ90":8566,"---------":8567,"ĠDELETE":8568,"Statistics":8569,"Rot":8570,"ĠgetTarget":8571,"Ġvery":8572,"High":8573,"Relative":8574,"Username":8575,"Ġsquare":8576,"ĠgetCache":8577,"binary":8578,"Pending":8579,"ĠgetHost":8580,"Ġrx":8581,"ĠYANG":8582,"Compare":8583,"tim":8584,"Fix":8585,"Ġlocked":8586,"ĠDeployment":8587,"WT":8588,"Ġcycle":8589,"ĠgetSimpleName":8590,"inst":8591,"PAT":8592,"exit":8593,"ĠEnc":8594,"ooth":8595,"ĠMember":8596,"DataSource":8597,"KNO":8598,"ĠPair":8599,"deleted":8600,"ĠgetResult":8601,"Added":8602,"ĠZip":8603,"%'":8604,"Credential":8605,"rece":8606,"ORE":8607,"STATUS":8608,"DN":8609,"eces":8610,"Dimension":8611,"wp":8612,"visible":8613,"ĠCell":8614,"Specification":8615,"Ġsimply":8616,"Ġprox":8617,"Ġ)*":8618,"attem":8619,"Ġtransformation":8620,"ĠstdClass":8621,"eval":8622,"Ġ))":8623,"Ġ')":8624,"Ġbroker":8625,"Ġcertain":8626,"QUI":8627,"Sources":8628,"kt":8629,"Ġlicense":8630,"ippet":8631,"Ġspeed":8632,"ASC":8633,"Predicate":8634,"ĠgetStart":8635,"aemon":8636,"}{":8637,"expr":8638,"Indexes":8639,"DP":8640,"Ġ']'":8641,"07":8642,"53":8643,"Implemented":8644,"rompt":8645,"ĠThese":8646,"Adresse":8647,"Hist":8648,"Nested":8649,"Same":8650,"Ġterminal":8651,"ĠNewErrParamRequired":8652,"ru":8653,"Ġreally":8654,"Ġdirective":8655,"Ġprobably":8656,"ĠstartTime":8657,"HashMap":8658,"ĠAttach":8659,"ĠMan":8660,"Ġcombine":8661,"ĠAccept":8662,"ĠMOD":8663,"lookup":8664,"ĠAuthentication":8665,"fmt":8666,"Ġsuc":8667,"ĠGLOBALS":8668,"ĠAgent":8669,"Ġfrequency":8670,"ĠMsg":8671,"Ġhuman":8672,"Ġkill":8673,"Now":8674,"Ġreached":8675,"apsed":8676,"ĠDone":8677,"ĠDS":8678,"uggest":8679,"Ġelsif":8680,"Ġobserv":8681,"dataset":8682,"mo":8683,"Home":8684,"validation":8685,"Ġrepresents":8686,"ĠExecution":8687,"variant":8688,"Team":8689,"ĠPHPExcel":8690,"kit":8691,"expression":8692,"ĠStep":8693,"price":8694,"Calculate":8695,"Features":8696,"Ġcas":8697,"console":8698,"threshold":8699,"processor":8700,"Ġgettype":8701,"Ġiso":8702,"Ġconnector":8703,"running":8704,"verify":8705,"ĠReport":8706,"ained":8707,"Qualified":8708,"ĠSettings":8709,"Ġalignment":8710,"avascript":8711,"home":8712,"ATTRI":8713,"fficient":8714,"Ġrp":8715,"Ġcomma":8716,"RM":8717,"ĠRLock":8718,"Ġqs":8719,"BACK":8720,"ĠTIME":8721,"GroupId":8722,"MESSAGE":8723,"Ġexperiment":8724,"Mount":8725,"ĠPrivate":8726,"Ġsyscall":8727,"Blocking":8728,"QUAL":8729,"ĠDATA":8730,"Ġencryption":8731,"IE":8732,"Ġmsgs":8733,"done":8734,"Ġreserved":8735,"Keyword":8736,"Ġplus":8737,"Ġoffsets":8738,"Ġtb":8739,"Ġdeps":8740,"Ġhydr":8741,"Ġgetting":8742,"Ġ01":8743,"NODE":8744,"Ġsetdefault":8745,"edges":8746,"ĠgridBagConstraints":8747,"scalar":8748,"46":8749,"ĠTags":8750,"Ġdeveloper":8751,"Include":8752,"urther":8753,"SCA":8754,"Stage":8755,"Ġoutfile":8756,"LOGGER":8757,"ĠSocket":8758,"bad":8759,"duration":8760,"atar":8761,"Ġrespect":8762,"Alloc":8763,"Slot":8764,"Ġwww":8765,"high":8766,"ini":8767,"positories":8768,"ĠNormal":8769,"Ġabstract":8770,"Ġoptionally":8771,"Ġpw":8772,"itation":8773,"pa":8774,"Ġnav":8775,"Indices":8776,"ServerError":8777,"95":8778,"Ġnv":8779,"creen":8780,"sibly":8781,"Describe":8782,"Ġcorrectly":8783,"PK":8784,"atives":8785,"alette":8786,"Ġ\"@":8787,"Handles":8788,"ĠAv":8789,"DAP":8790,"Repo":8791,"rest":8792,"Ġol":8793,"Ġanimation":8794,"ĠSC":8795,"Ġrtrim":8796,"OFF":8797,"Pipeline":8798,"vec":8799,"Ġdn":8800,"Ġstdin":8801,"Ġ\"_\"":8802,"ĠRetrie":8803,"Like":8804,"IES":8805,"ane":8806,"osity":8807,"Ġindexed":8808,"Ok":8809,"igu":8810,"ĠsetType":8811,"generator":8812,"truct":8813,"Ġisfile":8814,"border":8815,"Ġhalf":8816,"Ġarraycopy":8817,"serial":8818,"IDTH":8819,"break":8820,"Ġsubnet":8821,"Ġaccumul":8822,"Ġdrag":8823,"andidate":8824,"Policies":8825,"ByteArray":8826,"ĠisNot":8827,"ĠPool":8828,"ograph":8829,"original":8830,"ĠIAtom":8831,"Dom":8832,"ĠErrInvalidParams":8833,"ĠLookup":8834,"Loaded":8835,"rac":8836,"execute":8837,"cha":8838,"Ġhighlight":8839,"decl":8840,"ĠprimaryKey":8841,"Ġpagination":8842,"Ġpay":8843,"icator":8844,"Ġexcluded":8845,"Ġmonths":8846,"Checker":8847,"itemap":8848,"percent":8849,"Transition":8850,"Ġleave":8851,"iag":8852,"Disabled":8853,"Ġpast":8854,"ĠSql":8855,"Ġsessions":8856,"ĠActive":8857,"ĠDNS":8858,"Ġgc":8859,"Stamp":8860,"ĠParams":8861,"Ġcomparator":8862,"\");":8863,"rm":8864,"ern":8865,"Ġlegacy":8866,"Equals":8867,"essaging":8868,"secure":8869,"Dev":8870,"Ġlocator":8871,"Received":8872,"Ġscripts":8873,"etency":8874,"48":8875,"CB":8876,"JB":8877,"cussion":8878,"Ġ-----------------------------------------------------------------":8879,"ĠgetSel":8880,"Ġsanitize":8881,"Ġcurve":8882,"Customer":8883,"Ġrefer":8884,"BUTE":8885,"ĠgetElements":8886,"ĠcheckNotNull":8887,"ĠControl":8888,"oped":8889,"iolation":8890,"ĠdataType":8891,"Ġhistogram":8892,"ĠgetView":8893,"Ġcalculated":8894,"Side":8895,"Ġur":8896,"Ġprincipal":8897,"62":8898,"kb":8899,"AMP":8900,"Ġ{@":8901,"Ġimag":8902,"Maps":8903,"Ġlatitude":8904,"ased":8905,"ae":8906,"phabet":8907,"HOST":8908,"Delivery":8909,"Ġdl":8910,"ĠFail":8911,"itro":8912,"exer":8913,"DL":8914,"UpperCase":8915,"Ġcompilation":8916,"ĠisAssignableFrom":8917,"osen":8918,"ĠFILTER":8919,"setting":8920,"NonNull":8921,"orer":8922,"Ġpolicies":8923,"Contract":8924,"Ġthree":8925,"Ġcompatibility":8926,"Expressions":8927,"ĠgetUrl":8928,"Ġauthenticate":8929,"ĠDirectory":8930,"://'":8931,"Connected":8932,"Ġcopying":8933,"Ġtor":8934,"warn":8935,"Ġseparated":8936,"Ġband":8937,"Ġtransactions":8938,"PH":8939,"Ġparses":8940,"POINT":8941,"43":8942,"sRequest":8943,"engine":8944,"arest":8945,"Images":8946,"Finds":8947,"Ġpixels":8948,"amount":8949,"Ġexactly":8950,"Ġcv":8951,"Stmt":8952,"ĠEmpty":8953,"pars":8954,"CF":8955,"Dr":8956,"ĠgetPage":8957,"Ġ80":8958,"Ġbroadcast":8959,"|\\":8960,"ĠLI":8961,"ĠOutputStream":8962,"Ġbins":8963,"ĠMerge":8964,"Ġcampaign":8965,"Locked":8966,"elta":8967,"Ġcompressed":8968,"distance":8969,"imeType":8970,"Ġsoft":8971,"dtype":8972,"Acc":8973,"ĠgetI":8974,"Ġ%(":8975,"Formats":8976,"ĠBackground":8977,"{}'":8978,"ĠFORM":8979,"ĠAssoci":8980,"acc":8981,"Ġ655":8982,"outine":8983,"ĠEMPTY":8984,"Ġlocals":8985,"steps":8986,"ech":8987,"HttpRequest":8988,"TRAN":8989,"Ġcamel":8990,"SECON":8991,"detail":8992,"cludes":8993,"contact":8994,"categories":8995,"ello":8996,"ĠgetState":8997,"FFFF":8998,"Evenement":8999,"holders":9000,"peg":9001,"fol":9002,"Distribution":9003,"Ġseparate":9004,"dro":9005,"Ġatoms":9006,"Ġasynchronous":9007,"ĠorderByComparator":9008,"sy":9009,"apply":9010,"Ġlogrus":9011,"todo":9012,"Obser":9013,"ĠgetL":9014,"reet":9015,"Ġyy":9016,"ĠHow":9017,"ntil":9018,"Delet":9019,"Ġmutex":9020,"Grant":9021,"Ġamazonaws":9022,"Ġretrieves":9023,"ugs":9024,"uplicate":9025,"Ġslash":9026,"ĠgetParam":9027,"Ġswing":9028,"ĠCalculate":9029,"Skill":9030,"uck":9031,"fony":9032,"Ġsf":9033,"Ġsurface":9034,"Ġ21":9035,"73":9036,"Pixel":9037,"Tuple":9038,"Ġci":9039,"ĠRa":9040,"ĠMon":9041,"ĠArt":9042,"ĠEvents":9043,"}_":9044,"Ġenvelope":9045,"RequestException":9046,"Ġrefs":9047,"Ġports":9048,"Ġsink":9049,"Ġwiki":9050,"Comments":9051,"Ġlight":9052,"AST":9053,"Cons":9054,"ĠAttributes":9055,"double":9056,"ĠEqual":9057,"ĠaddClass":9058,"Ġwraps":9059,"72":9060,"peated":9061,"vey":9062,"ĠSite":9063,"Ġstores":9064,"Ġscene":9065,"Ġfilenames":9066,"ĠAssertion":9067,"scheme":9068,"andbox":9069,"Ġexecutable":9070,"repository":9071,"ĠgetDecl":9072,"QueryBuilder":9073,"nn":9074,"Ġrf":9075,"coords":9076,"ĠUnknown":9077,"+\"":9078,"ĠĠĠĠĠĠĠĠĠĠĠĠĠĠ":9079,"venience":9080,"DT":9081,"country":9082,"rev":9083,"Book":9084,"itable":9085,"COD":9086,"Ġadaptor":9087,"Ġunsigned":9088,"Ġ'%'":9089,"}}":9090,"seudo":9091,"Ġtyped":9092,"icture":9093,"Clear":9094,"pag":9095,"ti":9096,"ĠcacheKey":9097,"Ġrealpath":9098,"UTE":9099,"Ġexponent":9100,"Ġimported":9101,"ReturnType":9102,"Ġlinear":9103,"ĠbasePath":9104,"LF":9105,"arante":9106,"Ġbp":9107,"ĠFuture":9108,"Ġlc":9109,"strong":9110,"ĠSELECT":9111,"oles":9112,"Ġdm":9113,"channels":9114,"video":9115,"sequent":9116,"Ġworld":9117,"cript":9118,"Ġpreferred":9119,"ĠaccessToken":9120,"Manifest":9121,"Est":9122,"Perm":9123,"unicode":9124,"INTER":9125,"ipy":9126,"Commands":9127,"ĠCONFIG":9128,"Ġsubscribe":9129,"Ġeg":9130,"Ġ28":9131,"Browser":9132,"Ġsr":9133,"Ġthumbnail":9134,"Ġ-----":9135,"Ġintersect":9136,"dbc":9137,"Ġ'<'":9138,"Determin":9139,"Ġuploaded":9140,"Zip":9141,"jango":9142,"upal":9143,"refresh":9144,"Ġocc":9145,"ĠAPP":9146,"WITH":9147,"Pay":9148,"machine":9149,"ĠValidator":9150,"porary":9151,"Prob":9152,"Ġhooks":9153,"Ġcompression":9154,"Principal":9155,"free":9156,"bas":9157,"tas":9158,"Review":9159,"Ġrdf":9160,"Tmp":9161,"ĠgetToken":9162,"Ġ'''":9163,"ĠRegion":9164,"Ġproviders":9165,"ĠBool":9166,"usage":9167,"Notify":9168,"Ġbuckets":9169,"Ġmetav":9170,"Ġshut":9171,"501":9172,"clusive":9173,"subscribe":9174,"Ġ'@'":9175,"bottom":9176,"editor":9177,"Ġrather":9178,"Ġinvoice":9179,"Ġsites":9180,"Ġdatasource":9181,"Ġkb":9182,"ĠAST":9183,"ascii":9184,"ROOT":9185,"Mouse":9186,"ĠFINE":9187,"random":9188,"ĠgetLog":9189,"ĠInitialize":9190,"`,":9191,"Ġlongitude":9192,"FromString":9193,"Free":9194,"Ġpersistent":9195,"Ġcodec":9196,"mi":9197,"Ġthings":9198,"INDEX":9199,"compute":9200,"ĠisTrace":9201,"acters":9202,"Family":9203,"ĠTEXT":9204,"Ġipv":9205,"ĠTimeUnit":9206,"=>":9207,"Ġnotifications":9208,"Ġndim":9209,"WithHttp":9210,"Counts":9211,"Behavior":9212,"Compiler":9213,"Ġprof":9214,"bidden":9215,"cursor":9216,"Started":9217,"Ġoverlay":9218,"Ġclosest":9219,"Native":9220,"Ġring":9221,"65":9222,"ĠInd":9223,"kind":9224,"ĠSeries":9225,"NumberOf":9226,"$'":9227,"Ġie":9228,"Ġvault":9229,"Ġwallet":9230,"comments":9231,"inality":9232,"Focus":9233,"ĠPassword":9234,"ETCH":9235,"ĠArgumentError":9236,"abl":9237,"ĠMS":9238,"Ġperformance":9239,"atial":9240,"Ġsetattr":9241,"Delta":9242,"related":9243,"Ġnu":9244,"utation":9245,"Ġhelpers":9246,"ĠFS":9247,"ĠPreconditions":9248,"ĠSignature":9249,"EAR":9250,"ĠMemory":9251,"screen":9252,"Ġ($":9253,"RACE":9254,"WithHttpInfo":9255,"since":9256,"AccessToken":9257,"riendly":9258,"Ġ180":9259,"Ġtaxonomy":9260,"payment":9261,"Ġcollap":9262,"ĠgetHeight":9263,"Ġnx":9264,"ĠjcasType":9265,"VG":9266,"Invocation":9267,"Ġcopied":9268,"soft":9269,"quot":9270,"Ġfurther":9271,"ĠgetContainer":9272,"segment":9273,"bus":9274,"(%":9275,"Ġtell":9276,"ĠsetDefault":9277,"disabled":9278,"ĠOutputInterface":9279,"Ġxs":9280,"Ġsatisf":9281,"Layers":9282,"Ġidentified":9283,"ounds":9284,"ĠgetJ":9285,"ĠINFO":9286,"Ġreach":9287,"iving":9288,"perature":9289,"Ġdatastore":9290,"FormatException":9291,"ĠcompareTo":9292,"atter":9293,"FOUND":9294,"dp":9295,"ĠdateTime":9296,"submit":9297,"Ġquoted":9298,"Ġredu":9299,"Ġgap":9300,"comb":9301,"ĠCollect":9302,"FFER":9303,"imen":9304,"ĠSdkInternal":9305,"ocial":9306,"ĠintValue":9307,"KNOWN":9308,"family":9309,"ĠIss":9310,"ĠDisplay":9311,"Ġquality":9312,"Library":9313,"Connections":9314,"ĠRect":9315,"refs":9316,"YY":9317,"Ġrestriction":9318,"mgmt":9319,"LOSE":9320,"Scheme":9321,"Ġticket":9322,"Ġhad":9323,"ĠerrorMessage":9324,"egment":9325,"ĠConsumer":9326,"Ġtries":9327,"Ġrtype":9328,"rection":9329,"Ġsimpl":9330,"Ġcarry":9331,"ARE":9332,"ĠConst":9333,"(),":9334,"ĠaddElement":9335,"ĠDeprecated":9336,"Tile":9337,"{}\"":9338,"eof":9339,"release":9340,"under":9341,"background":9342,"Operations":9343,"CREATE":9344,"Hidden":9345,"phere":9346,"INVALID":9347,"Ġqualified":9348,"90":9349,"Ġmarked":9350,"ĠISO":9351,"ĠSum":9352,"many":9353,"ĠCounter":9354,"indent":9355,"Variant":9356,"Ġnitro":9357,"ĠSdkInternalList":9358,"twig":9359,"Ġhierarchy":9360,"Runs":9361,"andas":9362,"ĠShould":9363,"Ġdefining":9364,"ĠRecognition":9365,"prepare":9366,"ognized":9367,"Ġrelevant":9368,"Ġ\")":9369,"Ġauthenticated":9370,"special":9371,"ĠErrors":9372,"tables":9373,"repeat":9374,"external":9375,"ĠUs":9376,"Ġgeneration":9377,"Dest":9378,"lon":9379,"Ġimpl":9380,"proc":9381,"Abs":9382,"EE":9383,"Days":9384,"ĠGeo":9385,"otherlv":9386,"Ġsparse":9387,"Ġage":9388,"Ġbitmap":9389,"Ġmaterial":9390,"Ġoverflow":9391,"ĠgetProperties":9392,"proto":9393,"DEBUG":9394,"Ġcompany":9395,"ĠDriver":9396,"Ġaux":9397,"itles":9398,"NextToken":9399,"Composite":9400,"52":9401,"ĠDial":9402,"ĠClassLoader":9403,"ĠHasPrefix":9404,"Blob":9405,"asset":9406,"etries":9407,"ĠMapping":9408,"Performs":9409,"Middleware":9410,"Ġcmp":9411,"NECT":9412,"Py":9413,"ĠUpload":9414,"LoadBalancer":9415,"tasks":9416,"Ġdup":9417,"Analysis":9418,"Ġprefixes":9419,"Ġpreserve":9420,"igher":9421,"OBJECT":9422,"Curve":9423,"ĠreturnType":9424,"ĠSm":9425,"Ġcleaned":9426,"Ġremoving":9427,"COR":9428,"phrase":9429,"Already":9430,"Whitespace":9431,"Targets":9432,"ĠsetStatus":9433,"When":9434,"Ġchang":9435,"accept":9436,"Ġrd":9437,"Ġextracted":9438,"Ġutc":9439,"Ġglyph":9440,"Ġlst":9441,"Ġtopology":9442,"ĠNUM":9443,"avor":9444,"Ġblocking":9445,"draw":9446,"Partial":9447,"runtime":9448,"000000":9449,"tricted":9450,"Phone":9451,"42":9452,"Ġretries":9453,"agma":9454,"Mgr":9455,"$/'":9456,"ĠImp":9457,"ĠFin":9458,"Program":9459,"ffff":9460,"Plugins":9461,"47":9462,"Walk":9463,"wb":9464,"ĠchildNode":9465,"Ġgrpc":9466,"Ġsubscriber":9467,"park":9468,"ĠSTRING":9469,"68":9470,"Ġletter":9471,"Ġnewline":9472,"ĠFlow":9473,"Ġquad":9474,"Ġtogether":9475,"ĠHttpResponse":9476,"aked":9477,"Ġvisibility":9478,"Ġdisconnect":9479,"ĠUnix":9480,"Ġpods":9481,"Ġir":9482,"ĠTab":9483,"Ġaccounts":9484,"Padding":9485,"ACL":9486,"Ġpublished":9487,"Ġabspath":9488,"extensions":9489,"aybe":9490,"volume":9491,"ĠcreateFrom":9492,"ĠgetAbsolutePath":9493,"Ġcx":9494,"Ġinvocation":9495,"crim":9496,"operator":9497,"61":9498,"sys":9499,"ĠExit":9500,"ĠaddError":9501,"Ġbuttons":9502,"TIMEOUT":9503,"ILED":9504,"termin":9505,"ĉĉĉ":9506,"ĠnodeType":9507,"alyze":9508,"Ġ||=":9509,"uzz":9510,"WARNING":9511,"Ġhyper":9512,"Ġnt":9513,"ĠTransport":9514,"Ġoverrides":9515,"Than":9516,"Matching":9517,"ĠModify":9518,"uite":9519,"ĠParent":9520,"las":9521,"yaml":9522,"inc":9523,"Margin":9524,"ĠfindOne":9525,"vidence":9526,"Ġwatcher":9527,"onal":9528,"Ġtip":9529,"ABLED":9530,"Ġ/=":9531,"ĠallErrs":9532,"awn":9533,"inux":9534,"Share":9535,"google":9536,"Digits":9537,"Embed":9538,"ĠRecognitionException":9539,"ught":9540,"olec":9541,"arning":9542,"Ġordering":9543,"ĠGeneral":9544,"ĠFast":9545,"ĠresourceName":9546,"ĠMongo":9547,"_\"":9548,"Ġquick":9549,"ĠlastIndexOf":9550,"finite":9551,"Sm":9552,"Ġreversed":9553,"spaces":9554,"ĠgetMin":9555,"Completed":9556,"ĠCor":9557,"cles":9558,"cular":9559,"MAN":9560,"pending":9561,"ĠDev":9562,"Ġflash":9563,"Ġinserted":9564,"super":9565,"Ġclusters":9566,"ipant":9567,"Digest":9568,"Launch":9569,"Ġum":9570,"Ġ'}'":9571,"backup":9572,"Ġsends":9573,"builder":9574,"olr":9575,"compiler":9576,"Subnet":9577,"Ġwhite":9578,"ĠReflectionClass":9579,"Front":9580,"Pub":9581,"Ġplease":9582,"Ġna":9583,"ARK":9584,"empts":9585,"Delegate":9586,"ĠSim":9587,"Ġpassing":9588,"ĠUnion":9589,"RY":9590,"Ġperformed":9591,"Queries":9592,"Unmarshal":9593,"Validates":9594,"ĠgetLocale":9595,"ĠfieldType":9596,"metrics":9597,"padding":9598,"67":9599,"zA":9600,"Ġgamma":9601,"Ġsorting":9602,"Ġdirty":9603,"ĠaddTo":9604,"vh":9605,"Ġmodifier":9606,"Ġfopen":9607,"auses":9608,"Ġdummy":9609,"switch":9610,"CM":9611,"permissions":9612,"Ġelapsed":9613,"[\"":9614,"ĠgetApplication":9615,"ĠErrCodeInvalid":9616,"ĠnextToken":9617,"issues":9618,"Ġpropag":9619,"retry":9620,"ĠActivity":9621,"multiple":9622,"Ġvocab":9623,"Preference":9624,"cmp":9625,"Ġdem":9626,"Ġstopped":9627,"Ġsplice":9628,"Pull":9629,"Ġderiv":9630,"Ġ00":9631,"PublicKey":9632,"ĠUnicode":9633,"------------------------------------------------":9634,"Ġcomposite":9635,"Cho":9636,"ĠDoes":9637,"Ġsubmitted":9638,"Google":9639,"eloc":9640,"armacy":9641,"arations":9642,"ĠsetTimeout":9643,"ĠFprintf":9644,"ĠClean":9645,"ners":9646,"simple":9647,"Ġaspect":9648,"ĠUnexpected":9649,"ĠgetIdentifier":9650,"FLAG":9651,"Charset":9652,"activity":9653,"\".":9654,"Ġobserver":9655,"Ġcapt":9656,"ĠConsole":9657,"Ġtcp":9658,"ior":9659,"Ġarange":9660,"Const":9661,"ĠDeepCopyInto":9662,"selector":9663,"Ġbuffers":9664,"added":9665,"ĠCRE":9666,"Aliases":9667,"Ġflip":9668,"lback":9669,"Ġpat":9670,"Ġ\"=\"":9671,"ĠAsync":9672,"Since":9673,"ĠShow":9674,"ĠConf":9675,"BB":9676,"ĠEnable":9677,"Lead":9678,"Provision":9679,"ĠAnnotate":9680,"GP":9681,"MQ":9682,"dates":9683,"ĠtoUpperCase":9684,"Initializes":9685,"ĠLEFT":9686,"MLE":9687,"Ġproblems":9688,"CONTENT":9689,"Alpha":9690,"Ġwritable":9691,"Age":9692,"props":9693,"tection":9694,"Ġprotobuf":9695,"ĠDict":9696,"ĠThen":9697,"Configurations":9698,"iso":9699,"Ġskipped":9700,"ĠInternalXbase":9701,"Ġupdating":9702,"ĠRouter":9703,"See":9704,"ĠHelper":9705,"Ġquit":9706,"yes":9707,"ĠSl":9708,"Runner":9709,"ĠCharSequence":9710,"Ġvisited":9711,"ERR":9712,"ĠgetUri":9713,"criteria":9714,"Ġissuer":9715,"Until":9716,"ĠPhp":9717,"Ġoth":9718,"REE":9719,"ĠLoop":9720,"ĠSync":9721,"ĠBE":9722,"Fire":9723,"colors":9724,"Styles":9725,"escriptions":9726,"weights":9727,"ĠWarning":9728,"equal":9729,"ĠOB":9730,"Ġancestor":9731,"Resp":9732,"Ġunexpected":9733,"ĠattributeName":9734,"Cast":9735,"ĠWatch":9736,"enchmark":9737,"ValueException":9738,"Coverage":9739,"Ġmm":9740,"forms":9741,"Ġhighest":9742,"imension":9743,"ĠWARNING":9744,"Ġtracker":9745,"itness":9746,";\\":9747,"written":9748,"UCT":9749,"Ġign":9750,"Ġiface":9751,"Ġmr":9752,"Ġunix":9753,"train":9754,"Ġscheduled":9755,"Ġpersistence":9756,"ĠMatcher":9757,"questions":9758,"ĠPROPERTY":9759,"Ġč":9760,"ĠPublish":9761,"Claim":9762,"Executes":9763,"gz":9764,"eds":9765,"Fact":9766,"ĠStyle":9767,"Ġvertical":9768,"Catalog":9769,"Ġpv":9770,"ĠAb":9771,"lists":9772,"AccessException":9773,"ĠgetPl":9774,"ĠElastic":9775,"Ġcheckpoint":9776,"ĠSHA":9777,">>":9778,"ĠDocker":9779,"ĠmoduleName":9780,"ensus":9781,"Ġrendering":9782,"Ġisdir":9783,"ĠBO":9784,"ĠĉĠĠĠĠ":9785,"Ġidentify":9786,"Ġtre":9787,"Ġappear":9788,"Ġaccessor":9789,"Ġ'{'":9790,"Dynamic":9791,"Ġdeletes":9792,"DA":9793,"Look":9794,"ah":9795,"ĠNamed":9796,"ĠRece":9797,"Ġworkers":9798,"Ġ[%":9799,"lier":9800,"Reflection":9801,"Based":9802,"41":9803,"Ġsvg":9804,"Ġpresence":9805,"Ġpathname":9806,"Bond":9807,"rozen":9808,"ĠMenu":9809,"days":9810,"dot":9811,"sim":9812,"Ġmarkup":9813,"Ġmigrations":9814,"car":9815,"Ġmuch":9816,"Ġmillisec":9817,"ĠbaseUrl":9818,"PARAMETER":9819,"Ġorientation":9820,"ĠComment":9821,">%":9822,"Geometry":9823,"Ġ'&'":9824,"ĠgetStatusCode":9825,"NONE":9826,"permission":9827,"There":9828,"Modifier":9829,"Ġtaken":9830,"Ġfun":9831,"ĠgetEvent":9832,"TA":9833,"Ġib":9834,"uy":9835,"Ġupdateres":9836,"Refs":9837,"iterator":9838,"Cached":9839,"Primitive":9840,"ĠMESSAGE":9841,"och":9842,"Ġbracket":9843,"Ġaffected":9844,"reverse":9845,"Ġba":9846,"ratio":9847,"Ġinvert":9848,"ĠgetOptions":9849,"Ġ\"]":9850,"ĠgetLine":9851,"ĠFIXME":9852,"alloc":9853,"breviated":9854,"direction":9855,"ĠCategory":9856,"verrides":9857,"Leaf":9858,"dom":9859,"Ġfooter":9860,"pus":9861,"Ġdecom":9862,"Ġidentifiers":9863,"Am":9864,"Mock":9865,"Discount":9866,"ĠTwig":9867,"eeper":9868,"Ġhashes":9869,"Ġ\"]\"":9870,"scan":9871,"Dirs":9872,"Ġevaluation":9873,"ĠOffset":9874,"Ġguid":9875,"Ġchoose":9876,"compare":9877,"delta":9878,"Ġgt":9879,"Ġfld":9880,"Ġdbc":9881,"ĠprojectId":9882,"IMP":9883,"Ġnr":9884,"ordered":9885,"Ġoperand":9886,"ĠgetAnnotation":9887,"ĠgetLength":9888,"ĠLanguage":9889,"Safe":9890,"oggle":9891,"ĠSSH":9892,"registry":9893,"SIB":9894,"Existing":9895,"oins":9896,"bb":9897,"platform":9898,"upon":9899,"PROPERTY":9900,"Big":9901,"Numeric":9902,"SD":9903,"++":9904,"TLS":9905,"Creation":9906,"Ġfolders":9907,"ĠDirect":9908,"lert":9909,"ĠResolve":9910,"ĠTCP":9911,"ĠSubject":9912,"Bin":9913,"Ġdims":9914,"Deser":9915,"ĠOrderedDict":9916,"================================================================":9917,"Watcher":9918,"Ġencountered":9919,"ĠqueryParams":9920,"ĠFIELD":9921,"Ġurlencode":9922,"deg":9923,"ermark":9924,"amel":9925,"ĠWord":9926,"notification":9927,"ĠstackPtr":9928,"ĠpackageName":9929,"Ġsoap":9930,"NUMBER":9931,"Ranges":9932,"ĠMove":9933,"Ġ48":9934,"ĠlocalVar":9935,"Ġneedle":9936,"Compile":9937,"Ġoccurs":9938,"Ġpivot":9939,"using":9940,"antic":9941,"ĠRedirect":9942,"Ġexceed":9943,"Ġĉĉĉĉĉ":9944,")?":9945,"Ġsecondary":9946,"GHT":9947,"Ġ---":9948,"Ġbid":9949,"ĠgetSize":9950,"ĠUTC":9951,"oved":9952,"lp":9953,"ĠRetry":9954,"Ġtranslated":9955,"ĠgetDocument":9956,"Ġdoing":9957,"Prev":9958,"Views":9959,"ĠFlag":9960,"DArray":9961,"ĠisString":9962,"race":9963,"ĠEVENT":9964,"Ġwindows":9965,"Slug":9966,"ĠsetError":9967,"ĠgetEnd":9968,"Specific":9969,"ocom":9970,"assets":9971,"orders":9972,"phi":9973,"grad":9974,"92":9975,"ONTH":9976,"Lifecycle":9977,"Ġdu":9978,"ĠgetBy":9979,"ĠWill":9980,"FR":9981,"ftime":9982,"ĠIAM":9983,"ĠHttpServletRequest":9984,"Ġcontinu":9985,"Ġdp":9986,"kw":9987,"Ac":9988,"ĠPdf":9989,"Mac":9990,"bundle":9991,"PointerException":9992,"backend":9993,"ĠpropName":9994,"ĠLayout":9995,"entities":9996,"Ġtot":9997,"Ġcron":9998,"charset":9999,"ĠTri":10000,"prev":10001,"ĠOSError":10002,"atermark":10003,"Ġgreen":10004,"standard":10005,"Ġclasspath":10006,"ojo":10007,"ining":10008,"ErrorException":10009,"ĠinputStream":10010,"logs":10011,"origin":10012,"cond":10013,"activate":10014,"Deploy":10015,"Ġpossibly":10016,"Ġmeas":10017,"andatory":10018,"));":10019,"Ġconcurrent":10020,"ĠExtension":10021,"Ġremainder":10022,"WIDTH":10023,"ĠManaged":10024,"ĠSUB":10025,"Removed":10026,"Ġactivation":10027,"ĠgetParameters":10028,"inputs":10029,"ĠSnapshot":10030,"()\"":10031,"unt":10032,"ĠgetList":10033,"ĠUID":10034,"team":10035,"Ġmanually":10036,"elem":10037,"#'":10038,"Ġconversation":10039,"ĠInet":10040,"anned":10041,"ĠSym":10042,"Ġresid":10043,"Align":10044,"semble":10045,"Ġvectors":10046,"inline":10047,"Ġsingular":10048,"geom":10049,"sur":10050,"ĠNotImplemented":10051,"gi":10052,"Devices":10053,"Ġbi":10054,"Managed":10055,"Ġarbit":10056,"COMP":10057,"Ġ'+'":10058,"Inputs":10059,"Ġpartitions":10060,"customer":10061,"construct":10062,"ĠFont":10063,"through":10064,"Ġattachments":10065,"LEFT":10066,"Ġoffer":10067,"Ġstud":10068,"Exceeded":10069,"Rev":10070,"ĠINVALID":10071,"Numbers":10072,"Ġaf":10073,"Ġtoday":10074,"exc":10075,"imetype":10076,"ĠDown":10077,"ĠMETH":10078,"ONT":10079,"Ġtraverse":10080,"Ġfatal":10081,"Ġpeers":10082,"Video":10083,"Self":10084,"Ġregions":10085,"begin":10086,"Ġping":10087,"jobs":10088,"oji":10089,"SR":10090,"Ġ'~":10091,"ĠSection":10092,"inheritdoc":10093,"wind":10094,"Ġimports":10095,"ĠoptionalArgs":10096,"Ġfv":10097,"ĠACL":10098,"umbs":10099,"esting":10100,"Ġallocate":10101,"keep":10102,"plus":10103,"ĠFlags":10104,"Ġbridge":10105,"PEC":10106,"margin":10107,"ĠNullPointerException":10108,"ICAL":10109,"ĠQU":10110,"Ġfrag":10111,"terms":10112,"Attempts":10113,"Determines":10114,"gate":10115,"Ġtreat":10116,"ĠgetOr":10117,"Ġhi":10118,"Ġkeyid":10119,"plicable":10120,"ĠClear":10121,"ĠisLog":10122,"Ġtokenizer":10123,"worker":10124,"Calls":10125,"ĠisDirectory":10126,"comes":10127,"Ġdomains":10128,"orical":10129,"enders":10130,"ixin":10131,"Ġthrowable":10132,"aintext":10133,"ĠrequireNonNull":10134,"Visibility":10135,"Must":10136,"Ġprojects":10137,"Ġforms":10138,"ĠPrefix":10139,"################################":10140,"sources":10141,"Ġtbl":10142,"Ġpreview":10143,"inations":10144,"stand":10145,"ĠScreen":10146,"Ġ65535":10147,"uffle":10148,"enticator":10149,"acl":10150,"ĠFire":10151,"ĠMETHOD":10152,"imize":10153,"Does":10154,"Aware":10155,"Pag":10156,"exclude":10157,"ITS":10158,"ĠGenerator":10159,"CD":10160,"more":10161,"instances":10162,"Ġaggregation":10163,"atten":10164,"Ġua":10165,"ĠVert":10166,"Ġpieces":10167,"ĠSAX":10168,"versions":10169,"Ġonto":10170,"digest":10171,"ĠXPath":10172,"translation":10173,"pub":10174,"isk":10175,"ĠLook":10176,"Ġsubclass":10177,"Tim":10178,"Ġ{{":10179,"ĠNaN":10180,"ĠrootNode":10181,"Ġalter":10182,"ĠgetAttributes":10183,"ĠDraw":10184,"_%":10185,"Ġfg":10186,"ĠappId":10187,"ĠInitial":10188,"Ġsubscrib":10189,"Ġparagraph":10190,"Ġopened":10191,"Ġlooks":10192,"Thing":10193,"Ġmultiply":10194,"ĠIndexError":10195,"Radius":10196,"Ġunused":10197,"ĠnodeList":10198,"Ġdetach":10199,"Switch":10200,"ĠCookie":10201,"ĠPredicate":10202,"RESS":10203,"adapter":10204,"ĠORDER":10205,"iated":10206,"parable":10207,"ĠgetFull":10208,"ĠJs":10209,"ĠCreates":10210,"front":10211,"freq":10212,"Ġ23":10213,"Detection":10214,"Console":10215,"ĠAddr":10216,"Ġdistinct":10217,"styles":10218,"strings":10219,"Ġtransformed":10220,"Ġguarante":10221,"series":10222,"ĠElem":10223,"Migration":10224,"So":10225,"Ġ'',":10226,"visor":10227,"Ġ['":10228,"ĠDetermine":10229,"ĠMissing":10230,"IDR":10231,"Ġunregister":10232,"ĠdataSource":10233,"ĠAuthorization":10234,"Ġactivate":10235,"ĠappName":10236,"Enter":10237,"RET":10238,"pay":10239,"ĠItems":10240,"ef":10241,"Ġdidn":10242,"arily":10243,"peak":10244,"heets":10245,"ĠBigInteger":10246,"Ġfar":10247,"const":10248,"afka":10249,"ĠBASE":10250,"Ġquant":10251,"ĠGL":10252,"ĠLogging":10253,"ĠRunnable":10254,"ABEL":10255,"lif":10256,"Quote":10257,"TEMP":10258,"monitor":10259,"ĠStatusCode":10260,"83":10261,"Pur":10262,"Ġmultipart":10263,"ĠPop":10264,"Operand":10265,"Ġvalidated":10266,"Ġtrust":10267,"ĠgetChildren":10268,"ĠCommit":10269,"folio":10270,"ĠEvalu":10271,"ĠprocessException":10272,"Interfaces":10273,"environment":10274,"Ġinstantiate":10275,"CSS":10276,"Registers":10277,"frames":10278,"Ġacross":10279,"TEGER":10280,"Interceptor":10281,"wers":10282,"stdout":10283,"ĠInstall":10284,"Ġregisters":10285,"ĠUsed":10286,"ĠLogic":10287,"IfNot":10288,"Ġ'{$":10289,"QUIRED":10290,"Sibling":10291,"Ġgradient":10292,"bum":10293,"Ġapplies":10294,"Ġretrieved":10295,"Ġproj":10296,"tein":10297,"ervation":10298,"Ġdry":10299,"Ġhorizontal":10300,"Streams":10301,"Ġleader":10302,"Ġgrouped":10303,"shell":10304,"cn":10305,"ĠobjWriter":10306,"ĠSESSION":10307,"packages":10308,"ĠNewErrParamMin":10309,"Ġtruncate":10310,"ĠPass":10311,"Nan":10312,"Ġinitialization":10313,"ĠShared":10314,"eus":10315,"ĠgetConfiguration":10316,"Undefined":10317,"Ġpx":10318,"ĠOpenCms":10319,"ĠCoord":10320,"57":10321,"ĠgetComponent":10322,"Ġbrok":10323,"ĠgetSec":10324,"auss":10325,"ĠSingle":10326,"ilon":10327,"idence":10328,"most":10329,"Ġgor":10330,"Ġgzip":10331,"'.":10332,"ĠIdentifier":10333,"Quota":10334,"``":10335,"ĠAB":10336,"ĠMonth":10337,"ĠsessionId":10338,"DAY":10339,"uby":10340,"Ġsip":10341,"rier":10342,"Serialize":10343,"ĠreplaceAll":10344,"appens":10345,"NC":10346,"ĠCancel":10347,"Tools":10348,"olumes":10349,"sorted":10350,"ĠResults":10351,"Ġ^=":10352,"Ġinstrument":10353,"Ġwho":10354,"Ġalternative":10355,"Ġkeybase":10356,"Endpoints":10357,"hostname":10358,"ĠERR":10359,"Ġrho":10360,"Decorator":10361,"ĠSk":10362,"Ġsigner":10363,"presentation":10364,"ĠPRI":10365,"ĠRET":10366,"ĠNextToken":10367,"Absolute":10368,"Ring":10369,"oth":10370,"ĠArr":10371,"Ġdiscover":10372,"Shipping":10373,"Ġlikely":10374,"ĠFatal":10375,"Ġintent":10376,"UNI":10377,"nowled":10378,"Ġderived":10379,"Ġinjection":10380,"ĠCSV":10381,"Ġmoment":10382,"STRA":10383,"Ġtuples":10384,"IDE":10385,"Ns":10386,"Ġdie":10387,"Ġdiscard":10388,"Ġintervals":10389,"CHEM":10390,"Pred":10391,"128":10392,"Bottom":10393,"Ġnavigation":10394,"255":10395,"layers":10396,"Encoded":10397,"LEVEL":10398,"Windows":10399,"Ġopens":10400,"ByTagName":10401,"ĠĠĠĠĠĠĠĠĠĠĠĠĠĠĠĠĠĠ":10402,"ĠClassNotFoundException":10403,"Ġsilent":10404,"Ġstrftime":10405,"Ġproducts":10406,"Ġformatting":10407,"ORMAL":10408,"Pairs":10409,"Denied":10410,"Ġtranspose":10411,"Dot":10412,"ĠreadFile":10413,"ĠURLs":10414,"iding":10415,"PLA":10416,"anity":10417,"Ġsubtract":10418,"Dyn":10419,"signal":10420,"Ġagg":10421,"pers":10422,"ĠWrit":10423,"mass":10424,"Ġ\"__":10425,"ĠEl":10426,"Availability":10427,"Dif":10428,"Ġmodifiers":10429,"redit":10430,"Ġpopup":10431,"Visit":10432,"rupt":10433,"ĠTeam":10434,"Reserved":10435,"Std":10436,"pointer":10437,"Ġholder":10438,"LEAN":10439,"Ġ'/../":10440,"cipient":10441,"implement":10442,"Ġstar":10443,"optional":10444,"Bootstrap":10445,"ĠsetId":10446,"Ġchosen":10447,"ĠgetY":10448,"ĠFORMAT":10449,"Ġdebugging":10450,"Accessible":10451,"IGN":10452,"Ġdisplayed":10453,"EVENT":10454,"Ġasarray":10455,"Ġmoved":10456,"Ġquantity":10457,"ailf":10458,"Ġconfigurations":10459,"Ġdependent":10460,"Sn":10461,"TOP":10462,"ampler":10463,"ĠCallable":10464,"Ġelastic":10465,"OrUpdate":10466,"Invoice":10467,"hooks":10468,"Classifiers":10469,"LOAT":10470,"\\\\'":10471,"lipse":10472,"lik":10473,"FIL":10474,"igrations":10475,"topic":10476,"Math":10477,"Ġhigher":10478,"ĠnewBuilder":10479,"Ġmaking":10480,"Ġdatab":10481,"Ġviewport":10482,"Recursive":10483,"ĠProp":10484,"ĠSTART":10485,"Ġtoggle":10486,"Categories":10487,"dest":10488,"Ġve":10489,"Ġdeal":10490,"Touch":10491,"toString":10492,"ĠDBConstants":10493,"ĠAsset":10494,"ĠIo":10495,"ĠInputInterface":10496,"Bindings":10497,"ĠKeep":10498,"phan":10499,"Ġheap":10500,"Sends":10501,"UserId":10502,"Syn":10503,"Ġbuilding":10504,"Cells":10505,"ĠSlice":10506,"ĠEngine":10507,"Ġdelim":10508,"Urls":10509,"Ġshadow":10510,"ATURE":10511,"LATE":10512,"Offer":10513,"mpl":10514,"Loading":10515,"Ob":10516,"Ġfake":10517,"urls":10518,"Ġrecomm":10519,"Low":10520,"olver":10521,"poses":10522,"Ġ}}":10523,"Tokenizer":10524,"96":10525,"rift":10526,"ĠWeek":10527,"plicas":10528,"Ġannotated":10529,"reader":10530,"[:":10531,"ĠDepend":10532,"Ġacquire":10533,"partition":10534,"Ġnat":10535,"Ġanim":10536,"etheus":10537,"Choice":10538,"irs":10539,"phone":10540,"EP":10541,"irth":10542,"recursive":10543,"Shift":10544,"olecule":10545,"bank":10546,"ĠgetRaw":10547,"ĠSome":10548,"TypeEnum":10549,"Ġconj":10550,"ĠConstant":10551,"Additional":10552,"Ġneighbor":10553,"LINK":10554,"Ġhappens":10555,"Expired":10556,"Ġreports":10557,"els":10558,"ĠLet":10559,"ĠLib":10560,"filepath":10561,"Ġaz":10562,"Ġsymlink":10563,"TYPES":10564,"oload":10565,"WORK":10566,"ĠgetImage":10567,"CEPTION":10568,"picker":10569,"otype":10570,"LANG":10571,"Ġide":10572,"Closure":10573,"Ġpmag":10574,"Ġpreced":10575,"bounds":10576,"Finished":10577,"met":10578,"reason":10579,"97":10580,"glob":10581,"ĠchildNodes":10582,"Ġsensor":10583,"Ġrepresented":10584,"Channels":10585,"ARCH":10586,"Calculates":10587,"ĠstartIndex":10588,"stmt":10589,"destination":10590,"IFIER":10591,"Ġimplicit":10592,"51":10593,"ĠAggreg":10594,"Ġprovision":10595,"Oneof":10596,"ĠDes":10597,"acer":10598,"Processes":10599,"nbsp":10600,"override":10601,"OperationException":10602,"elocity":10603,"(.":10604,"odb":10605,"reement":10606,"Ġspecs":10607,"Alive":10608,"ittleEndian":10609,"ora":10610,"Ġsigning":10611,"Ġscaling":10612,"Ġcov":10613,"ĠWP":10614,"Ġ{},":10615,"ĠParseException":10616,"Callbacks":10617,"ernet":10618,"Ġcrc":10619,"iator":10620,"Ġtodo":10621,"UBLE":10622,"iguous":10623,"ĠeNS":10624,"inf":10625,"Ġinfos":10626,"Ġlocate":10627,"Dump":10628,"reply":10629,"Ġrune":10630,"Ġsuitable":10631,"processing":10632,"ĠBufferedReader":10633,"Ġinterpret":10634,"achines":10635,"Creator":10636,"RST":10637,"Ġbtn":10638,"ĠDisable":10639,"arenthes":10640,"chanism":10641,"Buff":10642,"Ġrol":10643,"rawler":10644,"vendor":10645,"ĠgetTemplate":10646,"ĠRequired":10647,"Ġsmaller":10648,"jb":10649,"ptime":10650,"ĠsetContent":10651,"ĠListener":10652,"Ġdescend":10653,"Ġothers":10654,"Alt":10655,"Dataset":10656,"pkg":10657,"ai":10658,"Ġ26":10659,"Scheduled":10660,"Ġtimedelta":10661,"urator":10662,"());":10663,"Ġindicator":10664,"Ġrecv":10665,"Relations":10666,"swer":10667,"trigger":10668,"ĠPeer":10669,"UBLIC":10670,"pliance":10671,"Providers":10672,"Ġtolerance":10673,"ĠSchedule":10674,"Instant":10675,"schedule":10676,"Ġha":10677,"subclass":10678,"ĠRegExp":10679,"Ġmanage":10680,"Ġquotes":10681,"ĠEPackage":10682,"Cause":10683,"Ġjj":10684,"ĠMUST":10685,"archive":10686,"CHECK":10687,"ĠLinkedList":10688,"98":10689,"plotlib":10690,"ĠDestination":10691,"ourses":10692,"ĠUri":10693,"Times":10694,"Ġprobe":10695,"ĠDT":10696,"Edges":10697,"Ġmicrotime":10698,"Ġbasestring":10699,"Ġblog":10700,"Ġphoto":10701,"Ġcombination":10702,"Too":10703,"Ġtravers":10704,"selection":10705,"substr":10706,"ĠmimeType":10707,"ĠRetrieve":10708,"Ġbilling":10709,"ĠTotal":10710,"maps":10711,"ĠwaitFor":10712,"ĠgetDate":10713,"ĠScheme":10714,"REAM":10715,"Ġdenom":10716,"router":10717,"ableFuture":10718,"Ġkeyspace":10719,"Ġtmpl":10720,"blob":10721,"functions":10722,"Checksum":10723,"ĠHowever":10724,"Ġreview":10725,"Assets":10726,"ĠOvh":10727,"ĠpostBody":10728,"ĠfieldValue":10729,"ights":10730,"Ġ'^":10731,"Conflict":10732,"Ġajax":10733,"Ġwhitelist":10734,"mut":10735,"Ġbuilds":10736,"ConfigurationException":10737,"Ġrewrite":10738,"dispatch":10739,"Destroy":10740,"week":10741,"isation":10742,"Computes":10743,"uent":10744,"illa":10745,"ĠREAD":10746,"Ġsamp":10747,"Ġuniq":10748,"fsp":10749,"ĠFound":10750,"aggreg":10751,"ĠOver":10752,"QUERY":10753,"nitude":10754,"ĠgetSup":10755,"())":10756,"ĠIMAGE":10757,"ernetes":10758,"ĠaddAttribute":10759,"Ġ'/\\":10760,"pectr":10761,"Ġfeedback":10762,"Ġgs":10763,"ico":10764,"STEM":10765,"Ġscenario":10766,"ConversionFunc":10767,"Ġindicate":10768,"Ġstuff":10769,"ĠConstraint":10770,"REF":10771,"measure":10772,"Inst":10773,"Ġresume":10774,"Ġposts":10775,"EDIT":10776,"Recorder":10777,"ĠDataset":10778,"Ġxhr":10779,"Ġrequ":10780,"identity":10781,"Ġdegree":10782,"ĠisNew":10783,"Upgrade":10784,"Dirty":10785,"ĠgetTitle":10786,"encoded":10787,"ĠcheckArgument":10788,"SPON":10789,"delay":10790,"Ġprod":10791,"ĠĠĠĠĠĠĠĠĠĠĠĠĠĠĠĠĠĠĠ":10792,"ASH":10793,"Ġwave":10794,"Iteration":10795,"Dimensions":10796,"Ġ({":10797,"Increment":10798,"Ġauthorized":10799,"AWS":10800,"Ġmongo":10801,"Ġimportant":10802,"ĠInterval":10803,"Ġaway":10804,"ĠgetEPackage":10805,".$":10806,"ĠSegment":10807,"Collect":10808,"OC":10809,"Ġtwe":10810,"Ġpf":10811,"ĠGra":10812,"Jar":10813,"sep":10814,"Ġsubsequent":10815,"Animation":10816,"parsed":10817,"Ġapprox":10818,"ĠRelease":10819,"Ġtraceback":10820,"RAW":10821,"given":10822,"Ġuniform":10823,"PrivateKey":10824,"Ġnoise":10825,"lr":10826,"ibm":10827,"resolve":10828,"oves":10829,"FERENCE":10830,"PATTERN":10831,"Audit":10832,"ĠgetUn":10833,"ipv":10834,"strlen":10835,"Ġcamera":10836,",\"":10837,"mtime":10838,"Ġexpiry":10839,"suppress":10840,"Ġsibling":10841,"ĠResultSet":10842,"Ġma":10843,"Ġoct":10844,"ĠMetrics":10845,"Contains":10846,"Ġioe":10847,"ĠSalt":10848,"ĠDefinition":10849,"Ġterminate":10850,"ĠsetMax":10851,"ĠMD":10852,"Ġbasis":10853,"routes":10854,"axes":10855,"ĠProdu":10856,"ONLY":10857,"ĠUsage":10858,"ĠsetHeader":10859,"Ġfollowed":10860,"Ġtriggered":10861,"Envelope":10862,"disk":10863,"Ġdialect":10864,"yml":10865,"oval":10866,"Varint":10867,"Registered":10868,"etimes":10869,"Inline":10870,"ĠaddColumn":10871,"vl":10872,"ĠApiException":10873,"Restore":10874,"MAC":10875,"Sy":10876,"Ġalphabet":10877,"Ġpragma":10878,"........":10879,"chat":10880,"ĠpushFollow":10881,"erical":10882,"Ġintercept":10883,"PASS":10884,"SCRIPT":10885,"ĠImplement":10886,"Cir":10887,"ĠAF":10888,"Dealer":10889,"Ġopening":10890,"dependent":10891,"Ġpdb":10892,"Ġmarshal":10893,"Ġnewly":10894,"ĠDrop":10895,"rome":10896,"ĠIE":10897,"ĠhttpClient":10898,"Ġdeletion":10899,"Renders":10900,"ĠStatic":10901,"Ġquiet":10902,"anning":10903,"Ġdegrees":10904,"Dictionary":10905,"pressed":10906,"Digit":10907,"Example":10908,"Ġnick":10909,"losing":10910,"Ġrid":10911,"ĠZone":10912,"Ġnotes":10913,"ENSION":10914,"Ġsnap":10915,"Ġltrim":10916,"Ġlengths":10917,"ĠNotify":10918,"cursion":10919,"Ġtabs":10920,"Ġbt":10921,"ĠDef":10922,"foot":10923,"Closer":10924,"ĠgetEClassifiers":10925,"ĠserverName":10926,"confirm":10927,"Funcs":10928,"Ġincrease":10929,"Clone":10930,"ĠFileSystem":10931,"ĠisObject":10932,"tpl":10933,"Ġ07":10934,"Ġdepends":10935,"?\\":10936,"ĠBU":10937,"ĠGen":10938,"ĠSetup":10939,"Ġfm":10940,"Ġglobals":10941,"ĠnewNode":10942,"compatible":10943,"Ġng":10944,"utures":10945,"ĠgetBundle":10946,"Ġrstrip":10947,"rgb":10948,"Ġfk":10949,"ĠPER":10950,"-\"":10951,"Adjust":10952,"visions":10953,"Ġunserialize":10954,"configs":10955,"dm":10956,"Ġbelong":10957,"Extractor":10958,"ĠgetFormat":10959,"ĠMutable":10960,"Shutdown":10961,"Authority":10962,"ascade":10963,"DESC":10964,"Ġwidgets":10965,"Ġscipy":10966,"Texture":10967,"DeepCopy":10968,"Invoke":10969,"ture":10970,"Ġ\"*\"":10971,"ĠFLAG":10972,"ARG":10973,"Ġlarger":10974,"ssh":10975,"ELEMENT":10976,"rient":10977,"ĠGUI":10978,"Ġoptimize":10979,"ĠProgress":10980,"ĠProtobuf":10981,"Ġsit":10982,"star":10983,"ĠTitle":10984,"Locations":10985,"VR":10986,"ARGET":10987,"ccuracy":10988,"COLOR":10989,"inheritDoc":10990,"Ġexamples":10991,"obs":10992,"Ġmilliseconds":10993,"ĠFETCH":10994,"Ġshortcut":10995,"cancel":10996,"Force":10997,"Management":10998,"Ġexpects":10999,"Ġoverridden":11000,"criminator":11001,"Ġfeat":11002,"Ġneighbors":11003,"Ġmoodle":11004,"processed":11005,"Ġcaption":11006,"Ġdh":11007,"Codec":11008,"COLUMN":11009,"ĠPosition":11010,"ĠROOT":11011,"Ġcod":11012,"Ġbalance":11013,"Ġunwrap":11014,"Ġ2017":11015,"ĠWorker":11016,"Ġplane":11017,"readable":11018,"Ġsplits":11019,"ĠCons":11020,"ĠgetSite":11021,"Ġcontrols":11022,"mx":11023,"Positions":11024,"ĠGenerated":11025,"Ġguard":11026,"EST":11027,"ĠUPDATE":11028,"Ġsaf":11029,"Ġdiscovery":11030,"ĠgetV":11031,"CONNECT":11032,"Slash":11033,"ĠgetElementsByTagName":11034,"87":11035,"ĠgetPort":11036,"dependencies":11037,"Ġft":11038,"anizations":11039,"Ġstroke":11040,"keyword":11041,"raries":11042,"Ġeig":11043,"Ġrecovery":11044,"Maintenance":11045,"handlers":11046,"Modify":11047,"Observer":11048,"ĠPersistent":11049,"tributed":11050,"ĠCompare":11051,"digit":11052,"Ġheading":11053,"ĠExport":11054,"Ġcorner":11055,"ĠgetDescription":11056,"dst":11057,"Ġfaces":11058,"Ġpn":11059,"Ġshutil":11060,"ega":11061,"ĠgetOutput":11062,"Ġmemo":11063,"Ġ'{}":11064,"ĠTrack":11065,"Round":11066,"Sid":11067,"icient":11068,"ĠgetN":11069,"Ġjwt":11070,"Ġconsistent":11071,"Ġbehavi":11072,"matched":11073,"LAN":11074,"Wide":11075,"Ġhits":11076,"Ġorders":11077,"Ġarbitrary":11078,"Ġfine":11079,"ĠgetProject":11080,"Ġbelongs":11081,"Ġfacet":11082,"ĠIF":11083,"Ġstride":11084,"Ġinspects":11085,"Ġgrab":11086,"Ġfa":11087,"ĠgetSchema":11088,"cwd":11089,"Ġgather":11090,"mtp":11091,"Creating":11092,"Ġtracking":11093,"Ġboard":11094,"Caller":11095,"Ġcalculation":11096,"ĠOperator":11097,"Resolution":11098,"Ġfclose":11099,"compile":11100,"ENTITY":11101,"DAT":11102,"ĠWidget":11103,"parsers":11104,"ĠgetLong":11105,"chant":11106,"Ports":11107,"Ġestimate":11108,"Ġdatasets":11109,"errer":11110,"vention":11111,"ĠEXT":11112,"anagers":11113,"ĠPacket":11114,"ĠServe":11115,"cestors":11116,"ĠYAML":11117,"Subscriber":11118,"antics":11119,"ificant":11120,"Ġprot":11121,"REMO":11122,"ĠandWhere":11123,"Preview":11124,"****************************************************************":11125,"FILTER":11126,"gateway":11127,"ĠCODE":11128,"SK":11129,"TP":11130,"ĠCK":11131,"ĠMPS":11132,"SCRIPTION":11133,"ĠLat":11134,"ĠfindAll":11135,"Ġcmap":11136,"Facet":11137,"ĠclassLoader":11138,"Ġconditional":11139,"Ġded":11140,"/$":11141,"oz":11142,"Ġ\"\\\"\"":11143,"ĠoldValue":11144,"marker":11145,"*.":11146,"ĠOrig":11147,"Ġpeak":11148,"82":11149,"Ġsg":11150,"Ġpiece":11151,"Ġavg":11152,"ĠgetNamespace":11153,"LICATION":11154,"MLElement":11155,"Ġthumb":11156,"ueprint":11157,"Ġdeleg":11158,"ĠgetMetadata":11159,"initialize":11160,"Ġener":11161,"calculate":11162,"ches":11163,"Ġdefines":11164,"ĠgetDo":11165,"neighb":11166,"logging":11167,"generated":11168,"vnd":11169,"ĠaddContent":11170,"snapshot":11171,"Ġdatatype":11172,"mis":11173,"Ġmg":11174,"ĠFailed":11175,"Ġitr":11176,"Containers":11177,"ĠNewReader":11178,"magic":11179,"93":11180,"osed":11181,"lee":11182,"ĠtoBlocking":11183,"ĠCraft":11184,"subscription":11185,"SPONSE":11186,"ĠgetNum":11187,"ĠgetDb":11188,",'":11189,"ĠInstant":11190,"Ġvarious":11191,"NORE":11192,"Ġindicating":11193,"Broker":11194,"ĠsetTime":11195,"Ġcoverage":11196,"ĠRestore":11197,"oinspection":11198,"Ġperforms":11199,"ĠCap":11200,"Ġ22":11201,"Ġunders":11202,"Starts":11203,"Ġtopics":11204,"ĠFilesystem":11205,"ĠNotImplementedError":11206,"Configure":11207,"Signal":11208,"Ġpopulation":11209,"MSG":11210,"Ġduplicates":11211,"71":11212,"browser":11213,"etter":11214,"ĠjQuery":11215,"ĠeventType":11216,"ĠPerform":11217,"Ġbank":11218,"PAGE":11219,"entially":11220,"ĠgetForm":11221,"irmed":11222,"black":11223,"OutOf":11224,"ĠfullPath":11225,"ROW":11226,"Pe":11227,"ĠCmsException":11228,"amera":11229,"Ġ[{}":11230,"assert":11231,"Dum":11232,"ĠisFunction":11233,"Ġusually":11234,"iterals":11235,"EDEFAULT":11236,"ĠgetLabel":11237,"Completion":11238,"Ġcritical":11239,"Ġassertion":11240,"stderr":11241,"javascript":11242,"Ġprog":11243,"Requested":11244,"ORTED":11245,"tw":11246,"Ġproceed":11247,"hide":11248,"FROM":11249,"ito":11250,"ĠgetModule":11251,"Ġshipping":11252,"eq":11253,"sr":11254,"define":11255,"iring":11256,"Parsed":11257,"Marshaler":11258,"ĠValueOf":11259,"SIGN":11260,"GL":11261,"Ġsz":11262,"ĠgetDatabase":11263,"Pkg":11264,"indexes":11265,"Actual":11266,"Ġtimestamps":11267,"Patterns":11268,"Confirm":11269,"Ġfacade":11270,"OFFSET":11271,"Ġ);":11272,"Ġzz":11273,"Ġexecuting":11274,"pended":11275,"umulative":11276,"NA":11277,"urer":11278,"Ġ'>":11279,"Annot":11280,"ĠSVG":11281,"radius":11282,"Ġforum":11283,"velopment":11284,"ĠNewErrParamMinLen":11285,"Kernel":11286,"separator":11287,"ĠHelp":11288,"ĠAttr":11289,"94":11290,"posure":11291,"Fleet":11292,"MARY":11293,"`'":11294,"Ġglog":11295,"nets":11296,"Ġmanual":11297,"ĠInvocation":11298,"impl":11299,"FACE":11300,"Ġintegr":11301,"BUFFER":11302,"Ġ$_":11303,"hat":11304,"utype":11305,"ountries":11306,"Ġpref":11307,"ĠImportError":11308,"Cach":11309,"Ġmot":11310,"ĠLength":11311,"ĠgetMeta":11312,"ĠUsername":11313,"ihood":11314,"Ġfew":11315,"Ġiterations":11316,"hint":11317,"elihood":11318,"Ġrealm":11319,"ĠPayload":11320,"ĠTrigger":11321,"ĠDecimal":11322,"Receive":11323,"Basket":11324,"EK":11325,"Sink":11326,"ĠPK":11327,"Comb":11328,"ĠXXX":11329,"flush":11330,"Ġprobability":11331,"Ġincorrect":11332,"Unavailable":11333,"Ġprivile":11334,"Ġreplication":11335,"Terminal":11336,"ĠqueryString":11337,"Scanner":11338,"ufficient":11339,"ĠgetHeaders":11340,"Ġjavascript":11341,"ĠEdge":11342,"RGB":11343,"jector":11344,"******":11345,"Ġfiltering":11346,"ĠHandlerFunc":11347,"walk":11348,"aged":11349,"places":11350,"foo":11351,"ĠExternal":11352,"Flash":11353,"Invok":11354,"CHEMA":11355,"INSERT":11356,"ĠProfile":11357,"targets":11358,"oi":11359,"Ġcompound":11360,"Ġconcatenate":11361,"ĠgetTag":11362,"ĠWorkflow":11363,"Ġvolumes":11364,"priv":11365,"imals":11366,"ERS":11367,"NAMESPACE":11368,"verbose":11369,"ĠRound":11370,"Ġsuite":11371,"Mag":11372,"iro":11373,"Ġti":11374,"Ġsus":11375,"Ġthough":11376,"URATION":11377,"ĠNewRequest":11378,"ĠisLoggable":11379,"ĠbindValue":11380,"ĠGateway":11381,"ILD":11382,"Ġdetermined":11383,"Ġascii":11384,"ĠACTION":11385,"LES":11386,"Ġyears":11387,"nostic":11388,"PAY":11389,"poration":11390,"ĠINTER":11391,"Ġseveral":11392,"Ġcaching":11393,"ellow":11394,"RESOURCE":11395,"Ġopcode":11396,"helpers":11397,"ĠgetPrimary":11398,"Ġgid":11399,"Ġbam":11400,"Ġunmarshal":11401,"Ġproduce":11402,"BLOCK":11403,"Ġgv":11404,"ĠSP":11405,"Phase":11406,"uation":11407,"Ġbundles":11408,"TTL":11409,"sq":11410,"apps":11411,"Dao":11412,"Ġreplacements":11413,"inx":11414,"Mon":11415,"Exceptions":11416,"ĠConstructor":11417,"Ġrng":11418,"Ġzap":11419,"requests":11420,"\\''":11421,"activ":11422,"Ġgenes":11423,"Ġselectors":11424,"Packages":11425,"Ġseverity":11426,"OnError":11427,"Ġtexture":11428,"Remaining":11429,"Ġ\";\"":11430,"Ġnearest":11431,"ĠKeys":11432,"Mutex":11433,"ĠcompilationContext":11434,"ĠToLower":11435,"ĠIterate":11436,"OPEN":11437,"%%":11438,"blog":11439,"ĠsetC":11440,"arp":11441,"extmethods":11442,"ĠPUT":11443,"Ġextmethods":11444,"Ġbuffered":11445,"DynClass":11446,"cpu":11447,"Ġeffective":11448,"Needed":11449,"Bracket":11450,"svg":11451,"Callable":11452,"eto":11453,"Checked":11454,"anger":11455,"Extended":11456,"ĠDATE":11457,"Ġcompose":11458,"Initialized":11459,"Ġattribs":11460,"attachment":11461,"alive":11462,"Ġending":11463,"ĠSTACK":11464,"ILLI":11465,"ĠparamName":11466,"OAuth":11467,"ĠWrapf":11468,"completion":11469,"Ġspecifies":11470,"UTC":11471,"ĠNS":11472,"ĠDr":11473,"ĠSample":11474,"argest":11475,"Integr":11476,"bam":11477,"ĠgetTask":11478,"ĠeDataType":11479,"article":11480,"ĠapiClient":11481,"packet":11482,"Ġbranches":11483,"ĠSpl":11484,"ĠCPDefinition":11485,"ĠStats":11486,"ĠVari":11487,"hist":11488,"ANN":11489,"Aggregate":11490,"Ġtrees":11491,"Ġ204":11492,"ĠclientId":11493,"Bas":11494,"annotation":11495,"omial":11496,"Zoom":11497,"Ġcriterion":11498,"Ġrelationships":11499,"rank":11500,"uj":11501,"Ġrecurse":11502,"pick":11503,"conc":11504,"Ġsignals":11505,"ĠgetPackage":11506,"ĠnodeId":11507,"Surface":11508,"audio":11509,"ĠRGB":11510,"ĠSets":11511,"overflow":11512,"ĠLogicException":11513,"ĠTransform":11514,"previous":11515,"statement":11516,"ĠSyntax":11517,"Ġexported":11518,"ĠTransformer":11519,"Ġemitter":11520,"inalg":11521,"Ġmacro":11522,"Keep":11523,"Takes":11524,"ĠhasMore":11525,"Ġaren":11526,"Ġurllib":11527,"Ġreporter":11528,"RC":11529,"ĠSORT":11530,"Ġraised":11531,"Plot":11532,"Ġdeserial":11533,"sembly":11534,"Alignment":11535,"Ġpkt":11536,"Ġwebsocket":11537,"CODING":11538,"ERT":11539,"Git":11540,"itted":11541,"ĠMail":11542,"ĠgetServer":11543,"Ġmodification":11544,"pairs":11545,"Pipe":11546,"ira":11547,"Recovery":11548,"ĠPAGE":11549,"ĠOUTPUT":11550,"ĠFake":11551,"ĠDispatch":11552,"ĠAtomic":11553,"Cat":11554,"Ġpreference":11555,"gre":11556,"ydr":11557,"Ġsampling":11558,"ĠByteArrayOutputStream":11559,"character":11560,"Ġverbosity":11561,"Ġnic":11562,"chart":11563,"Ġdelimit":11564,"forward":11565,"Ġmaint":11566,"ĠLittleEndian":11567,"ipment":11568,"choice":11569,"igrate":11570,"green":11571,"Ġelt":11572,"ĠPerson":11573,"shared":11574,"PrimaryKey":11575,"ĠFFDCFilter":11576,"associate":11577,"Ġwf":11578,"ĠDAY":11579,"amil":11580,"ORIZ":11581,"ĠparentId":11582,"ĠattrName":11583,"ĠfetchBy":11584,"typed":11585,"Ġremember":11586,"Ġinvalidate":11587,"hosts":11588,"nav":11589,"Ġfold":11590,"Ġlisting":11591,"ĠLists":11592,"dif":11593,"Ġtid":11594,"ĠforName":11595,"ĠJsonObject":11596,"Ġ'..":11597,"Ġwhy":11598,"preter":11599,"Characters":11600,"partial":11601,"DNS":11602,"lings":11603,"ĠisS":11604,"Anchor":11605,"ainter":11606,"ANS":11607,"ELDS":11608,"SECONDS":11609,"ĠisTraceOn":11610,"nr":11611,"eral":11612,"=\"%":11613,"cir":11614,"Ġthrott":11615,"ATTRIBUTE":11616,"ahead":11617,"Ġrl":11618,"ĠgroupName":11619,"Submit":11620,"ĠNotNull":11621,"Ġpercentage":11622,"Ġvisual":11623,"ĠFlush":11624,"FACT":11625,"relative":11626,"Overlay":11627,"raise":11628,"Ġpathinfo":11629,"Ġsubs":11630,"Ġ300":11631,"Ġvalidators":11632,"}'\"":11633,"sTo":11634,"Cop":11635,"mq":11636,"ĠUsing":11637,"pring":11638,"fac":11639,"Ġphysical":11640,"Finish":11641,"ĠAddGenerated":11642,"Ġinitializes":11643,"Define":11644,"maries":11645,"Ġearly":11646,"Rpc":11647,"heel":11648,"Ġdetection":11649,"calendar":11650,"ĠmetaData":11651,"iny":11652,"ĠnewArray":11653,"Ġks":11654,"ĠisFile":11655,"Ġpasses":11656,"sections":11657,"visit":11658,"ĠHEADER":11659,"posts":11660,"SecurityGroup":11661,"destroy":11662,"Ġoutbound":11663,"001":11664,"Question":11665,"MethodName":11666,"Feat":11667,"Ġpurge":11668,"ĠAddGeneratedConversionFunc":11669,"Restriction":11670,"ĠWOR":11671,"ĠBefore":11672,"Terms":11673,"ĠgetRecord":11674,"Ġauthority":11675,"Ġdsn":11676,"WRITE":11677,"ĠDig":11678,"NV":11679,"Ġtgt":11680,"Ġdic":11681,"Ġmixin":11682,"Violation":11683,"Ġhc":11684,"Temporary":11685,"CLU":11686,"credentials":11687,"Exchange":11688,"ĠADD":11689,"Ġnotice":11690,"ĠContentType":11691,"ĠFull":11692,"lips":11693,"ANGUL":11694,"ĠLif":11695,"ĠisNaN":11696,"mouse":11697,"ToArray":11698,"ovy":11699,"Prefixes":11700,"FORE":11701,"TERNAL":11702,"ĠSelector":11703,"MASK":11704,"ĠHO":11705,"00000":11706,"USTOM":11707,"ĠStderr":11708,"Ġblacklist":11709,"Two":11710,"existing":11711,"MAND":11712,"PARE":11713,"ĠRol":11714,"Starting":11715,"ĠPIPE":11716,"RuleCall":11717,"tar":11718,"Altern":11719,"Ġfailures":11720,"variance":11721,"Ġpause":11722,"ibration":11723,"Commerce":11724,"forum":11725,"ĠSU":11726,"ftp":11727,"Drag":11728,"Mis":11729,"asing":11730,"TypeId":11731,"Ġimmutable":11732,"Ġtwig":11733,"vt":11734,"Ġslave":11735,"ĠBackend":11736,"eres":11737,"ĠAD":11738,"Sorted":11739,"Ġgetenv":11740,"ĠMODE":11741,"ĠaddField":11742,"pixel":11743,"ĠLogin":11744,"ĠHealth":11745,"404":11746,"Ġ\"|":11747,"ned":11748,"OptionalParameter":11749,"Cnt":11750,"ĠgetGroup":11751,"Ġtriggers":11752,"OLDER":11753,"Ġmarkers":11754,"Ġaddrs":11755,"ĠCompletableFuture":11756,"mime":11757,"ĠConfigure":11758,"Ġangular":11759,"}`":11760,"ĠContainerBuilder":11761,"ĠAzure":11762,"ople":11763,"attempt":11764,"Play":11765,"plorer":11766,"ticks":11767,"ĠASCII":11768,"Ġhack":11769,"ĠPR":11770,"keywords":11771,"Ġflux":11772,"Ġstrong":11773,"ICE":11774,"ulator":11775,"produ":11776,"called":11777,"LU":11778,"Ġpress":11779,"icated":11780,"ATIC":11781,"ĠCalled":11782,"Ġinplace":11783,"Ġcreator":11784,"FileSystem":11785,"NECTION":11786,"Polygon":11787,"Ġprofiles":11788,"ĠTopic":11789,"Material":11790,"Ġmandatory":11791,"resolved":11792,"MATCH":11793,"ĠĠĠĠĠĠĠĠĠĠĠĠĠĠĠĠĠĠĠĠĠĠĠĠĠĠĠĠ":11794,"Ġdeliver":11795,"Insn":11796,"enus":11797,"alert":11798,"ulated":11799,"ĠcurrentThread":11800,"arbon":11801,"isode":11802,"Ġmanagement":11803,"warded":11804,"Ġverification":11805,"UTO":11806,"ĠLT":11807,"dimension":11808,"ĠAut":11809,"ĠPlatform":11810,"Steps":11811,"Ġreconnect":11812,"ĠentityManager":11813,"Ġlab":11814,"prot":11815,"Ġslow":11816,"Ġ'!":11817,"Ġlinalg":11818,"ĠgetClassName":11819,"ĠIssue":11820,"la":11821,"responses":11822,"Php":11823,"Face":11824,"Ġdashboard":11825,"Duplicate":11826,"Ġreuse":11827,"arc":11828,"ĠNONE":11829,"ĠBootstrap":11830,"Between":11831,"Ġcheckbox":11832,"Ġjump":11833,"ĠapiKey":11834,"ĠgetRow":11835,"ĠUS":11836,"ĠinitialValue":11837,"EXIST":11838,"}]":11839,"Press":11840,"Ġary":11841,"Ġfindall":11842,"Ġ\\\"\"":11843,"ITER":11844,"Ġrectangle":11845,"OLD":11846,"RIGHT":11847,"cart":11848,"Ġ###":11849,"Ġstartup":11850,"INGLE":11851,"Dead":11852,"ufact":11853,"Ġserialization":11854,"exceptions":11855,"ĠBackup":11856,"gene":11857,"pp":11858,"ĠgetFrom":11859,"ivileged":11860,"81":11861,"bins":11862,"Ġlease":11863,"Utilities":11864,"ĠgetApi":11865,"()'":11866,"oa":11867,"ĠdoubleValue":11868,"ktop":11869,"Scheduler":11870,"Ġpix":11871,"webpack":11872,"ĠAlias":11873,"Ġ'$'":11874,"Ġextras":11875,"Ġrejected":11876,"ereg":11877,"DateFormat":11878,"Disable":11879,"decor":11880,"ĠGets":11881,"Ġmaked":11882,"Ġ\"}\"":11883,"ecause":11884,"Dial":11885,"ua":11886,"oole":11887,"ĠaddEventListener":11888,"ĠForce":11889,"uint":11890,"Ġhub":11891,"Ġqueryset":11892,"Ġdescribed":11893,"filer":11894,"HttpClient":11895,"ĠprivateKey":11896,"Ġqueues":11897,"btn":11898,"Ġportal":11899,"ĠIllegalAccessException":11900,"Sym":11901,"ĠgetBlock":11902,"quared":11903,"reads":11904,"ĠJavaScript":11905,"Persistent":11906,"ĠFileInputStream":11907,"crease":11908,"AAAA":11909,"Candidate":11910,"Consum":11911,"Ġsubscriptions":11912,"Servers":11913,"sizes":11914,"Ġtooltip":11915,"ĠLDAP":11916,"Ġplaintext":11917,"Discovery":11918,"ĠOPEN":11919,"Ġctype":11920,"ĠCert":11921,"ĠNODE":11922,"Sizes":11923,"SetName":11924,"Known":11925,"must":11926,"ĠlocalName":11927,"CRY":11928,"\"]":11929,"jar":11930,"Ack":11931,"Ġensures":11932,"Ġextent":11933,"Ġmutation":11934,"CLIENT":11935,"Narrow":11936,"choices":11937,"pu":11938,"za":11939,"ĠgetTimestamp":11940,"Boundary":11941,"Ġhandshake":11942,"Ġcoeff":11943,"SEC":11944,"Abbreviated":11945,"vict":11946,"Ġfwrite":11947,"Modifiers":11948,"RuntimeException":11949,"ĠgetArgument":11950,"ĠPublicKey":11951,"hta":11952,"Propag":11953,"Ġvlan":11954,"Ġclaims":11955,"fragment":11956,"Ġsmooth":11957,"ĠSuccess":11958,"ĠgetDeclared":11959,"ĠgetActive":11960,"qq":11961,"formats":11962,"ĠSIZE":11963,"Ġvalidates":11964,"FAILED":11965,"fw":11966,"constraints":11967,"Ġtablet":11968,"vlan":11969,"ITLE":11970,"ĠgetSc":11971,"Ġ\"`":11972,"ĠgetOrder":11973,"Stub":11974,"Ġsplitext":11975,"TTER":11976,"Ġallocated":11977,"omation":11978,"ĠgetSe":11979,"ĠREG":11980,"Ġlowest":11981,"syn":11982,"Instruction":11983,"999":11984,"Typed":11985,"ENV":11986,"ming":11987,"Expect":11988,"Ġalg":11989,"getter":11990,"Ġscr":11991,"Ġblk":11992,"ĠDependency":11993,"Uid":11994,"FileInfo":11995,"ĠgetTableName":11996,"Ġexecutes":11997,"LLABLE":11998,"wik":11999,"sem":12000,"Ġseems":12001,"ounded":12002,"Vault":12003,"ĠResponseInterface":12004,"Ġbias":12005,"ĠgetCan":12006,"Delimiter":12007,"Ġapplicable":12008,"inspect":12009,"pods":12010,"Ġ]]":12011,"ErrorCode":12012,"\".'":12013,"ĠSM":12014,"epoch":12015,"contentobject":12016,"checkbox":12017,"Ġindentation":12018,"small":12019,"BoundsException":12020,"Sender":12021,"ĠPayment":12022,"Ġreadline":12023,"Multipart":12024,"Lambda":12025,"ĠMachine":12026,"QUO":12027,"Expiration":12028,"osa":12029,"REST":12030,"Ġetree":12031,"ĠSignal":12032,"scroll":12033,"Ġassumed":12034,"Quantity":12035,"poral":12036,"Ġpandas":12037,"ĠSK":12038,"Injection":12039,"Ġintegration":12040,"Der":12041,"ĠPatch":12042,"ATTR":12043,"Ġshouldn":12044,"Ġrecipients":12045,"ĠOrganization":12046,"ĠisEnabled":12047,"ĠAC":12048,"Ġrsp":12049,"LT":12050,"ĠapiVersion":12051,"ĠmodelName":12052,"Appro":12053,"MatchSet":12054,"anent":12055,"ĠOpt":12056,"ĠSIGN":12057,"Ġ&=":12058,"Ġdatum":12059,"Ġexclusive":12060,"Writable":12061,"My":12062,"Ġfaster":12063,"ĠarrayNode":12064,"ĠuserName":12065,"ReadOnly":12066,"eras":12067,"ĠAssertionError":12068,"LD":12069,"leaf":12070,"filtered":12071,"ĠOrderBy":12072,"Inspect":12073,"Hierarchy":12074,"ĠgetCollection":12075,"ynamo":12076,"Spaces":12077,"Ġinherited":12078,"ĠerrorCode":12079,"ĠCharset":12080,"Detect":12081,"ĠSYLLABLE":12082,"library":12083,"Ġ'//":12084,"ĠpublicKey":12085,"aussian":12086,"ĠaddListener":12087,"Ġidle":12088,"Aggregation":12089,"ĠCHAR":12090,"hour":12091,"Ġsib":12092,"ĠAssign":12093,"Ġradi":12094,"levels":12095,"IFY":12096,"ims":12097,"Ġsuperclass":12098,"Quart":12099,"ĠNumberFormatException":12100,"ValidationError":12101,"preview":12102,"warnings":12103,"chase":12104,"Intent":12105,"Ġprometheus":12106,"else":12107,"ĠFOR":12108,"ĠUsers":12109,"Ġintermediate":12110,"blank":12111,"ĠLayer":12112,"prise":12113,"Ġjoined":12114,"Ġfingerprint":12115,"Ġgrouping":12116,"Ġobserved":12117,"guide":12118,"Ġrtn":12119,"PED":12120,"Wildcard":12121,"Ġshop":12122,".\"\"\"":12123,"ba":12124,"fun":12125,"Ġthird":12126,"Ġpalette":12127,"Light":12128,"ĠSpan":12129,"SSE":12130,"Ġprocedure":12131,"ĠSubscription":12132,"totime":12133,"PLACE":12134,"VED":12135,"Comm":12136,"Ġdiscount":12137,"elis":12138,"ĠFix":12139,"Producer":12140,"Ġpem":12141,"Ġdensity":12142,"eleton":12143,"OKIE":12144,"VIEW":12145,"Ġ-----------------":12146,"ĠaddSelect":12147,"Player":12148,"Printer":12149,"Ġplaceholders":12150,"Ġmakedirs":12151,"Ġing":12152,"ĠmethodBuilder":12153,"ĠCPU":12154,"Ġnotation":12155,"Ġolder":12156,"ĠEJB":12157,"ĠHeaders":12158,"abric":12159,"perm":12160,"imap":12161,"ansion":12162,"Ġlongest":12163,"mbolic":12164,"Ġapplications":12165,"ĠOBJECT":12166,"Ġ[[":12167,"ĠresultSet":12168,"Ġslots":12169,"Ġdataframe":12170,");\"":12171,"Hosts":12172,"readcrumb":12173,"*\\":12174,"Ġserve":12175,"Ġ``":12176,"ĠWhere":12177,"Pin":12178,"fire":12179,"sites":12180,"Ġ----------":12181,"Resize":12182,"Formal":12183,"Ġalternate":12184,"RT":12185,"Ġfresh":12186,"{{":12187,"Ġshown":12188,"ĠhttpRequest":12189,"LAT":12190,"ĠPY":12191,"STAMP":12192,"Special":12193,"MODULE":12194,"Illegal":12195,"NER":12196,"ĠretVal":12197,"until":12198,"obser":12199,"COMMENT":12200,"marshall":12201,"pres":12202,"ĠhtmlOptions":12203,"closed":12204,"TEMPLATE":12205,"ĠMediaType":12206,"hance":12207,"ĠDynamic":12208,"Ġsynchronous":12209,"peer":12210,"Ġasn":12211,"Once":12212,"Ġoperators":12213,"________":12214,"drools":12215,"illar":12216,"ĠSECON":12217,"authorization":12218,"ĠfilterBy":12219,"Ġconcrete":12220,"ĠpathTo":12221,"Responses":12222,"Ġxx":12223,"Bitmap":12224,"NN":12225,"Ġlr":12226,"Ġchron":12227,"rences":12228,"Ġauthorize":12229,"Ġcollected":12230,"PACK":12231,"lope":12232,"Translator":12233,"Ġqueued":12234,"Legacy":12235,"Pres":12236,"normalize":12237,"power":12238,"TTING":12239,"Levels":12240,"Activ":12241,"ByteBuffer":12242,"resp":12243,"Met":12244,"Ġroutine":12245,"Ġdraft":12246,"ĠconfigFile":12247,"aptcha":12248,"ACTION":12249,"OfWeek":12250,"failure":12251,"CUMENT":12252,"Que":12253,"unded":12254,"olation":12255,"Ġmeaning":12256,"Ġsuppress":12257,"azard":12258,"general":12259,"Ġbackoff":12260,"based":12261,"duplic":12262,"Ġepsilon":12263,"diag":12264,"Cli":12265,"hi":12266,"ĠgetFilter":12267,"ĠFaces":12268,"Arch":12269,"Ġcoerce":12270,"Expand":12271,"ĠCipher":12272,"ĠreadLine":12273,"Ġarrow":12274,"===":12275,"UserAgent":12276,"ĠtoList":12277,"ENTER":12278,"ĠTransfer":12279,"ENDING":12280,"ĠBound":12281,"ĠobjectName":12282,"Ġregard":12283,"Ġtau":12284,"Ġstrtotime":12285,"MEM":12286,"dirname":12287,"intersect":12288,"RESULT":12289,"ĠTimer":12290,"Ġapache":12291,"Ġ45":12292,"authentication":12293,"Signed":12294,"outputs":12295,"balance":12296,"Translations":12297,"contains":12298,"WHERE":12299,"Clients":12300,"Ġsplitlines":12301,"Ġxmlns":12302,"framework":12303,"Ġscaled":12304,"Fast":12305,"nom":12306,"vo":12307,"Ġsubtype":12308,"ĠPlural":12309,"MElement":12310,"redis":12311,"Ġdeclarations":12312,"Ġpreset":12313,"Ġxrange":12314,"Ġtransient":12315,"constructor":12316,"Ġappended":12317,"Ġupon":12318,"FAIL":12319,"expand":12320,"Ġintegers":12321,"Signing":12322,"ĠNotFoundException":12323,"ĠNeed":12324,"ĠwriteAttribute":12325,"Ġdivide":12326,"Ġqualifier":12327,"Live":12328,"ĠWeekday":12329,"erver":12330,"Ġ127":12331,"arbage":12332,"ja":12333,"rink":12334,"Ġreplica":12335,"notify":12336,"ĠpropertyValue":12337,"ĠPropel":12338,"expect":12339,"ĠINDArray":12340,"ewrite":12341,"ĠMag":12342,"bsite":12343,"fficients":12344,"QualifiedName":12345,"HAND":12346,"Ġri":12347,"DEFIN":12348,"Ġstops":12349,"Ġtrimmed":12350,"aits":12351,"locations":12352,"ĠgetInput":12353,"formatter":12354,"Fallback":12355,"angles":12356,"flip":12357,"ĠgetAtom":12358,"Ġcapabilities":12359,"Ġ360":12360,"ĠgetReal":12361,"ĠBufferedImage":12362,"Tail":12363,"ĠDAT":12364,"Ġonline":12365,"checks":12366,"ĠTrimSpace":12367,"OLEAN":12368,"]|":12369,"bg":12370,"InternalServerError":12371,"Capture":12372,"Maker":12373,"ĠgetExtension":12374,"Ġanalyze":12375,"geo":12376,"Preferences":12377,"Continue":12378,"linear":12379,"Ġvariance":12380,"dfs":12381,"Ġmodes":12382,"ĠShape":12383,"virtual":12384,"isor":12385,"Ġ';":12386,"ctype":12387,"positions":12388,"ĠGO":12389,"Ġslices":12390,"Ġaa":12391,"Ġsaving":12392,"Ġconsumed":12393,"Ġdw":12394,"ĠLabels":12395,"Ġ3600":12396,"Occur":12397,"cost":12398,"Attrib":12399,"Ġlowercase":12400,"enrol":12401,"Ġconcept":12402,"Ġcontrollers":12403,"Ġcome":12404,"Ġrequirement":12405,"built":12406,"seed":12407,"Ġwr":12408,"Ġfinalize":12409,"ĠXA":12410,"deploy":12411,"ĠerrMsg":12412,"ĠsendRequest":12413,"Ġcourseid":12414,"Ġanswers":12415,"91":12416,"FailedException":12417,"Ctrl":12418,"ĠOnce":12419,"Placement":12420,"ĠINTO":12421,"OPTIONS":12422,"Ġlp":12423,"ĠfullName":12424,"ĠINDEX":12425,"SERVICE":12426,"Else":12427,"Ġexceeded":12428,"fixed":12429,"Ġ`%":12430,"expires":12431,"Fs":12432,"Ġbeh":12433,"className":12434,"ĠGray":12435,"Ġargparse":12436,"*)":12437,"ĠSoft":12438,"Ġsolve":12439,"otos":12440,"Cond":12441,"Ġswagger":12442,"((":12443,"tcd":12444,"Ġfrac":12445,"ĠHttpServletResponse":12446,"Geo":12447,"calc":12448,"Ġproduction":12449,"Profiles":12450,"alone":12451,"Ġ\"(\"":12452,"ĠcreateIfc":12453,"Ġpseudo":12454,"Ġinfer":12455,"Ġpacked":12456,"Ġnom":12457,"HEAD":12458,"Ġmembership":12459,"adoop":12460,"Ġ2015":12461,"Elastic":12462,"icol":12463,"Ġmeasurement":12464,"Ġyes":12465,"ĠThat":12466,"Facade":12467,"Soft":12468,"ĠisPresent":12469,"Ġcircle":12470,"Ġviol":12471,"REGEX":12472,"ĠgetAction":12473,"Recursively":12474,"ĠsetRequest":12475,"scape":12476,"Effect":12477,"Pid":12478,"person":12479,"Ġstock":12480,"rowse":12481,"ĠVolt":12482,"500":12483,"ĠBut":12484,"~~~~":12485,"Ġlifetime":12486,"Poly":12487,"zzle":12488,"Ġchecker":12489,"Ġspin":12490,"Ġdistances":12491,"ĠREQUEST":12492,"Ġthus":12493,"Ġdv":12494,"threads":12495,"Game":12496,"undler":12497,"reduce":12498,"Ġmoving":12499,"uggestions":12500,"Ġvote":12501,"imator":12502,"Ġtagged":12503,"Ġwebsite":12504,"Ġpdo":12505,"devices":12506,"IX":12507,"ĠDi":12508,"Ġinstructions":12509,"peech":12510,"ĠPOS":12511,"Ensure":12512,"TreeNode":12513,"ancy":12514,"Ġfork":12515,"Ġgenerating":12516,"Ġnor":12517,"Ġanalys":12518,"Ġke":12519,"ĠAre":12520,"Swap":12521,"Ġcertificates":12522,"Ġscoped":12523,"specific":12524,"UAGE":12525,"ĠJust":12526,"mysql":12527,"Ġ{\"":12528,"Ġidentical":12529,"Ġfault":12530,"Ġelm":12531,"Ġsay":12532,"Ġrepeated":12533,"Ġcreds":12534,"Ġcaches":12535,"BA":12536,"defs":12537,"ĠfileInfo":12538,"Ġprinter":12539,"ĠPlan":12540,"ĠVertex":12541,"timer":12542,"Ġmiss":12543,"icast":12544,"ponds":12545,"ttl":12546,"absolute":12547,"ĠsetParent":12548,"phem":12549,"calls":12550,"ingleton":12551,"Ġshuffle":12552,"Ġraster":12553,"iline":12554,"Ġbackward":12555,"rientation":12556,"WH":12557,"Ġdash":12558,"SSH":12559,"Ġspawn":12560,"Ġbecome":12561,"Ġinitializer":12562,"dated":12563,"YLE":12564,"ership":12565,"ĠdefaultCase":12566,"books":12567,"Ġtiles":12568,"ĠButton":12569,"Colors":12570,"feedback":12571,"ĠstartDate":12572,"radient":12573,"Ġpaint":12574,"ensors":12575,"Ġplaces":12576,"ĠCONTENT":12577,"ROP":12578,"inesis":12579,"General":12580,"wares":12581,"aystack":12582,"paring":12583,"ĠINIT":12584,"maj":12585,"decimal":12586,"UD":12587,"uals":12588,"ĠsetCurrent":12589,"({":12590,"ĠScale":12591,"MethodCall":12592,"Ġcapability":12593,"Detector":12594,"Ġmimetype":12595,"ĠVI":12596,"Ġstructures":12597,"ĠPartition":12598,"Nav":12599,"erate":12600,"ToMany":12601,"Ġpara":12602,"Ġcorrelation":12603,"emes":12604,"ĠCase":12605,"parents":12606,"Ġplacement":12607,"Ġproducer":12608,"ISO":12609,"erc":12610,"Ġgate":12611,"ĠgetFields":12612,"Ġintended":12613,"published":12614,"BIN":12615,"Nil":12616,"eless":12617,"ĠFac":12618,"Ġ10000":12619,"ĠScheduler":12620,"Ġqname":12621,"Ġck":12622,"ĠFolder":12623,"Formation":12624,"Ġinteractive":12625,"Ġinsertion":12626,"Company":12627,"descriptor":12628,"Ġmol":12629,"scores":12630,"ĠKub":12631,"ĠOpenLayers":12632,"manage":12633,"ĠgetArray":12634,"Ġindexer":12635,"Ġopacity":12636,"ĠruleXExpression":12637,"Ġboundingbox":12638,"Ġ%.":12639,"Ġpackets":12640,"competency":12641,"Tracking":12642,"Written":12643,"Ġmedian":12644,"coin":12645,"})\"":12646,"Ġminus":12647,"00000000":12648,"Ra":12649,"Reverse":12650,"ĠRULE":12651,"ĠTim":12652,"ĠRESOURCE":12653,"ĠgetNew":12654,"verity":12655,"Docs":12656,"Ġciphertext":12657,"EXCEPTION":12658,"Ġ2016":12659,"rices":12660,"Ġfx":12661,"Ġlng":12662,"ĠentityClass":12663,"Af":12664,"ĠentityType":12665,"ĠCOUNT":12666,"ĠPDF":12667,"Scopes":12668,"FILES":12669,"Ġhs":12670,"Ġ']":12671,"ĠInclude":12672,"uding":12673,"ITEM":12674,"Ġordinal":12675,"IABLE":12676,"Ġqr":12677,"flib":12678,"Ġpager":12679,"Ġ'::'":12680,"ĠPolygon":12681,"isions":12682,"FIELDS":12683,"submission":12684,"ĠResponseBody":12685,"runt":12686,"license":12687,"pur":12688,"Exclude":12689,"timezone":12690,"\"\\":12691,"BS":12692,"MARK":12693,"ĠTw":12694,"Ġlibkb":12695,"ĠautoConvert":12696,"Ġevaluated":12697,"ĠPeriod":12698,"Paint":12699,"Ġobtained":12700,"Ġslide":12701,"Seed":12702,"Rollback":12703,"Ġuncom":12704,"Descriptors":12705,"EOF":12706,"ĠRecursive":12707,"possible":12708,"ĠlastModified":12709,"Ġprintf":12710,"DOWN":12711,"Sys":12712,"Ġestabl":12713,"Draft":12714,"repr":12715,"around":12716,"edis":12717,"Ġaccessible":12718,"Audio":12719,"Ġlittle":12720,"Ġobjs":12721,"bootstrap":12722,"Ġbson":12723,"Ġbecomes":12724,"Ġbyref":12725,"Arrays":12726,"Ġbackwards":12727,"PM":12728,"best":12729,"dialog":12730,"Ġcob":12731,"Ġ27":12732,"ĠCoordinate":12733,"ĠTRACE":12734,"Ġlogout":12735,"ĠgetCustom":12736,"Ġmarkdown":12737,"ĠSwap":12738,"Ġey":12739,"ĠMain":12740,"ĠBlob":12741,"DBCluster":12742,"algorithm":12743,"ĠZero":12744,"Identifiers":12745,"analysis":12746,"ĠVal":12747,"Ġtoolbar":12748,"fname":12749,"Ġpreferences":12750,"ĠGPB":12751,"band":12752,"ĠindexName":12753,"Ġfb":12754,"Ġmess":12755,"Ġlargest":12756,"listener":12757,"ĠClone":12758,"ĠATTR":12759,"ocomplete":12760,"rich":12761,"ĠgetDefinition":12762,"OrEmpty":12763,"Ġsense":12764,"ToRemove":12765,"ĠHeight":12766,"Ġads":12767,"Limits":12768,"Ġadjac":12769,"Ġchanging":12770,"Persist":12771,"INI":12772,"Ġsubtree":12773,"foreign":12774,"IPv":12775,"Ġsolver":12776,"Ġperiods":12777,"SUCCESS":12778,"Ġeasy":12779,"calcul":12780,"ĠExceptions":12781,"Ġasyncio":12782,"Ġschemas":12783,"which":12784,"Ġsubstitution":12785,"ĠTHE":12786,"ĠremoveAll":12787,"Ġutility":12788,"Ġinp":12789,"ĠAUTH":12790,"Ġspans":12791,"Ġfour":12792,"Resolved":12793,"andidates":12794,"Complex":12795,"EXTENSION":12796,"Ġcity":12797,"Ġbtc":12798,"toa":12799,"^^":12800,"ĠLambda":12801,"Ġvc":12802,"Analyzer":12803,"Img":12804,"ĠLazy":12805,"ĠDataSource":12806,"Ġfetched":12807,"Ġsnapshots":12808,"Extracts":12809,"Ġfrozen":12810,"Ġhot":12811,"Phrase":12812,"ajax":12813,"Ġsal":12814,"ĠMAP":12815,"ĠDeferred":12816,"ĠfetchAll":12817,"Translate":12818,"ĠTypeOf":12819,"ĠrelativePath":12820,"CN":12821,"ĠgetPre":12822,"ĠDescriptor":12823,"nonce":12824,"caled":12825,"ĠServices":12826,"scripts":12827,"ĠSERVICE":12828,"Ġprefixed":12829,"ĠAlloc":12830,"ĠgetTotal":12831,"ĠModifier":12832,"Ġstreaming":12833,"Secure":12834,"ĠgetBoolean":12835,"Ġreaction":12836,"Ġmi":12837,"segments":12838,"entral":12839,"ĠUnexpectedValueException":12840,"ĠgetIfc":12841,"Ġstand":12842,"Ġtemperature":12843,"CW":12844,"MULT":12845,"typ":12846,"stub":12847,"ĠAc":12848,"throw":12849,"Ġenqueue":12850,"Ġinterpolation":12851,"Ġibm":12852,"EQUAL":12853,"olo":12854,"Ġpublisher":12855,"ĠgetCommand":12856,"aily":12857,"Daemon":12858,"roovy":12859,"Ġmechanism":12860,"Filesystem":12861,"}/{":12862,"}</":12863,"ĠAttempt":12864,"ete":12865,"urname":12866,"ĠSS":12867,"Mapped":12868,"stage":12869,"ĠwriteTo":12870,"Ġ'./":12871,"Ġcapital":12872,"relationship":12873,"Histogram":12874,"ĠSIMP":12875,"Ġroots":12876,"slash":12877,"Ġreplaces":12878,"readcrumbs":12879,"<?":12880,"Ġrewind":12881,"Ġfunct":12882,"Ġmn":12883,"Ġoutcome":12884,"but":12885,"Ġbasket":12886,"ĠNEW":12887,"ĠsetEnabled":12888,"Ġlisted":12889,"program":12890,"Ġspecies":12891,"cannot":12892,"Cr":12893,"olved":12894,"ĠPhone":12895,"Ġcredit":12896,"Ġsucceed":12897,"ĠgetLanguage":12898,"Ġ29":12899,"ĠĠĠĠĠĠĠĠĠĠĠĠĠĠĠĠĠĠĠĠĠĠĠĠĠ":12900,"ĠNE":12901,"Ġoutgoing":12902,"notes":12903,"DEF":12904,"specimen":12905,"cores":12906,"\\-":12907,"appro":12908,"ĠDMatrix":12909,"coll":12910,"$\"":12911,"Languages":12912,"ĠPan":12913,"ErrorResponse":12914,"ĠRES":12915,"recognized":12916,"NEW":12917,"RF":12918,"INIT":12919,"ĠJvm":12920,"ĠcontentObject":12921,"Documents":12922,"Ġheartbeat":12923,"specialchars":12924,"Rank":12925,"qs":12926,"inel":12927,"Ġtried":12928,"Ġenergy":12929,"ctl":12930,"Ġml":12931,"ĠgetCause":12932,"Ġbroken":12933,"ĠnumRows":12934,"Ġvariants":12935,"123":12936,"Ġcircuit":12937,"={}":12938,"Ġmtx":12939,"uts":12940,"abu":12941,"ĠFileOutputStream":12942,"ĠINPUT":12943,"Reduce":12944,"OID":12945,"echo":12946,"ĠsetState":12947,"Ġchallenge":12948,"Ġdetermines":12949,"Ġtrial":12950,"ĠDisk":12951,"Receiver":12952,"ĠCreated":12953,"ari":12954,"Ġuintptr":12955,"Issue":12956,"Shadow":12957,"MenuItem":12958,"OVER":12959,"assignment":12960,"Attachments":12961,"ĠforeignKey":12962,"Ġinternally":12963,"STRAINT":12964,"ĠDom":12965,"ĠaddOption":12966,"ĠwriteString":12967,"Plural":12968,"ĠVec":12969,"elog":12970,"Canvas":12971,"ĠCompiler":12972,"sat":12973,"reach":12974,"ĠAudit":12975,"ularity":12976,"ĠSelection":12977,"Guest":12978,"kdir":12979,"Ġenforce":12980,"ĠRequire":12981,"Mu":12982,"CALE":12983,"ĠWR":12984,"nested":12985,"Ġbw":12986,"Ġled":12987,"placeholder":12988,"Ġstripos":12989,".,":12990,"Vec":12991,"ATIVE":12992,"Ġdeleting":12993,"tz":12994,"LB":12995,"ĠgetSystem":12996,"Ġ'{{":12997,".)":12998,"AW":12999,"CATE":13000,"Ġjournal":13001,"den":13002,"Ġticks":13003,"Uniform":13004,"PerPage":13005,"Cart":13006,"arl":13007,"ĠDiff":13008,"ĠRight":13009,"Ġmodal":13010,"\\\\\\\\":13011,"paren":13012,"Reload":13013,"localhost":13014,"Ġsmarty":13015,"Ġsnippet":13016,"LEN":13017,"ĠGuide":13018,"ufacturer":13019,"extends":13020,"ĠChunk":13021,"ĠPlace":13022,"Ġ'?":13023,"ĠgetJob":13024,"ĠRate":13025,"Ġ06":13026,"Ġcloned":13027,"house":13028,"Applies":13029,"Ġtk":13030,"Ġgsub":13031,"ĠJC":13032,"ĠDoctrine":13033,"Ġ\"{}\"":13034,"Mirror":13035,"uning":13036,"ĠDimension":13037,"rength":13038,"tor":13039,"Ġfollows":13040,"Ġassumes":13041,"Minimum":13042,"[$":13043,"wiki":13044,"Ġphrase":13045,"Ġlocks":13046,"ParseException":13047,"imeos":13048,"transport":13049,"Minutes":13050,"Ġguest":13051,"ĠLIM":13052,"nu":13053,"ĠDaemon":13054,"icky":13055,"Parallel":13056,"revision":13057,"eps":13058,"ĠDownload":13059,"ĠRT":13060,"avigator":13061,"cers":13062,"ĠMethods":13063,"Deletion":13064,"ĠfromResponse":13065,"Ġoptimizer":13066,"Ġpredictions":13067,"Ġbold":13068,"Ġimpro":13069,"Ġchains":13070,"Directories":13071,"Ġobjective":13072,"PropertyName":13073,"ĠChecks":13074,"ĠGridBagConstraints":13075,"ĠMount":13076,"angular":13077,"ĠCurrency":13078,"Ġintro":13079,"STIN":13080,"ANNEL":13081,"ĠmodelClass":13082,"Ġoccurrence":13083,"Overrides":13084,"cnt":13085,"Ġinventory":13086,"FromFile":13087,"grades":13088,"Coords":13089,"Ġdefaultdict":13090,"izedType":13091,"Ġ\"#\"":13092,"------":13093,"Ġfinds":13094,"Ġaria":13095,"ĠcharCode":13096,"pin":13097,"sa":13098,"Ġiterating":13099,"Ġhydrate":13100,"tail":13101,"ĠIG":13102,"Ġfallthrough":13103,"Ġfasta":13104,"Billing":13105,"spl":13106,"literal":13107,"Ġrestrict":13108,"Ġtracer":13109,"ĠChron":13110,"Markup":13111,"Bulk":13112,"warm":13113,"Ġportlet":13114,"Ġpurpose":13115,"ĠCommonTree":13116,"information":13117,"Ġfriendly":13118,"Ġstem":13119,"vie":13120,"FK":13121,"ĠgetAs":13122,"Ġinterrupt":13123,"ĠArchive":13124,"Stores":13125,"Ġgroupby":13126,"Ġ409":13127,"ĠIdent":13128,"Encrypt":13129,"pot":13130,"ĠgetAlias":13131,"ĠRevision":13132,"Ġautos":13133,"ĠUtility":13134,"ĠRIGHT":13135,"Ġtransitions":13136,"Ġestimated":13137,"mid":13138,"should":13139,"Indicator":13140,"taxonomy":13141,"Equ":13142,"TOCOL":13143,"FFIX":13144,"istance":13145,"ĠExecutor":13146,":.":13147,"illed":13148,"Inf":13149,"Ġhel":13150,"###":13151,"AndSet":13152,"ĠServiceCallback":13153,"ĠWebSocket":13154,"Black":13155,"Ġinterpolate":13156,"ĠgetShort":13157,"Ġmtime":13158,"Ġ33":13159,"Ġbusiness":13160,"ĠLIKE":13161,"Ġreduced":13162,"ĠEval":13163,"oser":13164,"ĠgetPersistence":13165,"Ġbatches":13166,"ĠValidationError":13167,"consist":13168,"Vals":13169,"Ġcoin":13170,"tran":13171,"ĠUnsupportedOperationException":13172,"HS":13173,"Linked":13174,"Ġeslint":13175,")/":13176,"uda":13177,"datas":13178,"Ġtrusted":13179,"Namespaces":13180,"CONTEXT":13181,"Persistence":13182,"DBC":13183,"ĠDefine":13184,"Sem":13185,"=\\\"\"":13186,"Ġmigrate":13187,"named":13188,"Ġbag":13189,"ĠBus":13190,"Ġ35":13191,"Ġ'\">'":13192,"Ġinstallation":13193,"Picker":13194,"ĠMIME":13195,"Ġmasked":13196,"ĠgroupBy":13197,"ResultSet":13198,"Ġcounters":13199,"Ġcopies":13200,"sigma":13201,"ĠendDate":13202,"Answer":13203,"ACCESS":13204,"Ġ=~":13205,"Ġvi":13206,"Plus":13207,"EDITOR":13208,"$/":13209,"Criterion":13210,"License":13211,"got":13212,"Ġhtmlspecialchars":13213,"plots":13214,"Gate":13215,"Ġ)=>":13216,"ĠMac":13217,"ĠErrorCode":13218,"ĠExpected":13219,"Shell":13220,"rowsers":13221,"Ġ'..'":13222,"ĠgetReference":13223,"Prom":13224,"RS":13225,"windows":13226,"initialized":13227,"ĠAW":13228,"ABASE":13229,"consumer":13230,"Ġcrypt":13231,"Ġamb":13232,"Threads":13233,"spect":13234,"Ġinform":13235,"Ġanonymous":13236,"Ġprep":13237,"Ġgui":13238,"Samples":13239,"basic":13240,"gc":13241,"noinspection":13242,"viation":13243,"ĠHist":13244,"ĠgetRoute":13245,"ĠCir":13246,"Ġei":13247,"Ġunsupported":13248,"Ġpars":13249,"Unset":13250,"Ġassociate":13251,"cheduling":13252,"ĠnewName":13253,"Supplier":13254,"ĠACCESS":13255,"Ġprefer":13256,"Ġquota":13257,"negative":13258,"Ġspacing":13259,"ĠVPC":13260,"support":13261,"Constructs":13262,"Ġproxies":13263,"ĠRectangle":13264,"Med":13265,"bi":13266,"health":13267,"chemes":13268,"UTION":13269,"ĠJMS":13270,"Ġcsr":13271,"SUP":13272,"ĠMtas":13273,"ĠSetting":13274,"Ġtempfile":13275,"NotFoundError":13276,"addresses":13277,"ĠCREATE":13278,"Cycle":13279,"Ġsx":13280,"ĠgetParams":13281,"Ġstation":13282,"Deg":13283,"writes":13284,"bel":13285,"ĠwriteFile":13286,"ĠSymfony":13287,"ĠTool":13288,"Reporter":13289,"Unsigned":13290,"Ġ44":13291,"ĠImmutableList":13292,"Ġprune":13293,"fasta":13294,"=$":13295,"DEN":13296,"mu":13297,"Alert":13298,"without":13299,"Ġstripped":13300,"ACTIVE":13301,"dum":13302,"ĠManagement":13303,"0001":13304,"ĠLogLevel":13305,"Ġcloser":13306,"Directive":13307,"raf":13308,"ERO":13309,"Locales":13310,"ĠMalformed":13311,"ĠgetLocation":13312,"connections":13313,"definitions":13314,"Ġitertools":13315,"callbacks":13316,"patterns":13317,"ĠLinux":13318,"ĠLIMIT":13319,"Mime":13320,"Ġfullname":13321,"Compat":13322,"Ġgetcwd":13323,"pectrum":13324,"prompt":13325,"ĠCN":13326,"Ġgenerators":13327,"ĠCmd":13328,"ĠContact":13329,"ĠItoa":13330,"ByID":13331,"():":13332,"Ġmgr":13333,"Ġgrow":13334,"Ġgauge":13335,"Ġcolon":13336,"Ġetcd":13337,"ĠLeft":13338,"ĠtoByteArray":13339,"Ġmodul":13340,"INSTANCE":13341,"Ġhasn":13342,"Ġwebhook":13343,"Products":13344,"Ġoc":13345,"ĠLang":13346,"Imports":13347,"ĠStructure":13348,"Nullable":13349,"ĠgetCanonical":13350,"Ġfits":13351,"unity":13352,"ĠCarbon":13353,"ĠPriority":13354,"IDENT":13355,"Lexer":13356,"Ġinbound":13357,"constants":13358,"ĠComparator":13359,"Plain":13360,"Ġgoroutine":13361,"adjust":13362,"ĠFr":13363,"constraint":13364,"gorithms":13365,"OptionValue":13366,"ĠRepositoryException":13367,"Hints":13368,"OG":13369,"Saves":13370,"Vertices":13371,"oy":13372,"atypes":13373,"ĠhashCode":13374,"Helpers":13375,"llum":13376,"čĠĉĉ":13377,"Ġnear":13378,"Ġpickle":13379,"ĠPi":13380,"ĠPersistence":13381,"Ġprec":13382,"Ġcutoff":13383,"CLOSE":13384,"solution":13385,"ĠgetOffset":13386,"ĠpageSize":13387,"modifiable":13388,"ĠNothing":13389,"Ġtlf":13390,"Take":13391,"bn":13392,"ĠbucketName":13393,"LC":13394,"Ġavailability":13395,"='\"":13396,"Ġpts":13397,"RequestInterface":13398,"Ġprocessors":13399,"ĠEncoding":13400,"town":13401,"ĠFieldItem":13402,"BadRequest":13403,"esian":13404,"Ġvv":13405,"comput":13406,"White":13407,"Ġtyping":13408,"ĠSpecial":13409,"oct":13410,"Ġmobile":13411,"izard":13412,"Ġchmod":13413,"ĠReplication":13414,"CASE":13415,"Ġfflib":13416,"Ġreact":13417,"Ġaffect":13418,"Ġrebuild":13419,"Ġ-------------------------------------------------":13420,"Ġhmac":13421,"ĠTensor":13422,"Business":13423,"ĠELEMENT":13424,"ĠcurrentNode":13425,"ĠListen":13426,"vides":13427,"Ġ`'":13428,"ROL":13429,"regor":13430,"Coordinates":13431,"Campaign":13432,"Hour":13433,"InProgress":13434,"installed":13435,"ĠFailure":13436,"dx":13437,"Ġ34":13438,"TEX":13439,"flash":13440,"Ġmanip":13441,"Ġhints":13442,"Ajax":13443,"Ġfid":13444,"Ġcloses":13445,"Ġcmds":13446,"Membership":13447,"ĠInst":13448,"letter":13449,"IB":13450,"eleg":13451,"Ġ/>'":13452,"ĠMaster":13453,"Rune":13454,"ĠgetController":13455,"ĠContract":13456,"translations":13457,"ĠSTACKTOP":13458,"bc":13459,"Ġescap":13460,"ĠPub":13461,"LISH":13462,"Ġmagnitude":13463,"VC":13464,"-----":13465,"Ġanyway":13466,"Modification":13467,"Evaluation":13468,"pull":13469,"ĠRSA":13470,"Ġjoins":13471,"ĠFramework":13472,"ĠCOLUMN":13473,"amodel":13474,"ĠSip":13475,"Emitter":13476,"ĠVALUES":13477,"cid":13478,"dashboard":13479,"ĠMP":13480,"Ġallocation":13481,"HashSet":13482,"Verification":13483,"Ġmismatch":13484,"ĠMySQL":13485,"ĠgetOrCreate":13486,"Ġftp":13487,"ingBox":13488,"Ġlt":13489,"answer":13490,"ĠĠĠĠĠĠĠĠĠĠĠĠĠĠĠĠĠĠĠĠĠĠĠ":13491,"ĠArrayHelper":13492,"Ġoffline":13493,"Ġquestions":13494,"Ġtap":13495,"Ġunable":13496,"ĠputAll":13497,"DIS":13498,"Glob":13499,"ĠgetValues":13500,"caler":13501,"anitize":13502,"Coordinate":13503,"curl":13504,"Ġupstream":13505,"';":13506,"aption":13507,"Ġpers":13508,"ĠonError":13509,"Ġlogp":13510,"ALLOW":13511,"Ġradio":13512,"Ġvpc":13513,"Ġaccumulator":13514,"Ġserv":13515,"Ġstatuses":13516,"Ġtrait":13517,"bars":13518,"IFIED":13519,"Ġupdateresource":13520,"Ġtv":13521,"ĠgetVariable":13522,"ĠinstanceValue":13523,"Ġminion":13524,"ĠBorder":13525,"Ġtherefore":13526,"finished":13527,"Maximum":13528,"Ġlistdir":13529,"ĠuserData":13530,"ĠMultiple":13531,"ĠisSet":13532,"Processed":13533,"Deprecated":13534,"Coll":13535,"ĠInvalidArgument":13536,"Ġcaught":13537,"Acl":13538,"ĠRDF":13539,"generic":13540,"Ġsmallest":13541,"MF":13542,"Ġfpath":13543,"ĠMeasure":13544,"LABEL":13545,"Ġsugg":13546,"Ġdecoding":13547,"vided":13548,"Ġdownloaded":13549,"latest":13550,"Ġpropagate":13551,"mgr":13552,"Ġconvenience":13553,"ĠEncoder":13554,"Ġjvm":13555,"Ġ({}":13556,"Ġlost":13557,"ĠReason":13558,"FieldValue":13559,"ENABLED":13560,"Ġta":13561,"Ġinclusive":13562,"]]":13563,"ĠkeyName":13564,"StringUtil":13565,"Sessions":13566,"ognito":13567,"capability":13568,"nan":13569,"ĠMILLI":13570,"ĠcopyOf":13571,"Abort":13572,"Fore":13573,"Ġ\"?\"":13574,"ListItem":13575,"Possible":13576,"Neighb":13577,"ILE":13578,"Ġic":13579,"ĠserviceLocator":13580,"Ġinteraction":13581,"projects":13582,"tructure":13583,"COOKIE":13584,"Ġkube":13585,"ĠProgram":13586,"Suite":13587,"ĠTick":13588,"ĠLinkedHashMap":13589,"Ġ(?":13590,"ĠstartElement":13591,"ĠExtra":13592,"ĠJSONArray":13593,"Ġlimited":13594,"utors":13595,"Ġlocalized":13596,"SPLAY":13597,"ĠUNKNOWN":13598,"ĠArguments":13599,"Zones":13600,"ĠWITH":13601,"ynomial":13602,"IMAGE":13603,"Quartier":13604,"Ġtwice":13605,"how":13606,"mn":13607,"Ġcontrib":13608,"UserSegment":13609,"Ġassignments":13610,"Nonce":13611,"ithm":13612,"vanced":13613,"Ticket":13614,"completed":13615,"Hit":13616,"Micro":13617,"Ġpane":13618,"ĠSupport":13619,"Hooks":13620,"Implementation":13621,"Ġworksheet":13622,"rd":13623,"Ġgallery":13624,"EMPTY":13625,"Ġ\"[\"":13626,"Ġcollapse":13627,"quential":13628,"ĠlineNumber":13629,"eregister":13630,"ulary":13631,"ĠcheckState":13632,"ĠComparable":13633,"Wrong":13634,"native":13635,"Ġ\";":13636,"Ġtran":13637,"Estimate":13638,"Scalar":13639,"usr":13640,"ATER":13641,"ĠmaxLength":13642,"precation":13643,"Ġexcludes":13644,"Pure":13645,"Room":13646,"analyzer":13647,"ĠInf":13648,"StartTime":13649,"Ġapplying":13650,"STORE":13651,"Tries":13652,"SN":13653,"mapped":13654,"Ġetag":13655,"Retries":13656,"ĠgetPart":13657,"Ġgrace":13658,"Ġvtk":13659,"docker":13660,"Ġmolecule":13661,"Ġinferred":13662,"Quick":13663,"Ġspecifying":13664,"Asc":13665,"Ġ{'":13666,"Ġmarket":13667,"Iterable":13668,"ĠCACHE":13669,"Will":13670,"ĠPipeline":13671,"Ġtokenize":13672,"RegExp":13673,"ĠgetCl":13674,"slashes":13675,"DataSet":13676,"Ġunderscore":13677,"ĠsetAccessible":13678,"ĠGENER":13679,"Ġtransforms":13680,"Ġxp":13681,"ĠwriteInt":13682,"ĠgetFe":13683,"ĠflatMap":13684,"ein":13685,"Ġrepos":13686,"ĠSerializable":13687,"QName":13688,"cies":13689,"ĠFUNCTION":13690,"Bridge":13691,"ĠvalueType":13692,"STREAM":13693,"Ġpurposes":13694,"Ġ2014":13695,"Ġbookmark":13696,"ĠgetApp":13697,"Clusters":13698,"Buffers":13699,"Ġgrunt":13700,"Framework":13701,"ĠCustomer":13702,"Ġradians":13703,"itors":13704,"ConfigFile":13705,"Ġsmart":13706,"ĠFileNotFoundException":13707,"Ġpolling":13708,"ĠCommandExecution":13709,"Ġdjango":13710,"ĠparseFloat":13711,"Ġblueprint":13712,"xs":13713,"Ġalive":13714,"FieldType":13715,"Adapt":13716,"ĠSorted":13717,"BYTES":13718,"Problem":13719,"tensor":13720,"Ġalarm":13721,"ĠvarName":13722,"when":13723,"Fraction":13724,"ĠHook":13725,"Ġsizeof":13726,"Ġfinding":13727,"Ġnormalization":13728,"ĠgetTop":13729,"CALL":13730,"ĠreadInt":13731,"ĠReact":13732,"Parents":13733,"ising":13734,"ĠDay":13735,"Ġstrr":13736,"ĠsessionID":13737,"Partitions":13738,"accounts":13739,"glish":13740,"ĠgetStream":13741,"Representation":13742,"ĠHere":13743,"ipedia":13744,"Controllers":13745,"Ġ63":13746,"Ġweighted":13747,"queries":13748,"finish":13749,"Ġeth":13750,"ĠStmt":13751,"Ġnice":13752,"Ġlearning":13753,"Ġeditable":13754,"Ġpaginator":13755,"ASCII":13756,"512":13757,"crop":13758,"elect":13759,"Ġlocally":13760,"ĠFieldLocation":13761,"\"></":13762,"Ġtaking":13763,"Ġhaystack":13764,"Ġcharge":13765,"ĠblockSize":13766,"oving":13767,"Ġletters":13768,"Hostname":13769,"Popup":13770,"ĠMSG":13771,"}.\"":13772,"Ġ\"+":13773,"ODY":13774,"enk":13775,"Ġforget":13776,"Ġxmin":13777,"toi":13778,"ĠFileUtils":13779,"Ln":13780,"Ġadata":13781,"ĠgetOwner":13782,"losed":13783,"PASSWORD":13784,"Aff":13785,"ToAdd":13786,"Footer":13787,"Power":13788,"Txn":13789,"ĠaData":13790,"ĠTile":13791,"ĠGetenv":13792,"Ġperms":13793,"Ġdecrypted":13794,"Ġannotate":13795,"ĠDetect":13796,"GI":13797,"each":13798,"uncate":13799,"Ġvalidity":13800,"Ġlocated":13801,"CMS":13802,"ĠPO":13803,"Ġclassification":13804,"Ġearlier":13805,"Ġty":13806,"ĠgetFileName":13807,"Ġverified":13808,"Bo":13809,"Ġinterceptor":13810,"Addrs":13811,"ĠsetDescription":13812,"ĠPerm":13813,"ĠnodeValue":13814,"workflow":13815,"Ġdecorated":13816,"Ġbmd":13817,"ĠendIndex":13818,"phen":13819,"Ġstylesheet":13820,"Ġfrequ":13821,"Ġ101":13822,"ĠPREG":13823,"pharmacy":13824,"Ġcorpus":13825,"Ġdetector":13826,"specified":13827,"Ġgf":13828,"adj":13829,"Offsets":13830,"aliases":13831,"rp":13832,"ĠTyped":13833,"Idle":13834,"poll":13835,"EncodingException":13836,"Ġbd":13837,"ĠPay":13838,"ĠGROUP":13839,"ĠgetStorage":13840,"KeyValue":13841,"Generation":13842,"Ġattack":13843,"ĠCollector":13844,"ĠjobId":13845,"ĠCOMP":13846,"SPEC":13847,"ana":13848,"-----------":13849,"Ġ56":13850,"numbers":13851,"Ġforced":13852,"Ġobservation":13853,"ĠgetDisplay":13854,"ĠcheckFor":13855,"Outputs":13856,"Ġpointers":13857,"unshift":13858,"ĠendTime":13859,"Classifier":13860,"Ġfloating":13861,"ĠCONTEXT":13862,"ĠmoveTo":13863,"ĠEnumeration":13864,"Frequency":13865,"transfer":13866,"effect":13867,"Ġdfs":13868,");'":13869,"Ġcerts":13870,"speed":13871,"Ġips":13872,"fox":13873,"MX":13874,"Ġobservable":13875,"ĠgetW":13876,"Ġdirectives":13877,"Ġtech":13878,"ĠaddBody":13879,"ĠWE":13880,"ĠcreateQueryBuilder":13881,"issue":13882,"ĠpageNum":13883,"Ġnetworks":13884,"Ġrounding":13885,"lapsed":13886,"Ġsun":13887,"ima":13888,"Performed":13889,"CATED":13890,"TCP":13891,"Ġmatplotlib":13892,"ĠPrepared":13893,"ĠisNotEmpty":13894,"Ġlistening":13895,"Cipher":13896,"Vpc":13897,"ided":13898,"ĠTokens":13899,"ĠEmb":13900,"Ġalgo":13901,"Ġbacktrace":13902,"uzzy":13903,"Eval":13904,"gif":13905,"ĠaddHeader":13906,"enses":13907,"Ġ512":13908,"basename":13909,"Ġub":13910,"Ġandroid":13911,"ashed":13912,"ĠDesc":13913,"Ġoverall":13914,"STRUCT":13915,"panel":13916,"Ġrecursion":13917,"ĠJWT":13918,"mapper":13919,"ĠLoader":13920,"ĠLinear":13921,"ĠIAtomContainer":13922,"focus":13923,"room":13924,"stone":13925,"Ġcheckout":13926,"Ġcancelled":13927,"ĠsetS":13928,"translate":13929,"Optim":13930,"bias":13931,"}}'":13932,"Ġtracks":13933,"Ġmoves":13934,"Ġpotentially":13935,"nostics":13936,"Balance":13937,"Letter":13938,"Ġaligned":13939,"Ġadjusted":13940,"Cross":13941,"MONTH":13942,"Ui":13943,"]\\":13944,"ĠWAF":13945,"cycle":13946,"Ġinfl":13947,"strict":13948,"ĠCursor":13949,"OPER":13950,"ZIP":13951,"mc":13952,"Ġrating":13953,"Ġrawurl":13954,"Ġcorresponds":13955,"Ġcobra":13956,"game":13957,"Ġnf":13958,"ĠrootPath":13959,"ĠYaml":13960,"phase":13961,"Adding":13962,"Parsing":13963,"ĠtreeBuilder":13964,"ĠFieldDescriptor":13965,"Routing":13966,"ĠSwitch":13967,"filled":13968,"Ġorm":13969,"ĠcurrentUser":13970,"Accounts":13971,"Ġdropdown":13972,"ĠStdout":13973,"Ġtreated":13974,"Ġzones":13975,"Ġascending":13976,"ĠOrderByComparator":13977,"Ġrst":13978,"Ġcomps":13979,"Deep":13980,"Unauthorized":13981,"WithAnnotations":13982,"Ġassociative":13983,"ĠARG":13984,"FormalParameter":13985,"ĠfromArray":13986,"KeyName":13987,"Ġtempl":13988,"Calculation":13989,"GENER":13990,"restore":13991,"ĠObser":13992,"Ġreplacing":13993,"ĠCollectors":13994,"Ġhom":13995,"additional":13996,"queez":13997,"Ġgoes":13998,"Ġmarks":13999,"Ġreasons":14000,"Gap":14001,"big":14002,"Ġnod":14003,"rou":14004,"INTERNAL":14005,"ORS":14006,"ĠdefineProperty":14007,"ĠAssociate":14008,"Absent":14009,"Ġreported":14010,"ĠLONG":14011,"Capabilities":14012,"ĠFeed":14013,"cov":14014,"Ġ((":14015,"Ġxmax":14016,"HttpException":14017,"ĠPrivateKey":14018,"major":14019,"SUM":14020,"ĠsortBy":14021,"ĠArtifact":14022,"}-":14023,"ĠMaybe":14024,"Ġhowever":14025,"([\\":14026,"Clock":14027,"ĠTEM":14028,"Ġchdir":14029,"ĠVideo":14030,"Ġextractor":14031,"Rotation":14032,"RETURN":14033,"CIDR":14034,"virt":14035,"Ġfee":14036,"ĠNodes":14037,"Placeholder":14038,"nl":14039,"Ġ?'":14040,"StatusCode":14041,"AndGet":14042,"ĠATTRI":14043,"did":14044,"languages":14045,"Ġdont":14046,")|":14047,"gap":14048,"Ġht":14049,"\"><":14050,"ĠrequestParams":14051,"Ġ401":14052,"callpoint":14053,"ĠES":14054,"inder":14055,"clone":14056,"ĠMODULE":14057,"Diag":14058,"ĠSpace":14059,"ĠSafe":14060,"Ġkp":14061,"ĠProvision":14062,"Ġticker":14063,"Ġmul":14064,"ĠDataSet":14065,"guid":14066,"Ġstale":14067,"outer":14068,"ĠHttpRequest":14069,"expire":14070,"ĠPrintWriter":14071,"ogs":14072,"ĠBLOCK":14073,"BaseUrl":14074,"Ġloops":14075,"ĠTTL":14076,"saved":14077,"ĠbaseDir":14078,"udience":14079,"spacing":14080,"blue":14081,"combine":14082,"ExceededException":14083,"touch":14084,"anode":14085,"ĠMonitor":14086,"Ġxi":14087,"Ġomit":14088,"deprecated":14089,"Ġbanner":14090,"ĠBEL":14091,"frequency":14092,"Ġclauses":14093,"ĠExtended":14094,"large":14095,"Ġdeadline":14096,"Orientation":14097,"Ġcw":14098,"Ġprinted":14099,"ĠHandlers":14100,"ynamoDB":14101,"Kit":14102,"Ġever":14103,"Ġfilesize":14104,"Worksheet":14105,"IOException":14106,"gres":14107,"certificate":14108,"ĠsetTitle":14109,"ĠresourceType":14110,"Notifications":14111,"Need":14112,"AIT":14113,"Ġstable":14114,"Ġanno":14115,"ĠAtoi":14116,"ĠfunctionName":14117,"Ġ'\\'":14118,"Ġcauses":14119,"ille":14120,"ĠGame":14121,"resolver":14122,"TITLE":14123,"XPath":14124,"Ġgm":14125,"Interrupt":14126,"Ġterminated":14127,"Ġbenchmark":14128,"ĠinnerHTML":14129,"CAT":14130,"ĠJVM":14131,"Conditional":14132,"Certificates":14133,"ĠstringTo":14134,"ĠgetCur":14135,"Ġgz":14136,"except":14137,"ĠMut":14138,"Ġxa":14139,"KeyId":14140,"avg":14141,"ADDR":14142,"ĠCannot":14143,"TypeException":14144,"ByType":14145,"Trust":14146,"_{":14147,"ĠAPPLICATION":14148,"Keywords":14149,"ĠgetPost":14150,"Readable":14151,"ucene":14152,"arter":14153,"ĠgetManager":14154,"ĠgetCount":14155,"codeCoverage":14156,"Ġviewer":14157,"Ġassessment":14158,"ĠDefaults":14159,"ĠJsonResponse":14160,"clip":14161,"Ġva":14162,"Chat":14163,"Ġzk":14164,"OPTIONAL":14165,"qp":14166,"ĠgetSign":14167,"evalu":14168,"ĠComput":14169,"registration":14170,"Ġflattened":14171,"Ġprecedence":14172,"Best":14173,"Docker":14174,"etc":14175,"Ġfunctionality":14176,"Ġsignificant":14177,"ĠAlways":14178,"ĠRefresh":14179,"domains":14180,"8601":14181,"codeCoverageIgnore":14182,"Ġraises":14183,"Ġperf":14184,"Discard":14185,"Transactions":14186,"Ġmailbox":14187,"Ġparticipant":14188,"Tip":14189,"Ġsound":14190,"ĠgetAuth":14191,"ĠFill":14192,"Ġ?>":14193,"slot":14194,"Ġskipping":14195,"Ġdeclare":14196,"Webhook":14197,"oltage":14198,"Ent":14199,"Ġfoot":14200,"Ġjid":14201,"nc":14202,"zones":14203,"ĠSN":14204,"ĠStringUtil":14205,"Ġacceptable":14206,"istrator":14207,"ĠWithError":14208,"HOME":14209,"ĠgetStyle":14210,"ĠsetOption":14211,"Ġparsers":14212,"ĠremoveChild":14213,"Inserts":14214,"Ġdescriptors":14215,"Inherit":14216,"INTEGER":14217,"ĠInetAddress":14218,"Fit":14219,"Sensitive":14220,"Ġae":14221,"Replica":14222,"ĠOw":14223,"ĠformData":14224,"Propagation":14225,"ĠgetColumns":14226,"PRESSION":14227,"ĠBigEndian":14228,"Ġcoefficients":14229,"Ġshutit":14230,"Band":14231,"POL":14232,"SCHEMA":14233,"ĠLexer":14234,"UAL":14235,"ĠFileInfo":14236,"AU":14237,"ĠAdapter":14238,"ĠLoadBalancer":14239,"city":14240,"pf":14241,"Ġhashed":14242,"Ġbaseline":14243,"Ġconnecting":14244,"orn":14245,"ĠMAC":14246,"servers":14247,"PEM":14248,"Ġpersisted":14249,"irmware":14250,"Ġeta":14251,"ĠsetAllowed":14252,"gg":14253,"Ġil":14254,"Ġemails":14255,"Lar":14256,"TIES":14257,"decess":14258,"complex":14259,"127":14260,"Rendering":14261,
[...]
